{
  "version": "1.0",
  "truncation": null,
  "padding": null,
  "added_tokens": [
    {
      "id": 0,
      "content": "[PAD]",
      "single_word": false,
      "lstrip": false,
      "rstrip": false,
      "normalized": false,
      "special": true
    },
    {
      "id": 1,
      "content": "[UNK]",
      "single_word": false,
      "lstrip": false,
      "rstrip": false,
      "normalized": false,
      "special": true
    },
    {
      "id": 2,
      "content": "<|START|>",
      "single_word": false,
      "lstrip": false,
      "rstrip": false,
      "normalized": false,
      "special": true
    },
    {
      "id": 3,
      "content": "<|END|>",
      "single_word": false,
      "lstrip": false,
      "rstrip": false,
      "normalized": false,
      "special": true
    }
  ],
  "normalizer": {
    "type": "Sequence",
    "normalizers": [
      {
        "type": "NFD"
      },
      {
        "type": "StripAccents"
      }
    ]
  },
  "pre_tokenizer": {
    "type": "Sequence",
    "pretokenizers": [
      {
        "type": "Whitespace"
      }
    ]
  },
  "post_processor": {
    "type": "TemplateProcessing",
    "single": [
      {
        "SpecialToken": {
          "id": "<|START|>",
          "type_id": 0
        }
      },
      {
        "Sequence": {
          "id": "A",
          "type_id": 0
        }
      },
      {
        "SpecialToken": {
          "id": "<|END|>",
          "type_id": 0
        }
      }
    ],
    "pair": [
      {
        "Sequence": {
          "id": "A",
          "type_id": 0
        }
      },
      {
        "Sequence": {
          "id": "B",
          "type_id": 1
        }
      }
    ],
    "special_tokens": {
      "<|END|>": {
        "id": "<|END|>",
        "ids": [
          3
        ],
        "tokens": [
          "<|END|>"
        ]
      },
      "<|START|>": {
        "id": "<|START|>",
        "ids": [
          2
        ],
        "tokens": [
          "<|START|>"
        ]
      }
    }
  },
  "decoder": null,
  "model": {
    "type": "BPE",
    "dropout": null,
    "unk_token": "[UNK]",
    "continuing_subword_prefix": null,
    "end_of_word_suffix": null,
    "fuse_unk": false,
    "byte_fallback": false,
    "ignore_merges": false,
    "vocab": {
      "[PAD]": 0,
      "[UNK]": 1,
      "<|START|>": 2,
      "<|END|>": 3,
      "!": 4,
      "\"": 5,
      "#": 6,
      "$": 7,
      "%": 8,
      "&": 9,
      "'": 10,
      "(": 11,
      ")": 12,
      "*": 13,
      "+": 14,
      ",": 15,
      "-": 16,
      ".": 17,
      "/": 18,
      "0": 19,
      "1": 20,
      "2": 21,
      "3": 22,
      "4": 23,
      "5": 24,
      "6": 25,
      "7": 26,
      "8": 27,
      "9": 28,
      ":": 29,
      ";": 30,
      "<": 31,
      "=": 32,
      ">": 33,
      "?": 34,
      "@": 35,
      "A": 36,
      "B": 37,
      "C": 38,
      "D": 39,
      "E": 40,
      "F": 41,
      "G": 42,
      "H": 43,
      "I": 44,
      "J": 45,
      "K": 46,
      "L": 47,
      "M": 48,
      "N": 49,
      "O": 50,
      "P": 51,
      "Q": 52,
      "R": 53,
      "S": 54,
      "T": 55,
      "U": 56,
      "V": 57,
      "W": 58,
      "X": 59,
      "Y": 60,
      "Z": 61,
      "[": 62,
      "\\": 63,
      "]": 64,
      "^": 65,
      "_": 66,
      "`": 67,
      "a": 68,
      "b": 69,
      "c": 70,
      "d": 71,
      "e": 72,
      "f": 73,
      "g": 74,
      "h": 75,
      "i": 76,
      "j": 77,
      "k": 78,
      "l": 79,
      "m": 80,
      "n": 81,
      "o": 82,
      "p": 83,
      "q": 84,
      "r": 85,
      "s": 86,
      "t": 87,
      "u": 88,
      "v": 89,
      "w": 90,
      "x": 91,
      "y": 92,
      "z": 93,
      "{": 94,
      "|": 95,
      "}": 96,
      "~": 97,
      "": 98,
      "": 99,
      "": 100,
      "": 101,
      "¡": 102,
      "¢": 103,
      "£": 104,
      "¥": 105,
      "§": 106,
      "©": 107,
      "«": 108,
      "­": 109,
      "®": 110,
      "¯": 111,
      "°": 112,
      "±": 113,
      "²": 114,
      "³": 115,
      "´": 116,
      "µ": 117,
      "¶": 118,
      "·": 119,
      "¹": 120,
      "º": 121,
      "»": 122,
      "¼": 123,
      "½": 124,
      "¾": 125,
      "¿": 126,
      "Æ": 127,
      "×": 128,
      "Ø": 129,
      "Þ": 130,
      "ß": 131,
      "æ": 132,
      "ð": 133,
      "÷": 134,
      "ø": 135,
      "þ": 136,
      "Đ": 137,
      "đ": 138,
      "Ħ": 139,
      "ħ": 140,
      "ı": 141,
      "Ł": 142,
      "ł": 143,
      "ŋ": 144,
      "Œ": 145,
      "œ": 146,
      "Ə": 147,
      "ƒ": 148,
      "ǂ": 149,
      "ɐ": 150,
      "ɑ": 151,
      "ɒ": 152,
      "ɓ": 153,
      "ɔ": 154,
      "ɕ": 155,
      "ɖ": 156,
      "ɗ": 157,
      "ə": 158,
      "ɛ": 159,
      "ɟ": 160,
      "ɡ": 161,
      "ɢ": 162,
      "ɣ": 163,
      "ɦ": 164,
      "ɧ": 165,
      "ɨ": 166,
      "ɪ": 167,
      "ɬ": 168,
      "ɯ": 169,
      "ɲ": 170,
      "ɴ": 171,
      "ɵ": 172,
      "ɸ": 173,
      "ɻ": 174,
      "ɾ": 175,
      "ʀ": 176,
      "ʁ": 177,
      "ʂ": 178,
      "ʃ": 179,
      "ʇ": 180,
      "ʈ": 181,
      "ʊ": 182,
      "ʋ": 183,
      "ʌ": 184,
      "ʍ": 185,
      "ʎ": 186,
      "ʒ": 187,
      "ʔ": 188,
      "ʕ": 189,
      "ʘ": 190,
      "ʝ": 191,
      "ʟ": 192,
      "ʰ": 193,
      "ʲ": 194,
      "ʷ": 195,
      "ʻ": 196,
      "ʼ": 197,
      "ʾ": 198,
      "ʿ": 199,
      "ˀ": 200,
      "ˁ": 201,
      "ˈ": 202,
      "ˌ": 203,
      "ː": 204,
      "˔": 205,
      "˘": 206,
      "˚": 207,
      "˞": 208,
      "ˠ": 209,
      "ˤ": 210,
      "˥": 211,
      "˦": 212,
      "˧": 213,
      "˨": 214,
      "˩": 215,
      "Α": 216,
      "Β": 217,
      "Γ": 218,
      "Δ": 219,
      "Ε": 220,
      "Η": 221,
      "Θ": 222,
      "Ι": 223,
      "Κ": 224,
      "Λ": 225,
      "Μ": 226,
      "Ν": 227,
      "Ξ": 228,
      "Ο": 229,
      "Π": 230,
      "Ρ": 231,
      "Σ": 232,
      "Τ": 233,
      "Φ": 234,
      "Χ": 235,
      "Ψ": 236,
      "Ω": 237,
      "α": 238,
      "β": 239,
      "γ": 240,
      "δ": 241,
      "ε": 242,
      "ζ": 243,
      "η": 244,
      "θ": 245,
      "ι": 246,
      "κ": 247,
      "λ": 248,
      "μ": 249,
      "ν": 250,
      "ξ": 251,
      "ο": 252,
      "π": 253,
      "ρ": 254,
      "ς": 255,
      "σ": 256,
      "τ": 257,
      "υ": 258,
      "φ": 259,
      "χ": 260,
      "ψ": 261,
      "ω": 262,
      "ϕ": 263,
      "Ј": 264,
      "А": 265,
      "Б": 266,
      "В": 267,
      "Г": 268,
      "Д": 269,
      "Е": 270,
      "З": 271,
      "И": 272,
      "К": 273,
      "М": 274,
      "Н": 275,
      "О": 276,
      "П": 277,
      "Р": 278,
      "С": 279,
      "Т": 280,
      "Ч": 281,
      "Ш": 282,
      "Я": 283,
      "а": 284,
      "б": 285,
      "в": 286,
      "г": 287,
      "д": 288,
      "е": 289,
      "ж": 290,
      "з": 291,
      "и": 292,
      "к": 293,
      "л": 294,
      "м": 295,
      "н": 296,
      "о": 297,
      "п": 298,
      "р": 299,
      "с": 300,
      "т": 301,
      "у": 302,
      "х": 303,
      "ц": 304,
      "ч": 305,
      "ш": 306,
      "ъ": 307,
      "ы": 308,
      "ь": 309,
      "э": 310,
      "ю": 311,
      "я": 312,
      "і": 313,
      "ј": 314,
      "љ": 315,
      "Կ": 316,
      "Հ": 317,
      "Մ": 318,
      "Ս": 319,
      "ա": 320,
      "բ": 321,
      "ե": 322,
      "թ": 323,
      "ի": 324,
      "կ": 325,
      "հ": 326,
      "ղ": 327,
      "յ": 328,
      "ն": 329,
      "շ": 330,
      "ո": 331,
      "պ": 332,
      "ս": 333,
      "վ": 334,
      "տ": 335,
      "ր": 336,
      "ց": 337,
      "ւ": 338,
      "ք": 339,
      "א": 340,
      "ב": 341,
      "ג": 342,
      "ד": 343,
      "ו": 344,
      "ח": 345,
      "י": 346,
      "כ": 347,
      "ל": 348,
      "ם": 349,
      "מ": 350,
      "ן": 351,
      "נ": 352,
      "ס": 353,
      "ע": 354,
      "צ": 355,
      "ר": 356,
      "ש": 357,
      "ת": 358,
      "،": 359,
      "ء": 360,
      "ا": 361,
      "ب": 362,
      "ة": 363,
      "ت": 364,
      "ث": 365,
      "ج": 366,
      "ح": 367,
      "خ": 368,
      "د": 369,
      "ر": 370,
      "ز": 371,
      "س": 372,
      "ش": 373,
      "ص": 374,
      "ط": 375,
      "ع": 376,
      "غ": 377,
      "ف": 378,
      "ق": 379,
      "ك": 380,
      "ل": 381,
      "م": 382,
      "ن": 383,
      "ه": 384,
      "و": 385,
      "ي": 386,
      "ی": 387,
      "अ": 388,
      "आ": 389,
      "उ": 390,
      "क": 391,
      "ग": 392,
      "ट": 393,
      "ड": 394,
      "त": 395,
      "द": 396,
      "न": 397,
      "प": 398,
      "ब": 399,
      "भ": 400,
      "म": 401,
      "य": 402,
      "र": 403,
      "ल": 404,
      "श": 405,
      "ष": 406,
      "स": 407,
      "ह": 408,
      "।": 409,
      "॥": 410,
      "ক": 411,
      "ত": 412,
      "ন": 413,
      "ব": 414,
      "ম": 415,
      "ল": 416,
      "க": 417,
      "ன": 418,
      "ள": 419,
      "ก": 420,
      "ข": 421,
      "ง": 422,
      "จ": 423,
      "ช": 424,
      "ฐ": 425,
      "ณ": 426,
      "ต": 427,
      "ท": 428,
      "น": 429,
      "ป": 430,
      "พ": 431,
      "ม": 432,
      "ย": 433,
      "ร": 434,
      "ล": 435,
      "ว": 436,
      "ะ": 437,
      "า": 438,
      "฿": 439,
      "เ": 440,
      "แ": 441,
      "་": 442,
      "།": 443,
      "င": 444,
      "ဆ": 445,
      "န": 446,
      "ရ": 447,
      "გ": 448,
      "დ": 449,
      "ვ": 450,
      "ზ": 451,
      "ი": 452,
      "კ": 453,
      "ო": 454,
      "რ": 455,
      "ს": 456,
      "უ": 457,
      "ც": 458,
      "ძ": 459,
      "წ": 460,
      "ხ": 461,
      "ჯ": 462,
      "჻": 463,
      "ᄀ": 464,
      "ᄅ": 465,
      "ᄆ": 466,
      "ᄉ": 467,
      "ᄋ": 468,
      "ᄌ": 469,
      "ᄐ": 470,
      "ᄒ": 471,
      "ᅡ": 472,
      "ᅥ": 473,
      "ᅮ": 474,
      "ᅵ": 475,
      "ᆨ": 476,
      "ᆫ": 477,
      "ᆯ": 478,
      "ᆺ": 479,
      "፡": 480,
      "ᛃ": 481,
      "ᛋ": 482,
      "ᛟ": 483,
      "ត": 484,
      "ន": 485,
      "ព": 486,
      "ម": 487,
      "រ": 488,
      "ស": 489,
      "ហ": 490,
      "​": 491,
      "‌": 492,
      "‍": 493,
      "‐": 494,
      "‑": 495,
      "‒": 496,
      "–": 497,
      "—": 498,
      "―": 499,
      "‘": 500,
      "’": 501,
      "‚": 502,
      "“": 503,
      "”": 504,
      "„": 505,
      "†": 506,
      "‡": 507,
      "•": 508,
      "…": 509,
      "‰": 510,
      "′": 511,
      "″": 512,
      "※": 513,
      "‼": 514,
      "‿": 515,
      "⁄": 516,
      "⁊": 517,
      "⁡": 518,
      "⁺": 519,
      "₁": 520,
      "₂": 521,
      "₃": 522,
      "₡": 523,
      "₣": 524,
      "₤": 525,
      "₦": 526,
      "₨": 527,
      "₩": 528,
      "₫": 529,
      "€": 530,
      "₱": 531,
      "₹": 532,
      "℃": 533,
      "ℓ": 534,
      "№": 535,
      "™": 536,
      "⅓": 537,
      "⅔": 538,
      "⅛": 539,
      "⅜": 540,
      "⅝": 541,
      "⅞": 542,
      "←": 543,
      "↑": 544,
      "→": 545,
      "↓": 546,
      "↔": 547,
      "↗": 548,
      "↦": 549,
      "↪": 550,
      "⇄": 551,
      "⇌": 552,
      "∀": 553,
      "∂": 554,
      "∆": 555,
      "∈": 556,
      "∑": 557,
      "−": 558,
      "∕": 559,
      "∖": 560,
      "∗": 561,
      "∘": 562,
      "√": 563,
      "∝": 564,
      "∞": 565,
      "∩": 566,
      "∪": 567,
      "∴": 568,
      "∼": 569,
      "≈": 570,
      "≡": 571,
      "≤": 572,
      "≥": 573,
      "≪": 574,
      "⊂": 575,
      "⊕": 576,
      "⊗": 577,
      "⊙": 578,
      "⊥": 579,
      "⋅": 580,
      "⋯": 581,
      "⌊": 582,
      "⌋": 583,
      "①": 584,
      "②": 585,
      "④": 586,
      "█": 587,
      "▲": 588,
      "★": 589,
      "☆": 590,
      "☉": 591,
      "♀": 592,
      "♠": 593,
      "♣": 594,
      "♥": 595,
      "♦": 596,
      "♩": 597,
      "♪": 598,
      "♭": 599,
      "♮": 600,
      "♯": 601,
      "⟦": 602,
      "⟧": 603,
      "⟨": 604,
      "⟩": 605,
      "⩽": 606,
      "ⴷ": 607,
      "、": 608,
      "。": 609,
      "〈": 610,
      "〉": 611,
      "「": 612,
      "」": 613,
      "『": 614,
      "』": 615,
      "〜": 616,
      "あ": 617,
      "い": 618,
      "ぅ": 619,
      "う": 620,
      "お": 621,
      "か": 622,
      "き": 623,
      "く": 624,
      "こ": 625,
      "さ": 626,
      "し": 627,
      "す": 628,
      "せ": 629,
      "た": 630,
      "ち": 631,
      "つ": 632,
      "て": 633,
      "と": 634,
      "な": 635,
      "の": 636,
      "は": 637,
      "ふ": 638,
      "へ": 639,
      "ほ": 640,
      "ま": 641,
      "み": 642,
      "め": 643,
      "よ": 644,
      "ら": 645,
      "り": 646,
      "る": 647,
      "ん": 648,
      "ァ": 649,
      "ア": 650,
      "ィ": 651,
      "イ": 652,
      "ウ": 653,
      "ェ": 654,
      "エ": 655,
      "ォ": 656,
      "オ": 657,
      "カ": 658,
      "キ": 659,
      "ク": 660,
      "ケ": 661,
      "コ": 662,
      "サ": 663,
      "シ": 664,
      "ス": 665,
      "セ": 666,
      "ソ": 667,
      "タ": 668,
      "チ": 669,
      "ッ": 670,
      "ツ": 671,
      "テ": 672,
      "ト": 673,
      "ナ": 674,
      "ニ": 675,
      "ノ": 676,
      "ハ": 677,
      "ヒ": 678,
      "フ": 679,
      "ヘ": 680,
      "ホ": 681,
      "マ": 682,
      "ミ": 683,
      "ム": 684,
      "メ": 685,
      "モ": 686,
      "ャ": 687,
      "ヤ": 688,
      "ュ": 689,
      "ユ": 690,
      "ョ": 691,
      "ラ": 692,
      "リ": 693,
      "ル": 694,
      "レ": 695,
      "ロ": 696,
      "ワ": 697,
      "ン": 698,
      "・": 699,
      "ー": 700,
      "一": 701,
      "三": 702,
      "上": 703,
      "下": 704,
      "不": 705,
      "丑": 706,
      "世": 707,
      "个": 708,
      "久": 709,
      "之": 710,
      "乙": 711,
      "二": 712,
      "五": 713,
      "亦": 714,
      "京": 715,
      "人": 716,
      "介": 717,
      "仙": 718,
      "令": 719,
      "伝": 720,
      "住": 721,
      "佛": 722,
      "作": 723,
      "併": 724,
      "侠": 725,
      "個": 726,
      "催": 727,
      "像": 728,
      "光": 729,
      "内": 730,
      "写": 731,
      "冴": 732,
      "净": 733,
      "凪": 734,
      "分": 735,
      "列": 736,
      "刘": 737,
      "初": 738,
      "判": 739,
      "別": 740,
      "前": 741,
      "剛": 742,
      "剣": 743,
      "劇": 744,
      "動": 745,
      "勝": 746,
      "北": 747,
      "匹": 748,
      "千": 749,
      "卒": 750,
      "南": 751,
      "博": 752,
      "厘": 753,
      "双": 754,
      "台": 755,
      "号": 756,
      "同": 757,
      "名": 758,
      "君": 759,
      "呼": 760,
      "哈": 761,
      "四": 762,
      "回": 763,
      "国": 764,
      "國": 765,
      "土": 766,
      "坂": 767,
      "場": 768,
      "境": 769,
      "士": 770,
      "外": 771,
      "大": 772,
      "天": 773,
      "太": 774,
      "女": 775,
      "姉": 776,
      "婷": 777,
      "子": 778,
      "字": 779,
      "季": 780,
      "孩": 781,
      "守": 782,
      "宋": 783,
      "宗": 784,
      "寔": 785,
      "寺": 786,
      "小": 787,
      "少": 788,
      "尾": 789,
      "巨": 790,
      "廷": 791,
      "式": 792,
      "弘": 793,
      "张": 794,
      "張": 795,
      "彼": 796,
      "後": 797,
      "心": 798,
      "思": 799,
      "愛": 800,
      "憲": 801,
      "戦": 802,
      "房": 803,
      "所": 804,
      "撃": 805,
      "攻": 806,
      "新": 807,
      "方": 808,
      "日": 809,
      "旦": 810,
      "早": 811,
      "星": 812,
      "春": 813,
      "時": 814,
      "書": 815,
      "月": 816,
      "朝": 817,
      "木": 818,
      "本": 819,
      "李": 820,
      "杜": 821,
      "束": 822,
      "条": 823,
      "東": 824,
      "松": 825,
      "枚": 826,
      "條": 827,
      "植": 828,
      "椎": 829,
      "楽": 830,
      "様": 831,
      "機": 832,
      "正": 833,
      "武": 834,
      "歩": 835,
      "死": 836,
      "殻": 837,
      "氏": 838,
      "民": 839,
      "気": 840,
      "氣": 841,
      "水": 842,
      "氷": 843,
      "氾": 844,
      "法": 845,
      "活": 846,
      "流": 847,
      "浅": 848,
      "海": 849,
      "溜": 850,
      "瀬": 851,
      "火": 852,
      "無": 853,
      "版": 854,
      "特": 855,
      "王": 856,
      "瓦": 857,
      "生": 858,
      "用": 859,
      "田": 860,
      "町": 861,
      "界": 862,
      "畫": 863,
      "皮": 864,
      "真": 865,
      "礮": 866,
      "神": 867,
      "秋": 868,
      "積": 869,
      "空": 870,
      "章": 871,
      "箇": 872,
      "節": 873,
      "米": 874,
      "約": 875,
      "紋": 876,
      "綾": 877,
      "緑": 878,
      "編": 879,
      "群": 880,
      "羽": 881,
      "耕": 882,
      "聖": 883,
      "肖": 884,
      "膺": 885,
      "芝": 886,
      "花": 887,
      "草": 888,
      "莊": 889,
      "蛍": 890,
      "街": 891,
      "裁": 892,
      "装": 893,
      "西": 894,
      "見": 895,
      "語": 896,
      "説": 897,
      "議": 898,
      "词": 899,
      "谷": 900,
      "路": 901,
      "軍": 902,
      "転": 903,
      "輝": 904,
      "逆": 905,
      "進": 906,
      "道": 907,
      "遠": 908,
      "邪": 909,
      "部": 910,
      "野": 911,
      "量": 912,
      "金": 913,
      "銀": 914,
      "銖": 915,
      "錬": 916,
      "隊": 917,
      "隴": 918,
      "隻": 919,
      "雄": 920,
      "集": 921,
      "雪": 922,
      "零": 923,
      "靈": 924,
      "青": 925,
      "韓": 926,
      "風": 927,
      "鬼": 928,
      "魂": 929,
      "魄": 930,
      "魔": 931,
      "鼓": 932,
      "ﬁ": 933,
      "﻿": 934,
      "！": 935,
      "＆": 936,
      "（": 937,
      "）": 938,
      "，": 939,
      "－": 940,
      "：": 941,
      "＝": 942,
      "？": 943,
      "～": 944,
      "｢": 945,
      "･": 946,
      "￥": 947,
      "th": 948,
      "in": 949,
      "er": 950,
      "an": 951,
      "the": 952,
      "on": 953,
      "ed": 954,
      "re": 955,
      "at": 956,
      "en": 957,
      "or": 958,
      "al": 959,
      "st": 960,
      "ar": 961,
      "and": 962,
      "as": 963,
      "of": 964,
      "ing": 965,
      "es": 966,
      "to": 967,
      "is": 968,
      "it": 969,
      "ou": 970,
      "ic": 971,
      "ion": 972,
      "le": 973,
      "he": 974,
      "ro": 975,
      "il": 976,
      "ac": 977,
      "ent": 978,
      "ad": 979,
      "se": 980,
      "un": 981,
      "am": 982,
      "om": 983,
      "be": 984,
      "ly": 985,
      "was": 986,
      "for": 987,
      "ch": 988,
      "ve": 989,
      "de": 990,
      "ur": 991,
      "ol": 992,
      "ir": 993,
      "The": 994,
      "im": 995,
      "-@": 996,
      "@-@": 997,
      "ig": 998,
      "ver": 999,
      "ter": 1000,
      "wh": 1001,
      "ow": 1002,
      "ith": 1003,
      "ce": 1004,
      "ay": 1005,
      "con": 1006,
      "id": 1007,
      "ation": 1008,
      "ct": 1009,
      "with": 1010,
      "that": 1011,
      "ag": 1012,
      "te": 1013,
      "by": 1014,
      "us": 1015,
      "ot": 1016,
      "ere": 1017,
      "el": 1018,
      "ri": 1019,
      "ul": 1020,
      "ap": 1021,
      "ut": 1022,
      "et": 1023,
      "19": 1024,
      "res": 1025,
      "ain": 1026,
      "ers": 1027,
      "op": 1028,
      "pl": 1029,
      "com": 1030,
      "his": 1031,
      "rom": 1032,
      "um": 1033,
      "all": 1034,
      "00": 1035,
      "oun": 1036,
      "ab": 1037,
      "unk": 1038,
      "mo": 1039,
      "ist": 1040,
      "su": 1041,
      "ne": 1042,
      "pro": 1043,
      "sh": 1044,
      "from": 1045,
      "pe": 1046,
      "In": 1047,
      "cl": 1048,
      "ate": 1049,
      "are": 1050,
      "art": 1051,
      "li": 1052,
      "tr": 1053,
      "ther": 1054,
      "igh": 1055,
      "os": 1056,
      "em": 1057,
      "di": 1058,
      "ex": 1059,
      "ber": 1060,
      "est": 1061,
      "ich": 1062,
      "were": 1063,
      "ld": 1064,
      "ard": 1065,
      "ak": 1066,
      "oc": 1067,
      "ill": 1068,
      "ast": 1069,
      "ies": 1070,
      "ant": 1071,
      "ong": 1072,
      "per": 1073,
      "qu": 1074,
      "gh": 1075,
      "ment": 1076,
      "ated": 1077,
      "ive": 1078,
      "out": 1079,
      "man": 1080,
      "ame": 1081,
      "ity": 1082,
      "fe": 1083,
      "ess": 1084,
      "our": 1085,
      "had": 1086,
      "od": 1087,
      "end": 1088,
      "ack": 1089,
      "ish": 1090,
      "ort": 1091,
      "one": 1092,
      "als": 1093,
      "ge": 1094,
      "av": 1095,
      "ear": 1096,
      "over": 1097,
      "tw": 1098,
      "af": 1099,
      "which": 1100,
      "ip": 1101,
      "ough": 1102,
      "ound": 1103,
      "but": 1104,
      "not": 1105,
      "act": 1106,
      "ass": 1107,
      "gr": 1108,
      "iv": 1109,
      "ord": 1110,
      "ally": 1111,
      "ave": 1112,
      "str": 1113,
      "ight": 1114,
      "ine": 1115,
      "her": 1116,
      "ary": 1117,
      "rit": 1118,
      "its": 1119,
      "ie": 1120,
      "du": 1121,
      "ud": 1122,
      "pr": 1123,
      "ian": 1124,
      "ep": 1125,
      "if": 1126,
      "St": 1127,
      "Ch": 1128,
      "ia": 1129,
      "ore": 1130,
      "20": 1131,
      "fir": 1132,
      "200": 1133,
      "up": 1134,
      "ould": 1135,
      "own": 1136,
      "ous": 1137,
      "der": 1138,
      "au": 1139,
      "bo": 1140,
      "ide": 1141,
      "bl": 1142,
      "wor": 1143,
      "ction": 1144,
      "aw": 1145,
      "comp": 1146,
      "age": 1147,
      "ach": 1148,
      "ke": 1149,
      "att": 1150,
      "first": 1151,
      "ev": 1152,
      "land": 1153,
      "port": 1154,
      "ign": 1155,
      "ition": 1156,
      "form": 1157,
      "their": 1158,
      "ial": 1159,
      "ical": 1160,
      "low": 1161,
      "sc": 1162,
      "lo": 1163,
      "ser": 1164,
      "tim": 1165,
      "po": 1166,
      "ater": 1167,
      "also": 1168,
      "ll": 1169,
      "He": 1170,
      "who": 1171,
      "br": 1172,
      "int": 1173,
      "part": 1174,
      "ure": 1175,
      "18": 1176,
      "has": 1177,
      "other": 1178,
      "ree": 1179,
      "rec": 1180,
      "have": 1181,
      "ome": 1182,
      "play": 1183,
      "ans": 1184,
      "pt": 1185,
      "ust": 1186,
      "ile": 1187,
      "cont": 1188,
      "off": 1189,
      "ok": 1190,
      ".@": 1191,
      "@.@": 1192,
      "two": 1193,
      "ence": 1194,
      "uring": 1195,
      "pres": 1196,
      "been": 1197,
      "me": 1198,
      "ice": 1199,
      "we": 1200,
      "ance": 1201,
      "mer": 1202,
      ",@": 1203,
      "@,@": 1204,
      "dis": 1205,
      "201": 1206,
      "pos": 1207,
      "It": 1208,
      "Th": 1209,
      "this": 1210,
      "ory": 1211,
      "year": 1212,
      "after": 1213,
      "ren": 1214,
      "ph": 1215,
      "ult": 1216,
      "cre": 1217,
      "des": 1218,
      "iz": 1219,
      "ell": 1220,
      "ace": 1221,
      "ved": 1222,
      "fin": 1223,
      "ark": 1224,
      "An": 1225,
      "ade": 1226,
      "they": 1227,
      "co": 1228,
      "able": 1229,
      "sp": 1230,
      "incl": 1231,
      "ue": 1232,
      "mon": 1233,
      "ite": 1234,
      "ail": 1235,
      "Un": 1236,
      "work": 1237,
      "ever": 1238,
      "ang": 1239,
      "sion": 1240,
      "air": 1241,
      "ff": 1242,
      "time": 1243,
      "urn": 1244,
      "inter": 1245,
      "would": 1246,
      "ations": 1247,
      "ship": 1248,
      "pre": 1249,
      "og": 1250,
      "ced": 1251,
      "into": 1252,
      "cent": 1253,
      "him": 1254,
      "cr": 1255,
      "ick": 1256,
      "vel": 1257,
      "spe": 1258,
      "she": 1259,
      "way": 1260,
      "mber": 1261,
      "ict": 1262,
      "ates": 1263,
      "no": 1264,
      "ased": 1265,
      "more": 1266,
      "ited": 1267,
      "ilm": 1268,
      "ire": 1269,
      "min": 1270,
      "old": 1271,
      "ew": 1272,
      "ty": 1273,
      "most": 1274,
      "ces": 1275,
      "new": 1276,
      "amp": 1277,
      "son": 1278,
      "fore": 1279,
      "main": 1280,
      "Ar": 1281,
      "bec": 1282,
      "Al": 1283,
      "any": 1284,
      "ry": 1285,
      "ase": 1286,
      "ten": 1287,
      "ret": 1288,
      "used": 1289,
      "ason": 1290,
      "fl": 1291,
      "ann": 1292,
      "ib": 1293,
      "includ": 1294,
      "ood": 1295,
      "cond": 1296,
      "cted": 1297,
      "ings": 1298,
      "cess": 1299,
      "ran": 1300,
      "ind": 1301,
      "vis": 1302,
      "ors": 1303,
      "red": 1304,
      "day": 1305,
      "film": 1306,
      "when": 1307,
      "les": 1308,
      "ted": 1309,
      "ered": 1310,
      "rough": 1311,
      "ath": 1312,
      "ild": 1313,
      "comm": 1314,
      "ward": 1315,
      "ton": 1316,
      "col": 1317,
      "ake": 1318,
      "ious": 1319,
      "ens": 1320,
      "ican": 1321,
      "Au": 1322,
      "Mar": 1323,
      "ob": 1324,
      "gan": 1325,
      "though": 1326,
      "ts": 1327,
      "bu": 1328,
      "reg": 1329,
      "ions": 1330,
      "sy": 1331,
      "een": 1332,
      "Wh": 1333,
      "ose": 1334,
      "during": 1335,
      "than": 1336,
      "On": 1337,
      "ra": 1338,
      "again": 1339,
      "De": 1340,
      "game": 1341,
      "under": 1342,
      "so": 1343,
      "ubl": 1344,
      "gen": 1345,
      "nor": 1346,
      "char": 1347,
      "produ": 1348,
      "199": 1349,
      "only": 1350,
      "ck": 1351,
      "ollow": 1352,
      "ele": 1353,
      "ix": 1354,
      "them": 1355,
      "about": 1356,
      "can": 1357,
      "row": 1358,
      "ents": 1359,
      "while": 1360,
      "New": 1361,
      "ational": 1362,
      "some": 1363,
      "song": 1364,
      "En": 1365,
      "later": 1366,
      "rele": 1367,
      "oy": 1368,
      "vie": 1369,
      "outh": 1370,
      "led": 1371,
      "tween": 1372,
      "between": 1373,
      "sing": 1374,
      "three": 1375,
      "Re": 1376,
      "10": 1377,
      "ating": 1378,
      "Af": 1379,
      "where": 1380,
      "ron": 1381,
      "As": 1382,
      "through": 1383,
      "num": 1384,
      "coun": 1385,
      "aid": 1386,
      "season": 1387,
      "ics": 1388,
      "ful": 1389,
      "Amer": 1390,
      "lar": 1391,
      "cons": 1392,
      "my": 1393,
      "tain": 1394,
      "ern": 1395,
      "writ": 1396,
      "stru": 1397,
      "ied": 1398,
      "sub": 1399,
      "then": 1400,
      "iver": 1401,
      "rel": 1402,
      "kn": 1403,
      "000": 1404,
      "ular": 1405,
      "Le": 1406,
      "ters": 1407,
      "Jo": 1408,
      "high": 1409,
      "second": 1410,
      "sel": 1411,
      "made": 1412,
      "dr": 1413,
      "med": 1414,
      "view": 1415,
      "set": 1416,
      "Com": 1417,
      "ef": 1418,
      "ames": 1419,
      "bum": 1420,
      "record": 1421,
      "four": 1422,
      "ins": 1423,
      "follow": 1424,
      "do": 1425,
      "spec": 1426,
      "go": 1427,
      "loc": 1428,
      "such": 1429,
      "17": 1430,
      "ub": 1431,
      "cap": 1432,
      "ished": 1433,
      "arri": 1434,
      "eng": 1435,
      "before": 1436,
      "atch": 1437,
      "No": 1438,
      "back": 1439,
      "cur": 1440,
      "there": 1441,
      "team": 1442,
      "well": 1443,
      "15": 1444,
      "sur": 1445,
      "mus": 1446,
      "iel": 1447,
      "years": 1448,
      "appe": 1449,
      "ven": 1450,
      "cho": 1451,
      "add": 1452,
      "ma": 1453,
      "This": 1454,
      "inn": 1455,
      "ks": 1456,
      "ident": 1457,
      "sup": 1458,
      "pol": 1459,
      "ros": 1460,
      "ific": 1461,
      "album": 1462,
      "Con": 1463,
      "publ": 1464,
      "reat": 1465,
      "owever": 1466,
      "ily": 1467,
      "call": 1468,
      "..": 1469,
      "Nor": 1470,
      "tem": 1471,
      "fer": 1472,
      "Sh": 1473,
      "je": 1474,
      "gu": 1475,
      "ual": 1476,
      "ale": 1477,
      "ative": 1478,
      "many": 1479,
      "being": 1480,
      "point": 1481,
      "unt": 1482,
      "uary": 1483,
      "epis": 1484,
      "oup": 1485,
      "ond": 1486,
      "ode": 1487,
      "ince": 1488,
      "velop": 1489,
      "against": 1490,
      "number": 1491,
      "At": 1492,
      "use": 1493,
      "ury": 1494,
      "ped": 1495,
      "lead": 1496,
      "show": 1497,
      "charac": 1498,
      "ft": 1499,
      "After": 1500,
      "Be": 1501,
      "sever": 1502,
      "war": 1503,
      "mem": 1504,
      "16": 1505,
      "ause": 1506,
      "par": 1507,
      "appear": 1508,
      "long": 1509,
      "found": 1510,
      "became": 1511,
      "rece": 1512,
      "Brit": 1513,
      "12": 1514,
      "like": 1515,
      "ash": 1516,
      "io": 1517,
      "including": 1518,
      "United": 1519,
      "serv": 1520,
      "ese": 1521,
      "both": 1522,
      "hn": 1523,
      "orn": 1524,
      "series": 1525,
      "198": 1526,
      "Se": 1527,
      "ise": 1528,
      "feat": 1529,
      "cy": 1530,
      "ost": 1531,
      "line": 1532,
      "cri": 1533,
      "igin": 1534,
      "194": 1535,
      "did": 1536,
      "ended": 1537,
      "eral": 1538,
      "She": 1539,
      "ley": 1540,
      "rop": 1541,
      "develop": 1542,
      "tri": 1543,
      "mill": 1544,
      "contin": 1545,
      "ments": 1546,
      "ures": 1547,
      "dire": 1548,
      "down": 1549,
      "ities": 1550,
      "cer": 1551,
      "ock": 1552,
      "Eng": 1553,
      "suc": 1554,
      "head": 1555,
      "pop": 1556,
      "30": 1557,
      "diff": 1558,
      "az": 1559,
      "dec": 1560,
      "run": 1561,
      "road": 1562,
      "John": 1563,
      "pass": 1564,
      "uch": 1565,
      "side": 1566,
      "episode": 1567,
      "ird": 1568,
      "War": 1569,
      "said": 1570,
      "ived": 1571,
      "west": 1572,
      "Wor": 1573,
      "could": 1574,
      "ouse": 1575,
      "ress": 1576,
      "por": 1577,
      "mis": 1578,
      "several": 1579,
      "erson": 1580,
      "American": 1581,
      "leg": 1582,
      "Ro": 1583,
      "known": 1584,
      "peri": 1585,
      "origin": 1586,
      "vol": 1587,
      "ield": 1588,
      "lin": 1589,
      "197": 1590,
      "che": 1591,
      "arch": 1592,
      "comple": 1593,
      "rest": 1594,
      "vid": 1595,
      "ised": 1596,
      "14": 1597,
      "196": 1598,
      "II": 1599,
      "cord": 1600,
      "iet": 1601,
      "For": 1602,
      "ually": 1603,
      "sign": 1604,
      "car": 1605,
      "self": 1606,
      "stem": 1607,
      "music": 1608,
      "remain": 1609,
      "return": 1610,
      "Gr": 1611,
      "bed": 1612,
      "began": 1613,
      "oper": 1614,
      "Ger": 1615,
      "cept": 1616,
      "design": 1617,
      "try": 1618,
      "ste": 1619,
      "ting": 1620,
      "ople": 1621,
      "Br": 1622,
      "sm": 1623,
      "chool": 1624,
      "state": 1625,
      "early": 1626,
      "ah": 1627,
      "13": 1628,
      "aking": 1629,
      "hel": 1630,
      "cover": 1631,
      "near": 1632,
      "released": 1633,
      "ball": 1634,
      "dist": 1635,
      "ons": 1636,
      "Col": 1637,
      "US": 1638,
      "une": 1639,
      "descri": 1640,
      "until": 1641,
      "called": 1642,
      "trans": 1643,
      "ject": 1644,
      "success": 1645,
      "open": 1646,
      "plac": 1647,
      "Sc": 1648,
      "men": 1649,
      "present": 1650,
      "hist": 1651,
      "ross": 1652,
      "fam": 1653,
      "arr": 1654,
      "Tr": 1655,
      "ized": 1656,
      "olog": 1657,
      "May": 1658,
      "ially": 1659,
      "offic": 1660,
      "king": 1661,
      "hy": 1662,
      "get": 1663,
      "overn": 1664,
      "crit": 1665,
      "band": 1666,
      "group": 1667,
      "gg": 1668,
      "gust": 1669,
      "less": 1670,
      "ists": 1671,
      "along": 1672,
      "may": 1673,
      "vent": 1674,
      "jor": 1675,
      "val": 1676,
      "ms": 1677,
      "50": 1678,
      "nam": 1679,
      "million": 1680,
      "ower": 1681,
      "mil": 1682,
      "ble": 1683,
      "British": 1684,
      "ves": 1685,
      "Cl": 1686,
      "tow": 1687,
      "bers": 1688,
      "Sep": 1689,
      "these": 1690,
      "sim": 1691,
      "cast": 1692,
      "met": 1693,
      "come": 1694,
      "enn": 1695,
      "fect": 1696,
      "ather": 1697,
      "attack": 1698,
      "bre": 1699,
      "ric": 1700,
      "cut": 1701,
      "stral": 1702,
      "tember": 1703,
      "cle": 1704,
      "national": 1705,
      "Wil": 1706,
      "Sp": 1707,
      "September": 1708,
      "now": 1709,
      "ured": 1710,
      "August": 1711,
      "World": 1712,
      "let": 1713,
      "stor": 1714,
      "requ": 1715,
      "States": 1716,
      "batt": 1717,
      "ving": 1718,
      "took": 1719,
      "continu": 1720,
      "large": 1721,
      "Ju": 1722,
      "same": 1723,
      "dep": 1724,
      "people": 1725,
      "character": 1726,
      "ible": 1727,
      "oot": 1728,
      "und": 1729,
      "because": 1730,
      "Car": 1731,
      "light": 1732,
      "var": 1733,
      "position": 1734,
      "vide": 1735,
      "grap": 1736,
      "read": 1737,
      "around": 1738,
      "11": 1739,
      "xt": 1740,
      "result": 1741,
      "ism": 1742,
      "ired": 1743,
      "start": 1744,
      "Oc": 1745,
      "km": 1746,
      "Is": 1747,
      "class": 1748,
      "aving": 1749,
      "wee": 1750,
      "ctor": 1751,
      "ca": 1752,
      "Jan": 1753,
      "ivers": 1754,
      "Austral": 1755,
      "ium": 1756,
      "Bl": 1757,
      "cour": 1758,
      "Ad": 1759,
      "aim": 1760,
      "support": 1761,
      "formed": 1762,
      "vision": 1763,
      "oth": 1764,
      "mark": 1765,
      "build": 1766,
      "north": 1767,
      "inc": 1768,
      "following": 1769,
      "six": 1770,
      "life": 1771,
      "ants": 1772,
      "allow": 1773,
      "sk": 1774,
      "system": 1775,
      "However": 1776,
      "tal": 1777,
      "Pl": 1778,
      "track": 1779,
      "Octo": 1780,
      "la": 1781,
      "prom": 1782,
      "ork": 1783,
      "consid": 1784,
      "aft": 1785,
      "ys": 1786,
      "ier": 1787,
      "each": 1788,
      "received": 1789,
      "urch": 1790,
      "ime": 1791,
      "October": 1792,
      "rist": 1793,
      "ained": 1794,
      "will": 1795,
      "West": 1796,
      "place": 1797,
      "Pr": 1798,
      "ility": 1799,
      "govern": 1800,
      "very": 1801,
      "ax": 1802,
      "ars": 1803,
      "sol": 1804,
      "thern": 1805,
      "five": 1806,
      "liam": 1807,
      "ling": 1808,
      "area": 1809,
      "just": 1810,
      "ru": 1811,
      "wards": 1812,
      "stand": 1813,
      "century": 1814,
      "right": 1815,
      "appro": 1816,
      "They": 1817,
      "def": 1818,
      "match": 1819,
      "city": 1820,
      "North": 1821,
      "partic": 1822,
      "ately": 1823,
      "report": 1824,
      "By": 1825,
      "York": 1826,
      "ple": 1827,
      "ison": 1828,
      "world": 1829,
      "rote": 1830,
      "public": 1831,
      "June": 1832,
      "contro": 1833,
      "book": 1834,
      "giv": 1835,
      "top": 1836,
      "tle": 1837,
      "jo": 1838,
      "small": 1839,
      "major": 1840,
      "ked": 1841,
      "cording": 1842,
      "ina": 1843,
      "King": 1844,
      "ground": 1845,
      "July": 1846,
      "field": 1847,
      "Can": 1848,
      "Nove": 1849,
      "Man": 1850,
      "last": 1851,
      "November": 1852,
      "resp": 1853,
      "played": 1854,
      "organ": 1855,
      "what": 1856,
      "turn": 1857,
      "atter": 1858,
      "ored": 1859,
      "25": 1860,
      "east": 1861,
      "person": 1862,
      "since": 1863,
      "tit": 1864,
      "town": 1865,
      "ger": 1866,
      "single": 1867,
      "gun": 1868,
      "lish": 1869,
      "ional": 1870,
      "sequ": 1871,
      "Apr": 1872,
      "Fe": 1873,
      "reach": 1874,
      "March": 1875,
      "April": 1876,
      "soc": 1877,
      "app": 1878,
      "aged": 1879,
      "arm": 1880,
      "Ac": 1881,
      "even": 1882,
      "care": 1883,
      "ude": 1884,
      "Ge": 1885,
      "Co": 1886,
      "ural": 1887,
      "ient": 1888,
      "name": 1889,
      "won": 1890,
      "pri": 1891,
      "ster": 1892,
      "Eu": 1893,
      "power": 1894,
      "hal": 1895,
      "Mc": 1896,
      "0s": 1897,
      "differ": 1898,
      "dom": 1899,
      "Coun": 1900,
      "vious": 1901,
      "idge": 1902,
      "lit": 1903,
      "ague": 1904,
      "bro": 1905,
      "Indi": 1906,
      "ined": 1907,
      "final": 1908,
      "test": 1909,
      "left": 1910,
      "South": 1911,
      "ref": 1912,
      "due": 1913,
      "south": 1914,
      "ica": 1915,
      "event": 1916,
      "During": 1917,
      "gre": 1918,
      "version": 1919,
      "udi": 1920,
      "school": 1921,
      "ages": 1922,
      "list": 1923,
      "Dece": 1924,
      "avy": 1925,
      "Me": 1926,
      "German": 1927,
      "Ste": 1928,
      "December": 1929,
      "ank": 1930,
      "Ed": 1931,
      "third": 1932,
      "water": 1933,
      "ilt": 1934,
      "incre": 1935,
      "ision": 1936,
      "aff": 1937,
      "Ph": 1938,
      "month": 1939,
      "moved": 1940,
      "much": 1941,
      "another": 1942,
      "January": 1943,
      "expl": 1944,
      "child": 1945,
      "included": 1946,
      "named": 1947,
      "based": 1948,
      "195": 1949,
      "We": 1950,
      "issu": 1951,
      "ov": 1952,
      "claim": 1953,
      "government": 1954,
      "ians": 1955,
      "ships": 1956,
      "wrote": 1957,
      "poss": 1958,
      "camp": 1959,
      "kill": 1960,
      "home": 1961,
      "193": 1962,
      "apan": 1963,
      "All": 1964,
      "oss": 1965,
      "ls": 1966,
      "ales": 1967,
      "When": 1968,
      "chan": 1969,
      "ik": 1970,
      "short": 1971,
      "death": 1972,
      "Or": 1973,
      "story": 1974,
      "ane": 1975,
      "Japan": 1976,
      "Pe": 1977,
      "order": 1978,
      "ute": 1979,
      "24": 1980,
      "ought": 1981,
      "bert": 1982,
      "Gu": 1983,
      "ature": 1984,
      "ently": 1985,
      "roy": 1986,
      "ets": 1987,
      "ext": 1988,
      "ically": 1989,
      "ody": 1990,
      "press": 1991,
      "tempt": 1992,
      "make": 1993,
      "using": 1994,
      "ner": 1995,
      "family": 1996,
      "review": 1997,
      "Pro": 1998,
      "ital": 1999,
      "species": 2000,
      "pect": 2001,
      "ution": 2002,
      "hand": 2003,
      "flu": 2004,
      "house": 2005,
      "described": 2006,
      "ement": 2007,
      "mi": 2008,
      "rench": 2009,
      "previous": 2010,
      "dam": 2011,
      "fact": 2012,
      "...": 2013,
      "ney": 2014,
      "ene": 2015,
      "dest": 2016,
      "ards": 2017,
      "fur": 2018,
      "rown": 2019,
      "forman": 2020,
      "late": 2021,
      "real": 2022,
      "Euro": 2023,
      "beli": 2024,
      "cas": 2025,
      "thing": 2026,
      "built": 2027,
      "ler": 2028,
      "gener": 2029,
      "former": 2030,
      "ified": 2031,
      "ilar": 2032,
      "oute": 2033,
      "Bo": 2034,
      "best": 2035,
      "attempt": 2036,
      "placed": 2037,
      "tak": 2038,
      "games": 2039,
      "mp": 2040,
      "tract": 2041,
      "ared": 2042,
      "polit": 2043,
      "command": 2044,
      "held": 2045,
      "ness": 2046,
      "colle": 2047,
      "still": 2048,
      "stud": 2049,
      "put": 2050,
      "stit": 2051,
      "those": 2052,
      "original": 2053,
      "His": 2054,
      "constru": 2055,
      "addition": 2056,
      "Mon": 2057,
      "gram": 2058,
      "bruary": 2059,
      "February": 2060,
      "lim": 2061,
      "ford": 2062,
      "augh": 2063,
      "next": 2064,
      "anc": 2065,
      "effect": 2066,
      "Christ": 2067,
      "There": 2068,
      "fall": 2069,
      "gy": 2070,
      "performan": 2071,
      "mid": 2072,
      "fel": 2073,
      "members": 2074,
      "fri": 2075,
      "rican": 2076,
      "sent": 2077,
      "Gen": 2078,
      "Par": 2079,
      "21": 2080,
      "ctions": 2081,
      "ences": 2082,
      "den": 2083,
      "ator": 2084,
      "National": 2085,
      "mar": 2086,
      "100": 2087,
      "Europe": 2088,
      "iversity": 2089,
      "adv": 2090,
      "ats": 2091,
      "see": 2092,
      "days": 2093,
      "period": 2094,
      "within": 2095,
      "mit": 2096,
      "Li": 2097,
      "ham": 2098,
      "French": 2099,
      "22": 2100,
      "role": 2101,
      "although": 2102,
      "And": 2103,
      "release": 2104,
      "move": 2105,
      "ines": 2106,
      "ush": 2107,
      "wind": 2108,
      "init": 2109,
      "video": 2110,
      "thor": 2111,
      "half": 2112,
      "say": 2113,
      "2010": 2114,
      "hip": 2115,
      "vo": 2116,
      "bur": 2117,
      "estab": 2118,
      "came": 2119,
      "ropical": 2120,
      "ps": 2121,
      "Ser": 2122,
      "cor": 2123,
      "continued": 2124,
      "uc": 2125,
      "William": 2126,
      "round": 2127,
      "wom": 2128,
      "23": 2129,
      "Her": 2130,
      "law": 2131,
      "win": 2132,
      "aining": 2133,
      "iss": 2134,
      "craft": 2135,
      "fac": 2136,
      "uss": 2137,
      "ains": 2138,
      "ribut": 2139,
      "hum": 2140,
      "ulation": 2141,
      "posed": 2142,
      "ning": 2143,
      "ones": 2144,
      "however": 2145,
      "itary": 2146,
      "ending": 2147,
      "27": 2148,
      "ched": 2149,
      "2008": 2150,
      "inning": 2151,
      "na": 2152,
      "often": 2153,
      "2009": 2154,
      "few": 2155,
      "you": 2156,
      "Geor": 2157,
      "ral": 2158,
      "imes": 2159,
      "equ": 2160,
      "ris": 2161,
      "ampion": 2162,
      "vers": 2163,
      "ister": 2164,
      "stri": 2165,
      "take": 2166,
      "mag": 2167,
      "local": 2168,
      "rad": 2169,
      "28": 2170,
      "friend": 2171,
      "2011": 2172,
      "similar": 2173,
      "player": 2174,
      "Fran": 2175,
      "ony": 2176,
      "Ear": 2177,
      "Air": 2178,
      "among": 2179,
      "production": 2180,
      "force": 2181,
      "beg": 2182,
      "Mich": 2183,
      "ense": 2184,
      "Des": 2185,
      "Bar": 2186,
      "wood": 2187,
      "ior": 2188,
      "iation": 2189,
      "went": 2190,
      "different": 2191,
      "Inter": 2192,
      "pite": 2193,
      "mission": 2194,
      "chang": 2195,
      "26": 2196,
      "storm": 2197,
      "ove": 2198,
      "England": 2199,
      "atic": 2200,
      "Char": 2201,
      "ery": 2202,
      "further": 2203,
      "40": 2204,
      "strong": 2205,
      "One": 2206,
      "night": 2207,
      "week": 2208,
      "considered": 2209,
      "company": 2210,
      "ides": 2211,
      "level": 2212,
      "sty": 2213,
      "served": 2214,
      "post": 2215,
      "ives": 2216,
      "exp": 2217,
      "Mus": 2218,
      "Dav": 2219,
      "2007": 2220,
      "ged": 2221,
      "ided": 2222,
      "career": 2223,
      "ices": 2224,
      "fire": 2225,
      "Har": 2226,
      "ali": 2227,
      "provid": 2228,
      "City": 2229,
      "having": 2230,
      "fort": 2231,
      "ively": 2232,
      "East": 2233,
      "action": 2234,
      "Park": 2235,
      "uck": 2236,
      "commun": 2237,
      "trad": 2238,
      "tele": 2239,
      "bas": 2240,
      "English": 2241,
      "fron": 2242,
      "enter": 2243,
      "without": 2244,
      "every": 2245,
      "history": 2246,
      "sou": 2247,
      "Although": 2248,
      "refer": 2249,
      "club": 2250,
      "hold": 2251,
      "studi": 2252,
      "wide": 2253,
      "2012": 2254,
      "ops": 2255,
      "written": 2256,
      "Scot": 2257,
      "become": 2258,
      "lands": 2259,
      "stead": 2260,
      "que": 2261,
      "Ang": 2262,
      "board": 2263,
      "influ": 2264,
      "Lond": 2265,
      "reet": 2266,
      "London": 2267,
      "ink": 2268,
      "graph": 2269,
      "aver": 2270,
      "sound": 2271,
      "Batt": 2272,
      "foot": 2273,
      "With": 2274,
      "River": 2275,
      "ung": 2276,
      "ggest": 2277,
      "invol": 2278,
      "suggest": 2279,
      "29": 2280,
      "Fr": 2281,
      "ize": 2282,
      "190": 2283,
      "tro": 2284,
      "given": 2285,
      "announ": 2286,
      "ington": 2287,
      "divid": 2288,
      "prof": 2289,
      "oung": 2290,
      "Ex": 2291,
      "bus": 2292,
      "mand": 2293,
      "want": 2294,
      "key": 2295,
      "ox": 2296,
      "ai": 2297,
      "iety": 2298,
      "change": 2299,
      "comb": 2300,
      "building": 2301,
      "reen": 2302,
      "High": 2303,
      "Canad": 2304,
      "Te": 2305,
      "imp": 2306,
      "successful": 2307,
      "iment": 2308,
      "father": 2309,
      "gave": 2310,
      "Ne": 2311,
      "University": 2312,
      "close": 2313,
      "published": 2314,
      "import": 2315,
      "common": 2316,
      "stated": 2317,
      "seven": 2318,
      "Sy": 2319,
      "cop": 2320,
      "rent": 2321,
      "sure": 2322,
      "never": 2323,
      "prote": 2324,
      "dri": 2325,
      "While": 2326,
      "good": 2327,
      "ailed": 2328,
      "returned": 2329,
      "ae": 2330,
      "ug": 2331,
      "total": 2332,
      "produced": 2333,
      "bor": 2334,
      "To": 2335,
      "beh": 2336,
      "Pol": 2337,
      "face": 2338,
      "anim": 2339,
      "country": 2340,
      "sw": 2341,
      "omin": 2342,
      "hour": 2343,
      "Div": 2344,
      "Fl": 2345,
      "quad": 2346,
      "away": 2347,
      "find": 2348,
      "popular": 2349,
      "ways": 2350,
      "tour": 2351,
      "sit": 2352,
      "aren": 2353,
      "reported": 2354,
      "Mo": 2355,
      "fr": 2356,
      "omet": 2357,
      "del": 2358,
      "lost": 2359,
      "ably": 2360,
      "2006": 2361,
      "program": 2362,
      "aign": 2363,
      "great": 2364,
      "compos": 2365,
      "particular": 2366,
      "draw": 2367,
      "vest": 2368,
      "making": 2369,
      "Cor": 2370,
      "include": 2371,
      "forces": 2372,
      "decl": 2373,
      "According": 2374,
      "author": 2375,
      "struct": 2376,
      "interest": 2377,
      "recorded": 2378,
      "chn": 2379,
      "how": 2380,
      "indu": 2381,
      "Dr": 2382,
      "arried": 2383,
      "need": 2384,
      "direct": 2385,
      "fle": 2386,
      "vict": 2387,
      "Ma": 2388,
      "plan": 2389,
      "urrican": 2390,
      "body": 2391,
      "itions": 2392,
      "ology": 2393,
      "site": 2394,
      "bar": 2395,
      "once": 2396,
      "ploy": 2397,
      "ama": 2398,
      "should": 2399,
      "Phil": 2400,
      "service": 2401,
      "suff": 2402,
      "quar": 2403,
      "performance": 2404,
      "moder": 2405,
      "ument": 2406,
      "died": 2407,
      "ened": 2408,
      "teen": 2409,
      "These": 2410,
      "times": 2411,
      "ana": 2412,
      "capt": 2413,
      "grad": 2414,
      "coming": 2415,
      "Roy": 2416,
      "aircraft": 2417,
      "military": 2418,
      "Australia": 2419,
      "himself": 2420,
      "2013": 2421,
      "flo": 2422,
      "rock": 2423,
      "fan": 2424,
      "intro": 2425,
      "battle": 2426,
      "ned": 2427,
      "depend": 2428,
      "Jack": 2429,
      "ges": 2430,
      "tell": 2431,
      "agre": 2432,
      "rew": 2433,
      "net": 2434,
      "room": 2435,
      "sum": 2436,
      "songs": 2437,
      "fun": 2438,
      "member": 2439,
      "pur": 2440,
      "Pres": 2441,
      "General": 2442,
      "ael": 2443,
      "iness": 2444,
      "State": 2445,
      "Rep": 2446,
      "development": 2447,
      "critic": 2448,
      "elect": 2449,
      "front": 2450,
      "xim": 2451,
      "aster": 2452,
      "alth": 2453,
      "search": 2454,
      "Am": 2455,
      "represent": 2456,
      "free": 2457,
      "Min": 2458,
      "aul": 2459,
      "itch": 2460,
      "look": 2461,
      "itive": 2462,
      "BC": 2463,
      "189": 2464,
      "histor": 2465,
      "developed": 2466,
      "James": 2467,
      "akes": 2468,
      "pen": 2469,
      "acy": 2470,
      "istr": 2471,
      "destroy": 2472,
      "control": 2473,
      "mix": 2474,
      "introdu": 2475,
      "Sw": 2476,
      "gl": 2477,
      "children": 2478,
      "remained": 2479,
      "believ": 2480,
      "Army": 2481,
      "star": 2482,
      "range": 2483,
      "nal": 2484,
      "fav": 2485,
      "chart": 2486,
      "Rom": 2487,
      "characters": 2488,
      "ption": 2489,
      "title": 2490,
      "sl": 2491,
      "months": 2492,
      "60": 2493,
      "Sm": 2494,
      "clear": 2495,
      "vir": 2496,
      "ither": 2497,
      "mm": 2498,
      "campaign": 2499,
      "ues": 2500,
      "occur": 2501,
      "League": 2502,
      "urricane": 2503,
      "ising": 2504,
      "ban": 2505,
      "taken": 2506,
      "cult": 2507,
      "tropical": 2508,
      "eight": 2509,
      "rap": 2510,
      "ream": 2511,
      "gether": 2512,
      "ival": 2513,
      "compet": 2514,
      "felt": 2515,
      "across": 2516,
      "signific": 2517,
      "cir": 2518,
      "ability": 2519,
      "Su": 2520,
      "seen": 2521,
      "writing": 2522,
      "project": 2523,
      "disc": 2524,
      "ey": 2525,
      "omb": 2526,
      "ots": 2527,
      "America": 2528,
      "Division": 2529,
      "ering": 2530,
      "van": 2531,
      "bridge": 2532,
      "too": 2533,
      "station": 2534,
      "gest": 2535,
      "Cap": 2536,
      "appeared": 2537,
      "announced": 2538,
      "pra": 2539,
      "pec": 2540,
      "noted": 2541,
      "reached": 2542,
      "alter": 2543,
      "George": 2544,
      "vi": 2545,
      "tar": 2546,
      "Tw": 2547,
      "appoint": 2548,
      "Japanese": 2549,
      "County": 2550,
      "cil": 2551,
      "experi": 2552,
      "activ": 2553,
      "created": 2554,
      "areas": 2555,
      "works": 2556,
      "television": 2557,
      "Hen": 2558,
      "fight": 2559,
      "Road": 2560,
      "uses": 2561,
      "ille": 2562,
      "2005": 2563,
      "aur": 2564,
      "gin": 2565,
      "saw": 2566,
      "sen": 2567,
      "prim": 2568,
      "performed": 2569,
      "various": 2570,
      "cost": 2571,
      "political": 2572,
      "Street": 2573,
      "lect": 2574,
      "Per": 2575,
      "complete": 2576,
      "followed": 2577,
      "break": 2578,
      "inv": 2579,
      "full": 2580,
      "hor": 2581,
      "race": 2582,
      "iting": 2583,
      "players": 2584,
      "trave": 2585,
      "style": 2586,
      "covered": 2587,
      "2014": 2588,
      "ality": 2589,
      "arded": 2590,
      "ago": 2591,
      "process": 2592,
      "black": 2593,
      "abor": 2594,
      "mph": 2595,
      "mb": 2596,
      "mot": 2597,
      "killed": 2598,
      "debut": 2599,
      "antic": 2600,
      "oto": 2601,
      "tra": 2602,
      "help": 2603,
      "points": 2604,
      "Mad": 2605,
      "wall": 2606,
      "ances": 2607,
      "ief": 2608,
      "hit": 2609,
      "lished": 2610,
      "throughout": 2611,
      "live": 2612,
      "bet": 2613,
      "formation": 2614,
      "together": 2615,
      "techn": 2616,
      "har": 2617,
      "lines": 2618,
      "little": 2619,
      "stat": 2620,
      "sex": 2621,
      "significant": 2622,
      "established": 2623,
      "ization": 2624,
      "non": 2625,
      "Reg": 2626,
      "meet": 2627,
      "broad": 2628,
      "fem": 2629,
      "construction": 2630,
      "Australian": 2631,
      "coast": 2632,
      "icult": 2633,
      "thought": 2634,
      "Thom": 2635,
      "ze": 2636,
      "bel": 2637,
      "miles": 2638,
      "San": 2639,
      "pair": 2640,
      "aval": 2641,
      "earli": 2642,
      "rain": 2643,
      "enced": 2644,
      "does": 2645,
      "impro": 2646,
      "Michael": 2647,
      "stage": 2648,
      "pain": 2649,
      "entire": 2650,
      "David": 2651,
      "born": 2652,
      "acc": 2653,
      "odes": 2654,
      "got": 2655,
      "far": 2656,
      "young": 2657,
      "iated": 2658,
      "Rich": 2659,
      "ission": 2660,
      "voc": 2661,
      "special": 2662,
      "Part": 2663,
      "route": 2664,
      "relation": 2665,
      "decided": 2666,
      "conom": 2667,
      "ators": 2668,
      "women": 2669,
      "conne": 2670,
      "Bill": 2671,
      "Med": 2672,
      "ivil": 2673,
      "El": 2674,
      "case": 2675,
      "started": 2676,
      "caused": 2677,
      "You": 2678,
      "general": 2679,
      "white": 2680,
      "playing": 2681,
      "features": 2682,
      "aves": 2683,
      "scri": 2684,
      "grow": 2685,
      "eventually": 2686,
      "sell": 2687,
      "isted": 2688,
      "tee": 2689,
      "ull": 2690,
      "House": 2691,
      "crew": 2692,
      "ample": 2693,
      "manag": 2694,
      "Royal": 2695,
      "sold": 2696,
      "feet": 2697,
      "host": 2698,
      "added": 2699,
      "stant": 2700,
      "Fin": 2701,
      "located": 2702,
      "opened": 2703,
      "modern": 2704,
      "quadron": 2705,
      "pat": 2706,
      "termin": 2707,
      "Hist": 2708,
      "188": 2709,
      "idence": 2710,
      "ampionship": 2711,
      "base": 2712,
      "Mal": 2713,
      "reek": 2714,
      "ife": 2715,
      "itar": 2716,
      "Bel": 2717,
      "Some": 2718,
      "ensive": 2719,
      "ho": 2720,
      "Ital": 2721,
      "instead": 2722,
      "inj": 2723,
      "theast": 2724,
      "Qu": 2725,
      "peak": 2726,
      "medi": 2727,
      "section": 2728,
      "important": 2729,
      "clos": 2730,
      "Don": 2731,
      "Comp": 2732,
      "Music": 2733,
      "cret": 2734,
      "utes": 2735,
      "word": 2736,
      "Black": 2737,
      "ald": 2738,
      "audi": 2739,
      "moun": 2740,
      "completed": 2741,
      "hon": 2742,
      "possible": 2743,
      "cross": 2744,
      "ination": 2745,
      "ends": 2746,
      "worked": 2747,
      "current": 2748,
      "My": 2749,
      "others": 2750,
      "cause": 2751,
      "population": 2752,
      "don": 2753,
      "Lu": 2754,
      "oney": 2755,
      "mater": 2756,
      "2004": 2757,
      "ying": 2758,
      "els": 2759,
      "lled": 2760,
      "fig": 2761,
      "Po": 2762,
      "pred": 2763,
      "pie": 2764,
      "surv": 2765,
      "leading": 2766,
      "Sch": 2767,
      "guns": 2768,
      "oted": 2769,
      "rather": 2770,
      "typ": 2771,
      "loss": 2772,
      "behind": 2773,
      "quest": 2774,
      "Ber": 2775,
      "church": 2776,
      "upon": 2777,
      "Hol": 2778,
      "Robert": 2779,
      "31": 2780,
      "ceed": 2781,
      "forced": 2782,
      "pract": 2783,
      "pon": 2784,
      "comment": 2785,
      "lack": 2786,
      "ask": 2787,
      "invest": 2788,
      "dle": 2789,
      "heavy": 2790,
      "era": 2791,
      "mother": 2792,
      "France": 2793,
      "2015": 2794,
      "fif": 2795,
      "ring": 2796,
      "inch": 2797,
      "tre": 2798,
      "Cent": 2799,
      "vill": 2800,
      "lie": 2801,
      "ecut": 2802,
      "subsequ": 2803,
      "Russ": 2804,
      "ope": 2805,
      "party": 2806,
      "respect": 2807,
      "yn": 2808,
      "School": 2809,
      "ming": 2810,
      "Act": 2811,
      "difficult": 2812,
      "proble": 2813,
      "reve": 2814,
      "ogn": 2815,
      "know": 2816,
      "novel": 2817,
      "accept": 2818,
      "assoc": 2819,
      "ata": 2820,
      "working": 2821,
      "joined": 2822,
      "human": 2823,
      "separ": 2824,
      "Wash": 2825,
      "scene": 2826,
      "Ab": 2827,
      "weeks": 2828,
      "ties": 2829,
      "70": 2830,
      "term": 2831,
      "originally": 2832,
      "Henry": 2833,
      "avail": 2834,
      "Em": 2835,
      "hard": 2836,
      "coll": 2837,
      "ino": 2838,
      "pression": 2839,
      "uel": 2840,
      "almost": 2841,
      "NA": 2842,
      "asing": 2843,
      "Battle": 2844,
      "ories": 2845,
      "damage": 2846,
      "scored": 2847,
      "spir": 2848,
      "ays": 2849,
      "allowed": 2850,
      "Ham": 2851,
      "inst": 2852,
      "angu": 2853,
      "mass": 2854,
      "fourth": 2855,
      "Que": 2856,
      "Ale": 2857,
      "approach": 2858,
      "Best": 2859,
      "ready": 2860,
      "igned": 2861,
      "Cr": 2862,
      "ials": 2863,
      "provided": 2864,
      "engine": 2865,
      "35": 2866,
      "80": 2867,
      "goal": 2868,
      "claimed": 2869,
      "Fir": 2870,
      "ament": 2871,
      "drop": 2872,
      "wanted": 2873,
      "amb": 2874,
      "lower": 2875,
      "regular": 2876,
      "cup": 2877,
      "employ": 2878,
      "Paul": 2879,
      "Port": 2880,
      "brought": 2881,
      "Vir": 2882,
      "compan": 2883,
      "tradition": 2884,
      "individ": 2885,
      "Red": 2886,
      "500": 2887,
      "nat": 2888,
      "featured": 2889,
      "Cour": 2890,
      "least": 2891,
      "gar": 2892,
      "aut": 2893,
      "President": 2894,
      "laun": 2895,
      "wife": 2896,
      "towards": 2897,
      "hest": 2898,
      "econom": 2899,
      "region": 2900,
      "cell": 2901,
      "average": 2902,
      "business": 2903,
      "aps": 2904,
      "soon": 2905,
      "passed": 2906,
      "Mil": 2907,
      "runs": 2908,
      "super": 2909,
      "TV": 2910,
      "Angel": 2911,
      "recogn": 2912,
      "cred": 2913,
      "Washington": 2914,
      "tempor": 2915,
      "critics": 2916,
      "western": 2917,
      "estim": 2918,
      "quick": 2919,
      "cts": 2920,
      "either": 2921,
      "azine": 2922,
      "court": 2923,
      "defe": 2924,
      "Play": 2925,
      "office": 2926,
      "Mor": 2927,
      "plann": 2928,
      "186": 2929,
      "contract": 2930,
      "sour": 2931,
      "emy": 2932,
      "profess": 2933,
      "redu": 2934,
      "counter": 2935,
      "leng": 2936,
      "troops": 2937,
      "bal": 2938,
      "forms": 2939,
      "example": 2940,
      "rail": 2941,
      "merc": 2942,
      "nomin": 2943,
      "Other": 2944,
      "Res": 2945,
      "foc": 2946,
      "Mac": 2947,
      "ula": 2948,
      "ius": 2949,
      "icated": 2950,
      "cing": 2951,
      "finished": 2952,
      "army": 2953,
      "rid": 2954,
      "ids": 2955,
      "Despite": 2956,
      "Je": 2957,
      "2003": 2958,
      "nia": 2959,
      "concl": 2960,
      "Follow": 2961,
      "rul": 2962,
      "shot": 2963,
      "Dan": 2964,
      "ades": 2965,
      "dou": 2966,
      "generally": 2967,
      "mult": 2968,
      "asy": 2969,
      "whe": 2970,
      "condu": 2971,
      "proper": 2972,
      "Game": 2973,
      "det": 2974,
      "circ": 2975,
      "mun": 2976,
      "ills": 2977,
      "hom": 2978,
      "ply": 2979,
      "Colle": 2980,
      "Gl": 2981,
      "ico": 2982,
      "fed": 2983,
      "sea": 2984,
      "osp": 2985,
      "aper": 2986,
      "events": 2987,
      "length": 2988,
      "believed": 2989,
      "cert": 2990,
      "compl": 2991,
      "First": 2992,
      "Following": 2993,
      "particip": 2994,
      "keep": 2995,
      "Cup": 2996,
      "bes": 2997,
      "mal": 2998,
      "parts": 2999,
      "aled": 3000,
      "nine": 3001,
      "scen": 3002,
      "Mary": 3003,
      "replaced": 3004,
      "fund": 3005,
      "Star": 3006,
      "victory": 3007,
      "bound": 3008,
      "designed": 3009,
      "ention": 3010,
      "anti": 3011,
      "island": 3012,
      "available": 3013,
      "cal": 3014,
      "official": 3015,
      "Dep": 3016,
      "involved": 3017,
      "iction": 3018,
      "hours": 3019,
      "conc": 3020,
      "sele": 3021,
      "evol": 3022,
      "Two": 3023,
      "Mer": 3024,
      "opening": 3025,
      "European": 3026,
      "ping": 3027,
      "president": 3028,
      "itor": 3029,
      "Lou": 3030,
      "ological": 3031,
      "stop": 3032,
      "asked": 3033,
      "ential": 3034,
      "tic": 3035,
      "turned": 3036,
      "execut": 3037,
      "certain": 3038,
      "comes": 3039,
      "hous": 3040,
      "exist": 3041,
      "tor": 3042,
      "director": 3043,
      "hab": 3044,
      "erous": 3045,
      "saying": 3046,
      "ience": 3047,
      "alk": 3048,
      "bri": 3049,
      "threat": 3050,
      "Sun": 3051,
      "ports": 3052,
      "commit": 3053,
      "75": 3054,
      "appearance": 3055,
      "ount": 3056,
      "2000": 3057,
      "45": 3058,
      "cycl": 3059,
      "Route": 3060,
      "Roman": 3061,
      "stone": 3062,
      "istic": 3063,
      "ighest": 3064,
      "love": 3065,
      "highway": 3066,
      "largest": 3067,
      "minutes": 3068,
      "park": 3069,
      "prison": 3070,
      "southern": 3071,
      "watch": 3072,
      "writer": 3073,
      "tel": 3074,
      "Scott": 3075,
      "taking": 3076,
      "Republ": 3077,
      "miss": 3078,
      "respons": 3079,
      "going": 3080,
      "highest": 3081,
      "From": 3082,
      "Church": 3083,
      "earlier": 3084,
      "initially": 3085,
      "2001": 3086,
      "Mid": 3087,
      "ishing": 3088,
      "training": 3089,
      "White": 3090,
      "particularly": 3091,
      "percent": 3092,
      "vice": 3093,
      "mir": 3094,
      "lear": 3095,
      "Val": 3096,
      "nd": 3097,
      "lying": 3098,
      "ordered": 3099,
      "Sing": 3100,
      "ership": 3101,
      "Navy": 3102,
      "educ": 3103,
      "Do": 3104,
      "assist": 3105,
      "must": 3106,
      "Charles": 3107,
      "Kingdom": 3108,
      "issue": 3109,
      "Mart": 3110,
      "graphy": 3111,
      "signed": 3112,
      "bit": 3113,
      "weak": 3114,
      "phys": 3115,
      "ateg": 3116,
      "Atl": 3117,
      "Off": 3118,
      "hib": 3119,
      "pot": 3120,
      "Thomas": 3121,
      "central": 3122,
      "box": 3123,
      "tries": 3124,
      "studio": 3125,
      "maintain": 3126,
      "social": 3127,
      "praised": 3128,
      "thus": 3129,
      "uture": 3130,
      "pected": 3131,
      "ha": 3132,
      "priv": 3133,
      "International": 3134,
      "speed": 3135,
      "Mag": 3136,
      "prec": 3137,
      "But": 3138,
      "ency": 3139,
      "ville": 3140,
      "alifor": 3141,
      "langu": 3142,
      "Smith": 3143,
      "date": 3144,
      "units": 3145,
      "northern": 3146,
      "pers": 3147,
      "reason": 3148,
      "gress": 3149,
      "increased": 3150,
      "ception": 3151,
      "Hall": 3152,
      "bill": 3153,
      "ification": 3154,
      "Virgin": 3155,
      "hurricane": 3156,
      "deal": 3157,
      "bow": 3158,
      "ape": 3159,
      "2002": 3160,
      "Du": 3161,
      "research": 3162,
      "relig": 3163,
      "Bur": 3164,
      "depart": 3165,
      "past": 3166,
      "90": 3167,
      "type": 3168,
      "stry": 3169,
      "meas": 3170,
      "Canada": 3171,
      "deli": 3172,
      "Ho": 3173,
      "Califor": 3174,
      "commission": 3175,
      "fantry": 3176,
      "Cam": 3177,
      "AA": 3178,
      "Dis": 3179,
      "pay": 3180,
      "Bay": 3181,
      "immedi": 3182,
      "rac": 3183,
      "mean": 3184,
      "ayed": 3185,
      "daugh": 3186,
      "ta": 3187,
      "agon": 3188,
      "Pri": 3189,
      "za": 3190,
      "Pal": 3191,
      "ilities": 3192,
      "Peter": 3193,
      "relationship": 3194,
      "acqu": 3195,
      "achie": 3196,
      "pressed": 3197,
      "Richard": 3198,
      "rian": 3199,
      "omer": 3200,
      "Indian": 3201,
      "imin": 3202,
      "independ": 3203,
      "bomb": 3204,
      "better": 3205,
      "usually": 3206,
      "told": 3207,
      "winds": 3208,
      "California": 3209,
      "Alex": 3210,
      "Sen": 3211,
      "Bro": 3212,
      "Union": 3213,
      "states": 3214,
      "enough": 3215,
      "Sam": 3216,
      "icket": 3217,
      "hol": 3218,
      "aring": 3219,
      "ken": 3220,
      "positive": 3221,
      "commerc": 3222,
      "Court": 3223,
      "Ben": 3224,
      "Island": 3225,
      "Sal": 3226,
      "concern": 3227,
      "jour": 3228,
      "nel": 3229,
      "sat": 3230,
      "spent": 3231,
      "ference": 3232,
      "according": 3233,
      "Brown": 3234,
      "uk": 3235,
      "above": 3236,
      "appointed": 3237,
      "rup": 3238,
      "screen": 3239,
      "outside": 3240,
      "arily": 3241,
      "sil": 3242,
      "ume": 3243,
      "God": 3244,
      "films": 3245,
      "feel": 3246,
      "Great": 3247,
      "Mi": 3248,
      "Award": 3249,
      "Cong": 3250,
      "previously": 3251,
      "football": 3252,
      "tion": 3253,
      "script": 3254,
      "via": 3255,
      "accoun": 3256,
      "icle": 3257,
      "Assoc": 3258,
      "quare": 3259,
      "contribut": 3260,
      "ston": 3261,
      "recording": 3262,
      "Company": 3263,
      "standing": 3264,
      "active": 3265,
      "oring": 3266,
      "failed": 3267,
      "defin": 3268,
      "ique": 3269,
      "access": 3270,
      "load": 3271,
      "required": 3272,
      "Tom": 3273,
      "alion": 3274,
      "ara": 3275,
      "bird": 3276,
      "usion": 3277,
      "Vict": 3278,
      "reng": 3279,
      "Germany": 3280,
      "elements": 3281,
      "occup": 3282,
      "lay": 3283,
      "mur": 3284,
      "NY": 3285,
      "ems": 3286,
      "overnor": 3287,
      "Rock": 3288,
      "ener": 3289,
      "treat": 3290,
      "187": 3291,
      "directed": 3292,
      "ication": 3293,
      "reviews": 3294,
      "India": 3295,
      "vin": 3296,
      "viol": 3297,
      "groups": 3298,
      "ometimes": 3299,
      "itself": 3300,
      "give": 3301,
      "La": 3302,
      "Ap": 3303,
      "Mark": 3304,
      "Christian": 3305,
      "interview": 3306,
      "reme": 3307,
      "sey": 3308,
      "despite": 3309,
      "Sou": 3310,
      "gir": 3311,
      "oon": 3312,
      "score": 3313,
      "respond": 3314,
      "vert": 3315,
      "aters": 3316,
      "atin": 3317,
      "inner": 3318,
      "Sk": 3319,
      "thod": 3320,
      "cru": 3321,
      "prob": 3322,
      "Str": 3323,
      "space": 3324,
      "III": 3325,
      "Times": 3326,
      "Soc": 3327,
      "soldi": 3328,
      "perform": 3329,
      "College": 3330,
      "beginning": 3331,
      "UK": 3332,
      "ministr": 3333,
      "ida": 3334,
      "bour": 3335,
      "Ter": 3336,
      "introduced": 3337,
      "ibility": 3338,
      "Ke": 3339,
      "happ": 3340,
      "onto": 3341,
      "streng": 3342,
      "Mex": 3343,
      "frequ": 3344,
      "whose": 3345,
      "flight": 3346,
      "tur": 3347,
      "transfer": 3348,
      "prevent": 3349,
      "Western": 3350,
      "Jer": 3351,
      "igan": 3352,
      "changes": 3353,
      "sus": 3354,
      "league": 3355,
      "Cast": 3356,
      "Sim": 3357,
      "idea": 3358,
      "ept": 3359,
      "defeated": 3360,
      "Sov": 3361,
      "brother": 3362,
      "edy": 3363,
      "Hill": 3364,
      "sal": 3365,
      "Soviet": 3366,
      "election": 3367,
      "additional": 3368,
      "Gold": 3369,
      "conf": 3370,
      "rem": 3371,
      "future": 3372,
      "ault": 3373,
      "gold": 3374,
      "Span": 3375,
      "ga": 3376,
      "whom": 3377,
      "international": 3378,
      "poor": 3379,
      "appl": 3380,
      "ases": 3381,
      "jud": 3382,
      "pil": 3383,
      "Grand": 3384,
      "Awards": 3385,
      "structure": 3386,
      "Tri": 3387,
      "exten": 3388,
      "native": 3389,
      "anal": 3390,
      "Met": 3391,
      "evidence": 3392,
      "changed": 3393,
      "argu": 3394,
      "quickly": 3395,
      "center": 3396,
      "Force": 3397,
      "tom": 3398,
      "already": 3399,
      "That": 3400,
      "onse": 3401,
      "specific": 3402,
      "river": 3403,
      "market": 3404,
      "situ": 3405,
      "radio": 3406,
      "Day": 3407,
      "photo": 3408,
      "coach": 3409,
      "doc": 3410,
      "sem": 3411,
      "material": 3412,
      "iving": 3413,
      "Most": 3414,
      "Bu": 3415,
      "aint": 3416,
      "agreed": 3417,
      "arrived": 3418,
      "civil": 3419,
      "Britain": 3420,
      "likely": 3421,
      "slow": 3422,
      "atory": 3423,
      "study": 3424,
      "staff": 3425,
      "decision": 3426,
      "useum": 3427,
      "ctive": 3428,
      "dies": 3429,
      "emp": 3430,
      "lyr": 3431,
      "ns": 3432,
      "subject": 3433,
      "umb": 3434,
      "lies": 3435,
      "limited": 3436,
      "sometimes": 3437,
      "fleet": 3438,
      "might": 3439,
      "female": 3440,
      "money": 3441,
      "surface": 3442,
      "response": 3443,
      "names": 3444,
      "Film": 3445,
      "Victor": 3446,
      "espec": 3447,
      "icted": 3448,
      "course": 3449,
      "Mill": 3450,
      "pet": 3451,
      "spr": 3452,
      "magazine": 3453,
      "Later": 3454,
      "Chin": 3455,
      "especially": 3456,
      "actions": 3457,
      "estimated": 3458,
      "ded": 3459,
      "hop": 3460,
      "ben": 3461,
      "food": 3462,
      "apt": 3463,
      "Championship": 3464,
      "nation": 3465,
      "33": 3466,
      "carried": 3467,
      "Pac": 3468,
      "flood": 3469,
      "broadcast": 3470,
      "anch": 3471,
      "flow": 3472,
      "ena": 3473,
      "consider": 3474,
      "Frank": 3475,
      "liament": 3476,
      "community": 3477,
      "shows": 3478,
      "ples": 3479,
      "guitar": 3480,
      "prepar": 3481,
      "listed": 3482,
      "sch": 3483,
      "scenes": 3484,
      "paren": 3485,
      "uded": 3486,
      "eastern": 3487,
      "remaining": 3488,
      "venue": 3489,
      "musical": 3490,
      "1999": 3491,
      "size": 3492,
      "rate": 3493,
      "plant": 3494,
      "berg": 3495,
      "related": 3496,
      "text": 3497,
      "minor": 3498,
      "Early": 3499,
      "division": 3500,
      "personal": 3501,
      "rey": 3502,
      "Over": 3503,
      "becoming": 3504,
      "Los": 3505,
      "larger": 3506,
      "natural": 3507,
      "latter": 3508,
      "isl": 3509,
      "Virginia": 3510,
      "cul": 3511,
      "police": 3512,
      "bell": 3513,
      "bot": 3514,
      "entered": 3515,
      "worth": 3516,
      "Pat": 3517,
      "emer": 3518,
      "media": 3519,
      "object": 3520,
      "Harr": 3521,
      "ises": 3522,
      "rights": 3523,
      "suit": 3524,
      "summer": 3525,
      "approxim": 3526,
      "pressure": 3527,
      "yard": 3528,
      "teams": 3529,
      "suggested": 3530,
      "Year": 3531,
      "brief": 3532,
      "arrang": 3533,
      "ror": 3534,
      "investig": 3535,
      "liter": 3536,
      "itz": 3537,
      "surround": 3538,
      "establish": 3539,
      "daughter": 3540,
      "bi": 3541,
      "Just": 3542,
      "36": 3543,
      "bs": 3544,
      "Jackson": 3545,
      "exper": 3546,
      "Second": 3547,
      "students": 3548,
      "temporary": 3549,
      "kil": 3550,
      "tax": 3551,
      "effects": 3552,
      "37": 3553,
      "prior": 3554,
      "favor": 3555,
      "Tex": 3556,
      "woman": 3557,
      "Chic": 3558,
      "tons": 3559,
      "episodes": 3560,
      "Fle": 3561,
      "fit": 3562,
      "If": 3563,
      "Ty": 3564,
      "alled": 3565,
      "destroyed": 3566,
      "winning": 3567,
      "Louis": 3568,
      "Flor": 3569,
      "clim": 3570,
      "iter": 3571,
      "Oly": 3572,
      "leaving": 3573,
      "Spanish": 3574,
      "mode": 3575,
      "sett": 3576,
      "irth": 3577,
      "selves": 3578,
      "avo": 3579,
      "Olymp": 3580,
      "tracks": 3581,
      "join": 3582,
      "viron": 3583,
      "pan": 3584,
      "equip": 3585,
      "aj": 3586,
      "Aust": 3587,
      "Green": 3588,
      "Tour": 3589,
      "Club": 3590,
      "Lord": 3591,
      "fail": 3592,
      "married": 3593,
      "igade": 3594,
      "reli": 3595,
      "sons": 3596,
      "provide": 3597,
      "idents": 3598,
      "relative": 3599,
      "mocr": 3600,
      "sess": 3601,
      "burg": 3602,
      "territ": 3603,
      "intended": 3604,
      "polic": 3605,
      "proposed": 3606,
      "influence": 3607,
      "Cal": 3608,
      "overall": 3609,
      "wing": 3610,
      "Party": 3611,
      "32": 3612,
      "qual": 3613,
      "moving": 3614,
      "aries": 3615,
      "38": 3616,
      "verse": 3617,
      "running": 3618,
      "spo": 3619,
      "ening": 3620,
      "distr": 3621,
      "artment": 3622,
      "supported": 3623,
      "big": 3624,
      "Oper": 3625,
      "occas": 3626,
      "fully": 3627,
      "Association": 3628,
      "quarter": 3629,
      "escap": 3630,
      "ires": 3631,
      "ander": 3632,
      "purch": 3633,
      "thers": 3634,
      "mor": 3635,
      "expected": 3636,
      "Rob": 3637,
      "burn": 3638,
      "Jose": 3639,
      "fell": 3640,
      "nearly": 3641,
      "49": 3642,
      "Chicago": 3643,
      "abs": 3644,
      "Im": 3645,
      "lot": 3646,
      "Chinese": 3647,
      "forward": 3648,
      "Many": 3649,
      "mach": 3650,
      "helped": 3651,
      "movement": 3652,
      "1998": 3653,
      "Love": 3654,
      "Record": 3655,
      "awarded": 3656,
      "secut": 3657,
      "iles": 3658,
      "mixed": 3659,
      "commercial": 3660,
      "bring": 3661,
      "Super": 3662,
      "Che": 3663,
      "marked": 3664,
      "Council": 3665,
      "issued": 3666,
      "closed": 3667,
      "Song": 3668,
      "experience": 3669,
      "consist": 3670,
      "create": 3671,
      "185": 3672,
      "dark": 3673,
      "stars": 3674,
      "Edward": 3675,
      "planned": 3676,
      "nu": 3677,
      "stra": 3678,
      "yl": 3679,
      "syn": 3680,
      "done": 3681,
      "bey": 3682,
      "dead": 3683,
      "thes": 3684,
      "legal": 3685,
      "Enter": 3686,
      "Del": 3687,
      "Kore": 3688,
      "longer": 3689,
      "operation": 3690,
      "breed": 3691,
      "fans": 3692,
      "Ze": 3693,
      "iple": 3694,
      "language": 3695,
      "pow": 3696,
      "Lo": 3697,
      "captured": 3698,
      "joy": 3699,
      "higher": 3700,
      "attract": 3701,
      "increasing": 3702,
      "hood": 3703,
      "compared": 3704,
      "300": 3705,
      "cele": 3706,
      "leader": 3707,
      "deep": 3708,
      "phen": 3709,
      "Back": 3710,
      "approximately": 3711,
      "living": 3712,
      "touch": 3713,
      "feature": 3714,
      "Johnson": 3715,
      "intens": 3716,
      "fish": 3717,
      "fifth": 3718,
      "temper": 3719,
      "themselves": 3720,
      "1st": 3721,
      "History": 3722,
      "Pacific": 3723,
      "print": 3724,
      "chall": 3725,
      "producer": 3726,
      "mostly": 3727,
      "bad": 3728,
      "operations": 3729,
      "ech": 3730,
      "dig": 3731,
      "dy": 3732,
      "olk": 3733,
      "icles": 3734,
      "ny": 3735,
      "anced": 3736,
      "Billboard": 3737,
      "bon": 3738,
      "defeat": 3739,
      "remains": 3740,
      "Go": 3741,
      "ek": 3742,
      "orial": 3743,
      "appears": 3744,
      "weap": 3745,
      "soldiers": 3746,
      "mitted": 3747,
      "buildings": 3748,
      "34": 3749,
      "pose": 3750,
      "whether": 3751,
      "aught": 3752,
      "bury": 3753,
      "probably": 3754,
      "Squadron": 3755,
      "rica": 3756,
      "Art": 3757,
      "weight": 3758,
      "Under": 3759,
      "extended": 3760,
      "Ir": 3761,
      "plot": 3762,
      "copies": 3763,
      "spired": 3764,
      "heav": 3765,
      "complex": 3766,
      "battles": 3767,
      "lor": 3768,
      "Since": 3769,
      "voice": 3770,
      "1997": 3771,
      "Cro": 3772,
      "stream": 3773,
      "lyrics": 3774,
      "transport": 3775,
      "shoot": 3776,
      "portr": 3777,
      "Queen": 3778,
      "ba": 3779,
      "Leg": 3780,
      "Atlantic": 3781,
      "Hu": 3782,
      "mas": 3783,
      "deb": 3784,
      "suffered": 3785,
      "jected": 3786,
      "really": 3787,
      "Tur": 3788,
      "fill": 3789,
      "Mur": 3790,
      "ospital": 3791,
      "countries": 3792,
      "affe": 3793,
      "roll": 3794,
      "ender": 3795,
      "carri": 3796,
      "andon": 3797,
      "cm": 3798,
      "Arch": 3799,
      "los": 3800,
      "Sever": 3801,
      "demand": 3802,
      "Bal": 3803,
      "includes": 3804,
      "immediately": 3805,
      "Florida": 3806,
      "issues": 3807,
      "MS": 3808,
      "Test": 3809,
      "health": 3810,
      "cting": 3811,
      "goals": 3812,
      "request": 3813,
      "Both": 3814,
      "Big": 3815,
      "Lake": 3816,
      "capital": 3817,
      "Law": 3818,
      "private": 3819,
      "Sea": 3820,
      "Di": 3821,
      "visit": 3822,
      "Jim": 3823,
      "Jew": 3824,
      "manager": 3825,
      "officers": 3826,
      "rated": 3827,
      "ams": 3828,
      "boy": 3829,
      "48": 3830,
      "target": 3831,
      "leave": 3832,
      "location": 3833,
      "removed": 3834,
      "Tor": 3835,
      "ultim": 3836,
      "yards": 3837,
      "aging": 3838,
      "flict": 3839,
      "Martin": 3840,
      "ores": 3841,
      "expand": 3842,
      "increase": 3843,
      "subsequently": 3844,
      "Texas": 3845,
      "colon": 3846,
      "flag": 3847,
      "Station": 3848,
      "status": 3849,
      "China": 3850,
      "Fort": 3851,
      "fast": 3852,
      "offered": 3853,
      "birth": 3854,
      "portion": 3855,
      "Ot": 3856,
      "Rad": 3857,
      "plans": 3858,
      "FA": 3859,
      "wa": 3860,
      "always": 3861,
      "ications": 3862,
      "cis": 3863,
      "cit": 3864,
      "amed": 3865,
      "Another": 3866,
      "evolution": 3867,
      "rd": 3868,
      "confir": 3869,
      "services": 3870,
      "upper": 3871,
      "Mr": 3872,
      "Bet": 3873,
      "mel": 3874,
      "Town": 3875,
      "Old": 3876,
      "Studi": 3877,
      "attacks": 3878,
      "problems": 3879,
      "ging": 3880,
      "block": 3881,
      "Mat": 3882,
      "reser": 3883,
      "gas": 3884,
      "ert": 3885,
      "terms": 3886,
      "fre": 3887,
      "oud": 3888,
      "twent": 3889,
      "How": 3890,
      "nes": 3891,
      "forts": 3892,
      "tainment": 3893,
      "vey": 3894,
      "instr": 3895,
      "carry": 3896,
      "professional": 3897,
      "demon": 3898,
      "something": 3899,
      "habit": 3900,
      "village": 3901,
      "shire": 3902,
      "Earth": 3903,
      "39": 3904,
      "aily": 3905,
      "takes": 3906,
      "administr": 3907,
      "anks": 3908,
      "iser": 3909,
      "stitut": 3910,
      "majority": 3911,
      "rat": 3912,
      "discovered": 3913,
      "castle": 3914,
      "ously": 3915,
      "discover": 3916,
      "icans": 3917,
      "Mel": 3918,
      "vironment": 3919,
      "Boy": 3920,
      "Emp": 3921,
      "aker": 3922,
      "orning": 3923,
      "contr": 3924,
      "ranked": 3925,
      "Canadian": 3926,
      "Rail": 3927,
      "Center": 3928,
      "composed": 3929,
      "Africa": 3930,
      "minute": 3931,
      "assigned": 3932,
      "job": 3933,
      "damaged": 3934,
      "neg": 3935,
      "elected": 3936,
      "adop": 3937,
      "beat": 3938,
      "concept": 3939,
      "47": 3940,
      "mat": 3941,
      "mouth": 3942,
      "yet": 3943,
      "meeting": 3944,
      "Bow": 3945,
      "uries": 3946,
      "initial": 3947,
      "rich": 3948,
      "otion": 3949,
      "Its": 3950,
      "Wood": 3951,
      "adium": 3952,
      "vic": 3953,
      "chester": 3954,
      "cean": 3955,
      "Russian": 3956,
      "individual": 3957,
      "Highway": 3958,
      "revealed": 3959,
      "cu": 3960,
      "incor": 3961,
      "atives": 3962,
      "onna": 3963,
      "raised": 3964,
      "inspired": 3965,
      "itect": 3966,
      "giving": 3967,
      "lived": 3968,
      "ulated": 3969,
      "olic": 3970,
      "attacked": 3971,
      "necess": 3972,
      "financ": 3973,
      "plays": 3974,
      "associated": 3975,
      "Carol": 3976,
      "inent": 3977,
      "ails": 3978,
      "Angeles": 3979,
      "Bra": 3980,
      "DV": 3981,
      "makes": 3982,
      "Trans": 3983,
      "respectively": 3984,
      "bul": 3985,
      "Central": 3986,
      "Kent": 3987,
      "Sir": 3988,
      "rout": 3989,
      "1995": 3990,
      "numerous": 3991,
      "needed": 3992,
      "Hot": 3993,
      "impact": 3994,
      "mic": 3995,
      "heart": 3996,
      "ado": 3997,
      "ider": 3998,
      "grand": 3999,
      "veh": 4000,
      "stitute": 4001,
      "Francis": 4002,
      "nature": 4003,
      "launched": 4004,
      "friends": 4005,
      "actor": 4006,
      "constructed": 4007,
      "uter": 4008,
      "dev": 4009,
      "occurred": 4010,
      "conditions": 4011,
      "2nd": 4012,
      "distribut": 4013,
      "Mont": 4014,
      "scient": 4015,
      "stitution": 4016,
      "domin": 4017,
      "attempted": 4018,
      "contains": 4019,
      "Cle": 4020,
      "cand": 4021,
      "uments": 4022,
      "shown": 4023,
      "information": 4024,
      "Hal": 4025,
      "mist": 4026,
      "pool": 4027,
      "oil": 4028,
      "estival": 4029,
      "Congress": 4030,
      "sales": 4031,
      "books": 4032,
      "exam": 4033,
      "secur": 4034,
      "piece": 4035,
      "step": 4036,
      "uals": 4037,
      "kind": 4038,
      "struction": 4039,
      "Bob": 4040,
      "critical": 4041,
      "depression": 4042,
      "singer": 4043,
      "Prince": 4044,
      "19th": 4045,
      "whole": 4046,
      "2016": 4047,
      "1996": 4048,
      "Group": 4049,
      "1950": 4050,
      "think": 4051,
      "Empire": 4052,
      "referred": 4053,
      "earned": 4054,
      "Not": 4055,
      "ioned": 4056,
      "produce": 4057,
      "mom": 4058,
      "letter": 4059,
      "Produ": 4060,
      "selected": 4061,
      "cere": 4062,
      "amount": 4063,
      "46": 4064,
      "zz": 4065,
      "fighting": 4066,
      "RA": 4067,
      "render": 4068,
      "umed": 4069,
      "numbers": 4070,
      "distin": 4071,
      "vention": 4072,
      "smaller": 4073,
      "resulted": 4074,
      "finally": 4075,
      "revol": 4076,
      "Penn": 4077,
      "marri": 4078,
      "oph": 4079,
      "Pan": 4080,
      "Camp": 4081,
      "houses": 4082,
      "chief": 4083,
      "gain": 4084,
      "wound": 4085,
      "ari": 4086,
      "Out": 4087,
      "princ": 4088,
      "grant": 4089,
      "slight": 4090,
      "bio": 4091,
      "Ver": 4092,
      "Italian": 4093,
      "1994": 4094,
      "celebr": 4095,
      "unit": 4096,
      "captain": 4097,
      "industry": 4098,
      "largely": 4099,
      "Fer": 4100,
      "ipp": 4101,
      "Ru": 4102,
      "ellow": 4103,
      "utch": 4104,
      "commented": 4105,
      "Corps": 4106,
      "Viet": 4107,
      "DVD": 4108,
      "bing": 4109,
      "sched": 4110,
      "audience": 4111,
      "ordin": 4112,
      "Cy": 4113,
      "unable": 4114,
      "notes": 4115,
      "acting": 4116,
      "Crit": 4117,
      "traditional": 4118,
      "Eli": 4119,
      "education": 4120,
      "famil": 4121,
      "trade": 4122,
      "plat": 4123,
      "artist": 4124,
      "ify": 4125,
      "atest": 4126,
      "legisl": 4127,
      "positions": 4128,
      "directly": 4129,
      "recover": 4130,
      "Michigan": 4131,
      "improve": 4132,
      "ift": 4133,
      "Sto": 4134,
      "gent": 4135,
      "refused": 4136,
      "Final": 4137,
      "double": 4138,
      "attention": 4139,
      "aland": 4140,
      "izing": 4141,
      "jun": 4142,
      "Sol": 4143,
      "dol": 4144,
      "Command": 4145,
      "sister": 4146,
      "spl": 4147,
      "primary": 4148,
      "method": 4149,
      "newsp": 4150,
      "royal": 4151,
      "below": 4152,
      "quarters": 4153,
      "secret": 4154,
      "180": 4155,
      "coup": 4156,
      "lif": 4157,
      "ows": 4158,
      "officer": 4159,
      "horse": 4160,
      "blood": 4161,
      "Wales": 4162,
      "imm": 4163,
      "kin": 4164,
      "male": 4165,
      "ighter": 4166,
      "declared": 4167,
      "web": 4168,
      "gradu": 4169,
      "Rh": 4170,
      "hero": 4171,
      "spect": 4172,
      "Long": 4173,
      "enjoy": 4174,
      "performances": 4175,
      "Gar": 4176,
      "meant": 4177,
      "Spe": 4178,
      "science": 4179,
      "religious": 4180,
      "alle": 4181,
      "Mass": 4182,
      "iff": 4183,
      "commander": 4184,
      "lav": 4185,
      "undred": 4186,
      "standard": 4187,
      "conflict": 4188,
      "mos": 4189,
      "train": 4190,
      "indic": 4191,
      "More": 4192,
      "matches": 4193,
      "middle": 4194,
      "owned": 4195,
      "repe": 4196,
      "ranch": 4197,
      "kes": 4198,
      "orders": 4199,
      "regard": 4200,
      "ray": 4201,
      "Democr": 4202,
      "oo": 4203,
      "Care": 4204,
      "Cath": 4205,
      "Hel": 4206,
      "Lin": 4207,
      "ump": 4208,
      "records": 4209,
      "Acad": 4210,
      "Team": 4211,
      "55": 4212,
      "model": 4213,
      "Miss": 4214,
      "wear": 4215,
      "district": 4216,
      "ipal": 4217,
      "northeast": 4218,
      "serious": 4219,
      "progress": 4220,
      "Sup": 4221,
      "competition": 4222,
      "atre": 4223,
      "Ox": 4224,
      "rating": 4225,
      "pul": 4226,
      "antasy": 4227,
      "severe": 4228,
      "Major": 4229,
      "vocals": 4230,
      "Gi": 4231,
      "abandon": 4232,
      "uten": 4233,
      "Several": 4234,
      "thr": 4235,
      "rapid": 4236,
      "icient": 4237,
      "phy": 4238,
      "Minister": 4239,
      "1992": 4240,
      "miral": 4241,
      "drum": 4242,
      "dro": 4243,
      "ady": 4244,
      "Mem": 4245,
      "document": 4246,
      "centre": 4247,
      "energy": 4248,
      "cases": 4249,
      "han": 4250,
      "arrow": 4251,
      "ett": 4252,
      "Lit": 4253,
      "forest": 4254,
      "Fore": 4255,
      "continue": 4256,
      "itation": 4257,
      "traff": 4258,
      "dut": 4259,
      "Mexico": 4260,
      "44": 4261,
      "orm": 4262,
      "oft": 4263,
      "die": 4264,
      "ien": 4265,
      "theme": 4266,
      "Zealand": 4267,
      "Er": 4268,
      "wick": 4269,
      "edition": 4270,
      "aware": 4271,
      "Four": 4272,
      "determin": 4273,
      "ishop": 4274,
      "combat": 4275,
      "highly": 4276,
      "nearby": 4277,
      "Time": 4278,
      "favour": 4279,
      "atal": 4280,
      "iled": 4281,
      "separate": 4282,
      "writers": 4283,
      "Fox": 4284,
      "adult": 4285,
      "cam": 4286,
      "effort": 4287,
      "African": 4288,
      "attended": 4289,
      "reduced": 4290,
      "culture": 4291,
      "rossing": 4292,
      "annual": 4293,
      "presented": 4294,
      "incorpor": 4295,
      "20th": 4296,
      "umn": 4297,
      "metal": 4298,
      "practice": 4299,
      "ole": 4300,
      "arts": 4301,
      "ka": 4302,
      "1930": 4303,
      "except": 4304,
      "Chris": 4305,
      "ogue": 4306,
      "divided": 4307,
      "Fed": 4308,
      "sec": 4309,
      "ulf": 4310,
      "levels": 4311,
      "means": 4312,
      "Sum": 4313,
      "osen": 4314,
      "Like": 4315,
      "bank": 4316,
      "McC": 4317,
      "tried": 4318,
      "neigh": 4319,
      "ona": 4320,
      "Ev": 4321,
      "contact": 4322,
      "thick": 4323,
      "movie": 4324,
      "rang": 4325,
      "girl": 4326,
      "Madonna": 4327,
      "stating": 4328,
      "ibly": 4329,
      "architect": 4330,
      "twenty": 4331,
      "accepted": 4332,
      "responsible": 4333,
      "Haw": 4334,
      "1991": 4335,
      "1993": 4336,
      "maxim": 4337,
      "rein": 4338,
      "omen": 4339,
      "65": 4340,
      "Stone": 4341,
      "serve": 4342,
      "charge": 4343,
      "advance": 4344,
      "aired": 4345,
      "quality": 4346,
      "Wall": 4347,
      "mind": 4348,
      "Moun": 4349,
      "pick": 4350,
      "Dou": 4351,
      "direction": 4352,
      "candid": 4353,
      "seem": 4354,
      "innings": 4355,
      "Scotland": 4356,
      "fru": 4357,
      "bled": 4358,
      "words": 4359,
      "marriage": 4360,
      "wealth": 4361,
      "400": 4362,
      "iding": 4363,
      "ands": 4364,
      "Jones": 4365,
      "schools": 4366,
      "hi": 4367,
      "log": 4368,
      "illery": 4369,
      "Their": 4370,
      "passing": 4371,
      "Dar": 4372,
      "mob": 4373,
      "Infantry": 4374,
      "network": 4375,
      "eve": 4376,
      "rare": 4377,
      "sides": 4378,
      "igr": 4379,
      "managed": 4380,
      "ression": 4381,
      "pret": 4382,
      "Department": 4383,
      "Simp": 4384,
      "award": 4385,
      "asion": 4386,
      "function": 4387,
      "college": 4388,
      "efforts": 4389,
      "dem": 4390,
      "Publ": 4391,
      "Greek": 4392,
      "resulting": 4393,
      "economic": 4394,
      "pit": 4395,
      "ria": 4396,
      "Book": 4397,
      "murder": 4398,
      "mountain": 4399,
      "paid": 4400,
      "meaning": 4401,
      "utenant": 4402,
      "dropped": 4403,
      "psy": 4404,
      "showed": 4405,
      "guest": 4406,
      "rif": 4407,
      "inside": 4408,
      "ato": 4409,
      "Three": 4410,
      "environment": 4411,
      "urt": 4412,
      "cyclone": 4413,
      "peror": 4414,
      "Rol": 4415,
      "kept": 4416,
      "allowing": 4417,
      "Tim": 4418,
      "morning": 4419,
      "hus": 4420,
      "Bost": 4421,
      "cust": 4422,
      "possess": 4423,
      "Creek": 4424,
      "begins": 4425,
      "variety": 4426,
      "voy": 4427,
      "arrest": 4428,
      "waters": 4429,
      "chap": 4430,
      "settle": 4431,
      "ceremon": 4432,
      "Commit": 4433,
      "ceeded": 4434,
      "winter": 4435,
      "Williams": 4436,
      "Games": 4437,
      "Service": 4438,
      "nest": 4439,
      "inches": 4440,
      "Alli": 4441,
      "schol": 4442,
      "ski": 4443,
      "squadron": 4444,
      "electric": 4445,
      "activity": 4446,
      "continues": 4447,
      "titled": 4448,
      "farm": 4449,
      "thur": 4450,
      "Men": 4451,
      "Records": 4452,
      "drew": 4453,
      "rule": 4454,
      "airs": 4455,
      "Sur": 4456,
      "ding": 4457,
      "write": 4458,
      "95": 4459,
      "pitch": 4460,
      "hall": 4461,
      "lam": 4462,
      "lan": 4463,
      "dance": 4464,
      "symb": 4465,
      "path": 4466,
      "broke": 4467,
      "founded": 4468,
      "source": 4469,
      "Oh": 4470,
      "Up": 4471,
      "SA": 4472,
      "Parliament": 4473,
      "Hor": 4474,
      "restr": 4475,
      "metres": 4476,
      "Post": 4477,
      "News": 4478,
      "Stan": 4479,
      "ites": 4480,
      "hundred": 4481,
      "parents": 4482,
      "Foot": 4483,
      "Will": 4484,
      "sole": 4485,
      "1942": 4486,
      "ram": 4487,
      "starting": 4488,
      "Ire": 4489,
      "conducted": 4490,
      "Egy": 4491,
      "Tre": 4492,
      "iced": 4493,
      "concert": 4494,
      "your": 4495,
      "vised": 4496,
      "strugg": 4497,
      "presence": 4498,
      "phere": 4499,
      "Sar": 4500,
      "Society": 4501,
      "excl": 4502,
      "aven": 4503,
      "mes": 4504,
      "ott": 4505,
      "Mic": 4506,
      "premi": 4507,
      "ounds": 4508,
      "Bridge": 4509,
      "Southern": 4510,
      "viewers": 4511,
      "sequence": 4512,
      "exhib": 4513,
      "crow": 4514,
      "rot": 4515,
      "cus": 4516,
      "transferred": 4517,
      "osaur": 4518,
      "speech": 4519,
      "spot": 4520,
      "SR": 4521,
      "pal": 4522,
      "companies": 4523,
      "deliver": 4524,
      "BA": 4525,
      "multiple": 4526,
      "things": 4527,
      "enemy": 4528,
      "contrast": 4529,
      "selling": 4530,
      "Joseph": 4531,
      "Latin": 4532,
      "Arthur": 4533,
      "pedo": 4534,
      "Hung": 4535,
      "foreign": 4536,
      "Committee": 4537,
      "oration": 4538,
      "portun": 4539,
      "Fur": 4540,
      "peaked": 4541,
      "obtain": 4542,
      "Govern": 4543,
      "Captain": 4544,
      "isation": 4545,
      "Rev": 4546,
      "traffic": 4547,
      "Georg": 4548,
      "Spec": 4549,
      "recomm": 4550,
      "becomes": 4551,
      "Oxford": 4552,
      "Admiral": 4553,
      "content": 4554,
      "Far": 4555,
      "account": 4556,
      "stories": 4557,
      "va": 4558,
      "Cross": 4559,
      "greater": 4560,
      "Chief": 4561,
      "mess": 4562,
      "anger": 4563,
      "vocal": 4564,
      "scoring": 4565,
      "concluded": 4566,
      "strength": 4567,
      "So": 4568,
      "potential": 4569,
      "federal": 4570,
      "Boston": 4571,
      "attempts": 4572,
      "extens": 4573,
      "Kar": 4574,
      "onic": 4575,
      "relatively": 4576,
      "Secret": 4577,
      "odd": 4578,
      "Manchester": 4579,
      "property": 4580,
      "Commission": 4581,
      "Class": 4582,
      "primarily": 4583,
      "lock": 4584,
      "Harrison": 4585,
      "demonstr": 4586,
      "thir": 4587,
      "actually": 4588,
      "64": 4589,
      "observed": 4590,
      "Egypt": 4591,
      "financial": 4592,
      "Fred": 4593,
      "Because": 4594,
      "prise": 4595,
      "Before": 4596,
      "Ram": 4597,
      "animals": 4598,
      "birds": 4599,
      "loy": 4600,
      "figure": 4601,
      "prov": 4602,
      "Sat": 4603,
      "Sil": 4604,
      "sets": 4605,
      "Battalion": 4606,
      "Ba": 4607,
      "collection": 4608,
      "ito": 4609,
      "Jeff": 4610,
      "ero": 4611,
      "Hurricane": 4612,
      "repair": 4613,
      "propos": 4614,
      "journal": 4615,
      "mond": 4616,
      "identified": 4617,
      "opportun": 4618,
      "Swed": 4619,
      "eth": 4620,
      "featuring": 4621,
      "poet": 4622,
      "78": 4623,
      "Van": 4624,
      "Den": 4625,
      "withdraw": 4626,
      "1944": 4627,
      "tourn": 4628,
      "Life": 4629,
      "istics": 4630,
      "ada": 4631,
      "Little": 4632,
      "ky": 4633,
      "missed": 4634,
      "situation": 4635,
      "scale": 4636,
      "bles": 4637,
      "distance": 4638,
      "ange": 4639,
      "perial": 4640,
      "mechan": 4641,
      "share": 4642,
      "passeng": 4643,
      "versions": 4644,
      "iate": 4645,
      "extreme": 4646,
      "independent": 4647,
      "Dire": 4648,
      "corn": 4649,
      "anna": 4650,
      "resist": 4651,
      "41": 4652,
      "uge": 4653,
      "image": 4654,
      "faced": 4655,
      "slightly": 4656,
      "thous": 4657,
      "Ken": 4658,
      "ita": 4659,
      "Brad": 4660,
      "BBC": 4661,
      "annel": 4662,
      "resh": 4663,
      "replac": 4664,
      "inking": 4665,
      "IS": 4666,
      "suppl": 4667,
      "Series": 4668,
      "Paris": 4669,
      "collabor": 4670,
      "da": 4671,
      "Dun": 4672,
      "Gil": 4673,
      "olf": 4674,
      "torpedo": 4675,
      "concent": 4676,
      "150": 4677,
      "here": 4678,
      "alleg": 4679,
      "trial": 4680,
      "seconds": 4681,
      "Line": 4682,
      "1990": 4683,
      "ultimately": 4684,
      "today": 4685,
      "42": 4686,
      "76": 4687,
      "colour": 4688,
      "completely": 4689,
      "square": 4690,
      "Ann": 4691,
      "Histor": 4692,
      "vation": 4693,
      "proved": 4694,
      "struck": 4695,
      "confirmed": 4696,
      "maximum": 4697,
      "prop": 4698,
      "inte": 4699,
      "Croat": 4700,
      "lap": 4701,
      "tellig": 4702,
      "naval": 4703,
      "Ca": 4704,
      "Light": 4705,
      "behav": 4706,
      "sought": 4707,
      "Max": 4708,
      "Lie": 4709,
      "cities": 4710,
      "Academy": 4711,
      "stein": 4712,
      "Museum": 4713,
      "1920": 4714,
      "branch": 4715,
      "policy": 4716,
      "combined": 4717,
      "Stephen": 4718,
      "1945": 4719,
      "calling": 4720,
      "serving": 4721,
      "designated": 4722,
      "pack": 4723,
      "blue": 4724,
      "1941": 4725,
      "green": 4726,
      "society": 4727,
      "dise": 4728,
      "northwest": 4729,
      "mainly": 4730,
      "minim": 4731,
      "weather": 4732,
      "border": 4733,
      "commissioned": 4734,
      "beth": 4735,
      "cers": 4736,
      "boat": 4737,
      "43": 4738,
      "Wal": 4739,
      "officials": 4740,
      "ya": 4741,
      "cin": 4742,
      "explained": 4743,
      "influenced": 4744,
      "Saint": 4745,
      "Pop": 4746,
      "vessel": 4747,
      "Vol": 4748,
      "conver": 4749,
      "Bat": 4750,
      "benef": 4751,
      "powerful": 4752,
      "alongside": 4753,
      "batter": 4754,
      "Brigade": 4755,
      "battleship": 4756,
      "PA": 4757,
      "Italy": 4758,
      "Entertainment": 4759,
      "85": 4760,
      "Way": 4761,
      "edge": 4762,
      "visions": 4763,
      "Lee": 4764,
      "Americans": 4765,
      "Regiment": 4766,
      "bass": 4767,
      "organization": 4768,
      "Gir": 4769,
      "gained": 4770,
      "resol": 4771,
      "sources": 4772,
      "says": 4773,
      "successfully": 4774,
      "ulations": 4775,
      "iew": 4776,
      "HL": 4777,
      "older": 4778,
      "sa": 4779,
      "background": 4780,
      "attend": 4781,
      "peace": 4782,
      "gency": 4783,
      "vari": 4784,
      "orses": 4785,
      "systems": 4786,
      "industri": 4787,
      "astic": 4788,
      "recent": 4789,
      "alone": 4790,
      "seg": 4791,
      "artists": 4792,
      "theory": 4793,
      "nominated": 4794,
      "reaching": 4795,
      "ety": 4796,
      "feed": 4797,
      "Arab": 4798,
      "promoted": 4799,
      "sust": 4800,
      "Avenue": 4801,
      "ils": 4802,
      "widely": 4803,
      "Gre": 4804,
      "encour": 4805,
      "problem": 4806,
      "Ireland": 4807,
      "ements": 4808,
      "stay": 4809,
      "elve": 4810,
      "ares": 4811,
      "news": 4812,
      "husband": 4813,
      "brary": 4814,
      "results": 4815,
      "invasion": 4816,
      "Spr": 4817,
      "bat": 4818,
      "yer": 4819,
      "dif": 4820,
      "Middle": 4821,
      "bud": 4822,
      "acu": 4823,
      "sexual": 4824,
      "ami": 4825,
      "travel": 4826,
      "Fleet": 4827,
      "greatest": 4828,
      "roads": 4829,
      "subsequent": 4830,
      "adel": 4831,
      "sky": 4832,
      "albums": 4833,
      "wise": 4834,
      "aling": 4835,
      "vania": 4836,
      "ota": 4837,
      "offer": 4838,
      "Live": 4839,
      "officially": 4840,
      "southeast": 4841,
      "arms": 4842,
      "smo": 4843,
      "illa": 4844,
      "county": 4845,
      "sixth": 4846,
      "rig": 4847,
      "1989": 4848,
      "Dev": 4849,
      "push": 4850,
      "affected": 4851,
      "master": 4852,
      "1943": 4853,
      "Common": 4854,
      "Bul": 4855,
      "gn": 4856,
      "iano": 4857,
      "shortly": 4858,
      "lip": 4859,
      "theless": 4860,
      "Otto": 4861,
      "din": 4862,
      "pilot": 4863,
      "fair": 4864,
      "ols": 4865,
      "opin": 4866,
      "armed": 4867,
      "contest": 4868,
      "expressed": 4869,
      "causing": 4870,
      "Victoria": 4871,
      "Republic": 4872,
      "ti": 4873,
      "doing": 4874,
      "iron": 4875,
      "represented": 4876,
      "spring": 4877,
      "reception": 4878,
      "true": 4879,
      "shell": 4880,
      "appearances": 4881,
      "Tropical": 4882,
      "organized": 4883,
      "wit": 4884,
      "nown": 4885,
      "defense": 4886,
      "residents": 4887,
      "arent": 4888,
      "Pre": 4889,
      "Wind": 4890,
      "pieces": 4891,
      "aga": 4892,
      "urban": 4893,
      "Ray": 4894,
      "capac": 4895,
      "physical": 4896,
      "tells": 4897,
      "aded": 4898,
      "seasons": 4899,
      "Catholic": 4900,
      "laid": 4901,
      "sense": 4902,
      "wal": 4903,
      "Land": 4904,
      "Os": 4905,
      "teach": 4906,
      "ansion": 4907,
      "179": 4908,
      "Valley": 4909,
      "CD": 4910,
      "negot": 4911,
      "intend": 4912,
      "syl": 4913,
      "semb": 4914,
      "itude": 4915,
      "hospital": 4916,
      "ufact": 4917,
      "growth": 4918,
      "ategory": 4919,
      "artillery": 4920,
      "avoid": 4921,
      "actors": 4922,
      "IV": 4923,
      "bodies": 4924,
      "require": 4925,
      "MD": 4926,
      "Though": 4927,
      "Dutch": 4928,
      "600": 4929,
      "Ob": 4930,
      "chair": 4931,
      "focus": 4932,
      "ached": 4933,
      "visited": 4934,
      "kg": 4935,
      "tun": 4936,
      "fired": 4937,
      "advant": 4938,
      "launch": 4939,
      "weapons": 4940,
      "Mountain": 4941,
      "3rd": 4942,
      "Through": 4943,
      "dog": 4944,
      "Show": 4945,
      "Week": 4946,
      "Commun": 4947,
      "Jul": 4948,
      "SS": 4949,
      "plement": 4950,
      "ahead": 4951,
      "fellow": 4952,
      "Bus": 4953,
      "ij": 4954,
      "arian": 4955,
      "Football": 4956,
      "atures": 4957,
      "vote": 4958,
      "usual": 4959,
      "eas": 4960,
      "heavily": 4961,
      "core": 4962,
      "pedition": 4963,
      "Young": 4964,
      "question": 4965,
      "governor": 4966,
      "inson": 4967,
      "1940": 4968,
      "eigh": 4969,
      "Tay": 4970,
      "ysis": 4971,
      "1980s": 4972,
      "Mul": 4973,
      "Upon": 4974,
      "leaders": 4975,
      "floor": 4976,
      "spread": 4977,
      "apparent": 4978,
      "Kenn": 4979,
      "student": 4980,
      "arden": 4981,
      "patter": 4982,
      "pun": 4983,
      "studies": 4984,
      "creation": 4985,
      "AC": 4986,
      "passes": 4987,
      "kilomet": 4988,
      "Good": 4989,
      "Def": 4990,
      "protest": 4991,
      "Ry": 4992,
      "Bor": 4993,
      "Well": 4994,
      "debuted": 4995,
      "executive": 4996,
      "arg": 4997,
      "prominent": 4998,
      "capture": 4999,
      "agreement": 5000,
      "dition": 5001,
      "consisted": 5002,
      "ustr": 5003,
      "wave": 5004,
      "ronic": 5005,
      "setting": 5006,
      "Ash": 5007,
      "Daniel": 5008,
      "ingu": 5009,
      "Home": 5010,
      "injury": 5011,
      "figures": 5012,
      "sions": 5013,
      "condition": 5014,
      "Colon": 5015,
      "defend": 5016,
      "Hum": 5017,
      "equipment": 5018,
      "claims": 5019,
      "catch": 5020,
      "necessary": 5021,
      "begin": 5022,
      "rical": 5023,
      "amber": 5024,
      "Bre": 5025,
      "Rog": 5026,
      "anta": 5027,
      "istrict": 5028,
      "matter": 5029,
      "phil": 5030,
      "instrument": 5031,
      "negative": 5032,
      "preser": 5033,
      "Civil": 5034,
      "ights": 5035,
      "argued": 5036,
      "Hy": 5037,
      "transl": 5038,
      "Bey": 5039,
      "contemporary": 5040,
      "dated": 5041,
      "earth": 5042,
      "Of": 5043,
      "returning": 5044,
      "Sub": 5045,
      "Eliza": 5046,
      "opposed": 5047,
      "Ill": 5048,
      "normal": 5049,
      "Homer": 5050,
      "1970s": 5051,
      "Ele": 5052,
      "Jon": 5053,
      "Northern": 5054,
      "ote": 5055,
      "Top": 5056,
      "otes": 5057,
      "77": 5058,
      "famous": 5059,
      "ube": 5060,
      "pict": 5061,
      "District": 5062,
      "maintained": 5063,
      "graphic": 5064,
      "Dam": 5065,
      "Main": 5066,
      "Mah": 5067,
      "Tele": 5068,
      "1960s": 5069,
      "frequently": 5070,
      "couple": 5071,
      "finish": 5072,
      "glo": 5073,
      "Gal": 5074,
      "rick": 5075,
      "table": 5076,
      "lic": 5077,
      "types": 5078,
      "activities": 5079,
      "criticized": 5080,
      "deck": 5081,
      "stations": 5082,
      "toward": 5083,
      "paper": 5084,
      "deg": 5085,
      "Bond": 5086,
      "kick": 5087,
      "Fri": 5088,
      "mile": 5089,
      "machine": 5090,
      "Av": 5091,
      "sn": 5092,
      "Carolina": 5093,
      "fa": 5094,
      "Marsh": 5095,
      "Tem": 5096,
      "heard": 5097,
      "aces": 5098,
      "reign": 5099,
      "mut": 5100,
      "rect": 5101,
      "cher": 5102,
      "Operation": 5103,
      "discuss": 5104,
      "operated": 5105,
      "occasion": 5106,
      "tournament": 5107,
      "reference": 5108,
      "ockey": 5109,
      "drug": 5110,
      "trees": 5111,
      "citiz": 5112,
      "else": 5113,
      "senior": 5114,
      "singles": 5115,
      "oul": 5116,
      "acts": 5117,
      "1987": 5118,
      "medical": 5119,
      "ledge": 5120,
      "Ocean": 5121,
      "folk": 5122,
      "eye": 5123,
      "acher": 5124,
      "planet": 5125,
      "Government": 5126,
      "Scottish": 5127,
      "aspect": 5128,
      "trying": 5129,
      "worldwide": 5130,
      "System": 5131,
      "TC": 5132,
      "1988": 5133,
      "achieve": 5134,
      "value": 5135,
      "territory": 5136,
      "Writ": 5137,
      "Governor": 5138,
      "coal": 5139,
      "Mu": 5140,
      "rum": 5141,
      "atom": 5142,
      "66": 5143,
      "Field": 5144,
      "Background": 5145,
      "rainfall": 5146,
      "modif": 5147,
      "Holly": 5148,
      "Fantasy": 5149,
      "sembly": 5150,
      "Pen": 5151,
      "hands": 5152,
      "holds": 5153,
      "historian": 5154,
      "treatment": 5155,
      "Ly": 5156,
      "narr": 5157,
      "assault": 5158,
      "color": 5159,
      "horses": 5160,
      "supply": 5161,
      "looking": 5162,
      "championship": 5163,
      "accident": 5164,
      "lers": 5165,
      "challeng": 5166,
      "university": 5167,
      "gam": 5168,
      "grew": 5169,
      "therefore": 5170,
      "Castle": 5171,
      "leaves": 5172,
      "split": 5173,
      "shap": 5174,
      "crash": 5175,
      "chosen": 5176,
      "Duke": 5177,
      "heads": 5178,
      "Senate": 5179,
      "incident": 5180,
      "Jud": 5181,
      "walls": 5182,
      "twice": 5183,
      "Short": 5184,
      "rael": 5185,
      "reports": 5186,
      "ressed": 5187,
      "shore": 5188,
      "stood": 5189,
      "cance": 5190,
      "offensive": 5191,
      "consecut": 5192,
      "gian": 5193,
      "Studios": 5194,
      "wounded": 5195,
      "ini": 5196,
      "Polish": 5197,
      "velopment": 5198,
      "escape": 5199,
      "teenth": 5200,
      "imen": 5201,
      "Eastern": 5202,
      "stre": 5203,
      "steam": 5204,
      "pursu": 5205,
      "billion": 5206,
      "rane": 5207,
      "follows": 5208,
      "surrounding": 5209,
      "prompt": 5210,
      "esc": 5211,
      "Andrew": 5212,
      "schedul": 5213,
      "Lew": 5214,
      "manufact": 5215,
      "acted": 5216,
      "WW": 5217,
      "soundtrack": 5218,
      "ker": 5219,
      "adapt": 5220,
      "Hard": 5221,
      "contained": 5222,
      "editor": 5223,
      "ucky": 5224,
      "Christmas": 5225,
      "Allied": 5226,
      "degree": 5227,
      "gate": 5228,
      "fuel": 5229,
      "oting": 5230,
      "herself": 5231,
      "ki": 5232,
      "workers": 5233,
      "typically": 5234,
      "Pennsyl": 5235,
      "ager": 5236,
      "street": 5237,
      "Beat": 5238,
      "Mean": 5239,
      "servation": 5240,
      "unknown": 5241,
      "pton": 5242,
      "lives": 5243,
      "simply": 5244,
      "rival": 5245,
      "symp": 5246,
      "fiction": 5247,
      "Wilson": 5248,
      "emphas": 5249,
      "Taylor": 5250,
      "wart": 5251,
      "element": 5252,
      "Joe": 5253,
      "regarded": 5254,
      "dete": 5255,
      "railway": 5256,
      "consecutive": 5257,
      "Columb": 5258,
      "casual": 5259,
      "izes": 5260,
      "1986": 5261,
      "drive": 5262,
      "chose": 5263,
      "currently": 5264,
      "chance": 5265,
      "boats": 5266,
      "authority": 5267,
      "nothing": 5268,
      "Each": 5269,
      "cannot": 5270,
      "Alexander": 5271,
      "marine": 5272,
      "disp": 5273,
      "ifying": 5274,
      "newly": 5275,
      "spirit": 5276,
      "participated": 5277,
      "growing": 5278,
      "awa": 5279,
      "Corn": 5280,
      "ano": 5281,
      "Bell": 5282,
      "Rod": 5283,
      "broken": 5284,
      "throw": 5285,
      "brown": 5286,
      "Down": 5287,
      "ette": 5288,
      "Wel": 5289,
      "tail": 5290,
      "mentioned": 5291,
      "website": 5292,
      "Blue": 5293,
      "exc": 5294,
      "Head": 5295,
      "Fam": 5296,
      "strike": 5297,
      "losing": 5298,
      "newspaper": 5299,
      "roof": 5300,
      "ancing": 5301,
      "isters": 5302,
      "Liber": 5303,
      "producers": 5304,
      "adopted": 5305,
      "advanced": 5306,
      "capacity": 5307,
      "tree": 5308,
      "filming": 5309,
      "Tech": 5310,
      "ocks": 5311,
      "grade": 5312,
      "experiment": 5313,
      "rev": 5314,
      "Storm": 5315,
      "compar": 5316,
      "risk": 5317,
      "advert": 5318,
      "moment": 5319,
      "extra": 5320,
      "oppon": 5321,
      "Festival": 5322,
      "Fre": 5323,
      "firm": 5324,
      "What": 5325,
      "Pennsylvania": 5326,
      "Islands": 5327,
      "edom": 5328,
      "eration": 5329,
      "opposition": 5330,
      "err": 5331,
      "basis": 5332,
      "uth": 5333,
      "emb": 5334,
      "Chart": 5335,
      "mann": 5336,
      "oppos": 5337,
      "door": 5338,
      "council": 5339,
      "sites": 5340,
      "imag": 5341,
      "abandoned": 5342,
      "azz": 5343,
      "Sound": 5344,
      "Ha": 5345,
      "budget": 5346,
      "yle": 5347,
      "fare": 5348,
      "plants": 5349,
      "Further": 5350,
      "Reception": 5351,
      "Night": 5352,
      "Kr": 5353,
      "Ret": 5354,
      "Mike": 5355,
      "Irish": 5356,
      "clo": 5357,
      "sections": 5358,
      "committee": 5359,
      "56": 5360,
      "uce": 5361,
      "aved": 5362,
      "flying": 5363,
      "Harry": 5364,
      "honor": 5365,
      "homes": 5366,
      "filmed": 5367,
      "bute": 5368,
      "accompan": 5369,
      "silver": 5370,
      "tower": 5371,
      "Spain": 5372,
      "creating": 5373,
      "franch": 5374,
      "phas": 5375,
      "purpose": 5376,
      "otional": 5377,
      "ables": 5378,
      "deploy": 5379,
      "encounter": 5380,
      "landing": 5381,
      "Coast": 5382,
      "99": 5383,
      "sail": 5384,
      "Albert": 5385,
      "rush": 5386,
      "Sa": 5387,
      "inth": 5388,
      "chor": 5389,
      "sens": 5390,
      "umber": 5391,
      "gal": 5392,
      "Person": 5393,
      "ounger": 5394,
      "possibly": 5395,
      "individuals": 5396,
      "expansion": 5397,
      "Jersey": 5398,
      "wel": 5399,
      "wild": 5400,
      "tery": 5401,
      "1990s": 5402,
      "Bon": 5403,
      "rank": 5404,
      "beyond": 5405,
      "illy": 5406,
      "apers": 5407,
      "failure": 5408,
      "fly": 5409,
      "measure": 5410,
      "killing": 5411,
      "Square": 5412,
      "lane": 5413,
      "places": 5414,
      "historical": 5415,
      "Ron": 5416,
      "CA": 5417,
      "draft": 5418,
      "1939": 5419,
      "occupied": 5420,
      "genus": 5421,
      "multi": 5422,
      "oe": 5423,
      "Origin": 5424,
      "Bol": 5425,
      "paralle": 5426,
      "uff": 5427,
      "achieved": 5428,
      "intellig": 5429,
      "believe": 5430,
      "roles": 5431,
      "management": 5432,
      "Production": 5433,
      "58": 5434,
      "brid": 5435,
      "narrow": 5436,
      "ctic": 5437,
      "Elizabeth": 5438,
      "Revolution": 5439,
      "sche": 5440,
      "retired": 5441,
      "Israel": 5442,
      "igg": 5443,
      "integr": 5444,
      "ideas": 5445,
      "crowd": 5446,
      "Institute": 5447,
      "fix": 5448,
      "rooms": 5449,
      "Ven": 5450,
      "wid": 5451,
      "improved": 5452,
      "eds": 5453,
      "personnel": 5454,
      "Due": 5455,
      "perman": 5456,
      "Broad": 5457,
      "Kel": 5458,
      "disease": 5459,
      "1985": 5460,
      "briefly": 5461,
      "seat": 5462,
      "nick": 5463,
      "Doctor": 5464,
      "sports": 5465,
      "auto": 5466,
      "mounted": 5467,
      "1968": 5468,
      "effective": 5469,
      "granted": 5470,
      "kilometres": 5471,
      "Meanwhile": 5472,
      "ocated": 5473,
      "administration": 5474,
      "repeated": 5475,
      "advantage": 5476,
      "porters": 5477,
      "infantry": 5478,
      "Republican": 5479,
      "evacu": 5480,
      "zy": 5481,
      "receive": 5482,
      "Liver": 5483,
      "perfect": 5484,
      "turns": 5485,
      "rejected": 5486,
      "Greg": 5487,
      "bom": 5488,
      "twelve": 5489,
      "interchange": 5490,
      "gives": 5491,
      "unique": 5492,
      "ques": 5493,
      "ancy": 5494,
      "crossing": 5495,
      "extensive": 5496,
      "agg": 5497,
      "1970": 5498,
      "custom": 5499,
      "rise": 5500,
      "Album": 5501,
      "leadership": 5502,
      "avalry": 5503,
      "sufficient": 5504,
      "experienced": 5505,
      "session": 5506,
      "Ohio": 5507,
      "Are": 5508,
      "hair": 5509,
      "iring": 5510,
      "Jes": 5511,
      "Sand": 5512,
      "Clark": 5513,
      "straight": 5514,
      "Bart": 5515,
      "champion": 5516,
      "data": 5517,
      "security": 5518,
      "controlled": 5519,
      "expanded": 5520,
      "choice": 5521,
      "describes": 5522,
      "forming": 5523,
      "Board": 5524,
      "solo": 5525,
      "zil": 5526,
      "fought": 5527,
      "yellow": 5528,
      "Secretary": 5529,
      "alty": 5530,
      "afety": 5531,
      "Cub": 5532,
      "1984": 5533,
      "attribut": 5534,
      "explos": 5535,
      "acquired": 5536,
      "Sel": 5537,
      "iments": 5538,
      "note": 5539,
      "hill": 5540,
      "Ul": 5541,
      "iance": 5542,
      "allows": 5543,
      "caught": 5544,
      "aud": 5545,
      "determined": 5546,
      "tend": 5547,
      "surrender": 5548,
      "didn": 5549,
      "Mir": 5550,
      "credited": 5551,
      "adelph": 5552,
      "sort": 5553,
      "ani": 5554,
      "Pu": 5555,
      "animal": 5556,
      "abin": 5557,
      "Philadelph": 5558,
      "vehicles": 5559,
      "ancient": 5560,
      "suggests": 5561,
      "families": 5562,
      "Ten": 5563,
      "susp": 5564,
      "entr": 5565,
      "Even": 5566,
      "psych": 5567,
      "sac": 5568,
      "stock": 5569,
      "venture": 5570,
      "guard": 5571,
      "iday": 5572,
      "amin": 5573,
      "titles": 5574,
      "drama": 5575,
      "52": 5576,
      "Cambridge": 5577,
      "article": 5578,
      "haps": 5579,
      "ridge": 5580,
      "Bud": 5581,
      "Georgia": 5582,
      "comedy": 5583,
      "NC": 5584,
      "eyes": 5585,
      "Never": 5586,
      "commonly": 5587,
      "Hon": 5588,
      "seventh": 5589,
      "DS": 5590,
      "ivity": 5591,
      "800": 5592,
      "kins": 5593,
      "enc": 5594,
      "Philadelphia": 5595,
      "acad": 5596,
      "prefer": 5597,
      "headquarters": 5598,
      "Hit": 5599,
      "nuclear": 5600,
      "shark": 5601,
      "iful": 5602,
      "Rel": 5603,
      "powers": 5604,
      "Sher": 5605,
      "holding": 5606,
      "sed": 5607,
      "connected": 5608,
      "mod": 5609,
      "authorities": 5610,
      "ola": 5611,
      "sand": 5612,
      "yst": 5613,
      "Also": 5614,
      "inf": 5615,
      "sle": 5616,
      "contain": 5617,
      "anning": 5618,
      "restling": 5619,
      "store": 5620,
      "labor": 5621,
      "centuries": 5622,
      "islands": 5623,
      "Addition": 5624,
      "ardi": 5625,
      "1967": 5626,
      "Ve": 5627,
      "beaut": 5628,
      "ike": 5629,
      "burgh": 5630,
      "Russia": 5631,
      "recently": 5632,
      "attle": 5633,
      "cultural": 5634,
      "protected": 5635,
      "Gall": 5636,
      "agan": 5637,
      "End": 5638,
      "lyn": 5639,
      "1980": 5640,
      "Point": 5641,
      "ule": 5642,
      "etball": 5643,
      "Among": 5644,
      "battalion": 5645,
      "simple": 5646,
      "depict": 5647,
      "Korean": 5648,
      "estic": 5649,
      "turret": 5650,
      "umes": 5651,
      "finds": 5652,
      "decre": 5653,
      "Ottoman": 5654,
      "Nintend": 5655,
      "asc": 5656,
      "Asia": 5657,
      "Liverpool": 5658,
      "Die": 5659,
      "Nintendo": 5660,
      "defence": 5661,
      "Ros": 5662,
      "reput": 5663,
      "iana": 5664,
      "120": 5665,
      "singing": 5666,
      "phone": 5667,
      "speak": 5668,
      "existing": 5669,
      "Rose": 5670,
      "oll": 5671,
      "approved": 5672,
      "accompanied": 5673,
      "Columbia": 5674,
      "Chap": 5675,
      "entirely": 5676,
      "ont": 5677,
      "dollar": 5678,
      "96": 5679,
      "touchdown": 5680,
      "height": 5681,
      "shop": 5682,
      "Arm": 5683,
      "goes": 5684,
      "containing": 5685,
      "fields": 5686,
      "iers": 5687,
      "bands": 5688,
      "extr": 5689,
      "Champion": 5690,
      "Pers": 5691,
      "scheduled": 5692,
      "iny": 5693,
      "orche": 5694,
      "zer": 5695,
      "erc": 5696,
      "protect": 5697,
      "contributed": 5698,
      "von": 5699,
      "Jenn": 5700,
      "Jun": 5701,
      "Mun": 5702,
      "adap": 5703,
      "88": 5704,
      "themes": 5705,
      "Prime": 5706,
      "Jean": 5707,
      "sport": 5708,
      "analysis": 5709,
      "flooding": 5710,
      "Lieutenant": 5711,
      "Development": 5712,
      "Singap": 5713,
      "purchased": 5714,
      "Jewish": 5715,
      "Tro": 5716,
      "Lincol": 5717,
      "provides": 5718,
      "aste": 5719,
      "Mos": 5720,
      "younger": 5721,
      "conve": 5722,
      "Burn": 5723,
      "computer": 5724,
      "1983": 5725,
      "Gulf": 5726,
      "performing": 5727,
      "FL": 5728,
      "arc": 5729,
      "oma": 5730,
      "prising": 5731,
      "awards": 5732,
      "isers": 5733,
      "locations": 5734,
      "Brazil": 5735,
      "defensive": 5736,
      "quite": 5737,
      "isa": 5738,
      "Hay": 5739,
      "arrival": 5740,
      "hang": 5741,
      "Carey": 5742,
      "51": 5743,
      "headed": 5744,
      "Office": 5745,
      "Les": 5746,
      "Rus": 5747,
      "engaged": 5748,
      "resem": 5749,
      "1969": 5750,
      "Francisco": 5751,
      "Anderson": 5752,
      "victim": 5753,
      "gather": 5754,
      "Singapore": 5755,
      "outs": 5756,
      "People": 5757,
      "motion": 5758,
      "intensity": 5759,
      "expedition": 5760,
      "1964": 5761,
      "filled": 5762,
      "viewed": 5763,
      "Order": 5764,
      "formula": 5765,
      "illustr": 5766,
      "Lincoln": 5767,
      "Lar": 5768,
      "Six": 5769,
      "Ind": 5770,
      "mate": 5771,
      "ceremony": 5772,
      "Han": 5773,
      "dedicated": 5774,
      "Radio": 5775,
      "employed": 5776,
      "Bas": 5777,
      "anda": 5778,
      "fresh": 5779,
      "Ep": 5780,
      "philos": 5781,
      "HMS": 5782,
      "Kir": 5783,
      "myth": 5784,
      "repl": 5785,
      "1914": 5786,
      "why": 5787,
      "joint": 5788,
      "structures": 5789,
      "prepared": 5790,
      "sun": 5791,
      "1918": 5792,
      "79": 5793,
      "agement": 5794,
      "Disney": 5795,
      "cles": 5796,
      "4th": 5797,
      "dry": 5798,
      "industrial": 5799,
      "Oli": 5800,
      "defined": 5801,
      "1971": 5802,
      "Turn": 5803,
      "recru": 5804,
      "Dark": 5805,
      "PlayStation": 5806,
      "Metro": 5807,
      "Walter": 5808,
      "PC": 5809,
      "1982": 5810,
      "charged": 5811,
      "closely": 5812,
      "escort": 5813,
      "consists": 5814,
      "focused": 5815,
      "Conference": 5816,
      "1972": 5817,
      "1966": 5818,
      "1979": 5819,
      "drawn": 5820,
      "Lewis": 5821,
      "Steve": 5822,
      "enge": 5823,
      "Miller": 5824,
      "ees": 5825,
      "protection": 5826,
      "comic": 5827,
      "Brian": 5828,
      "Var": 5829,
      "cat": 5830,
      "product": 5831,
      "technology": 5832,
      "egg": 5833,
      "piano": 5834,
      "facilities": 5835,
      "elimin": 5836,
      "supporting": 5837,
      "18th": 5838,
      "Once": 5839,
      "criticism": 5840,
      "preced": 5841,
      "ux": 5842,
      "union": 5843,
      "Byz": 5844,
      "Sus": 5845,
      "cars": 5846,
      "tact": 5847,
      "selection": 5848,
      "Olympic": 5849,
      "belong": 5850,
      "shooting": 5851,
      "ec": 5852,
      "discus": 5853,
      "earch": 5854,
      "etic": 5855,
      "Emperor": 5856,
      "Brook": 5857,
      "strip": 5858,
      "advis": 5859,
      "regions": 5860,
      "ilton": 5861,
      "1965": 5862,
      "visual": 5863,
      "rear": 5864,
      "rence": 5865,
      "motor": 5866,
      "Grant": 5867,
      "trail": 5868,
      "Es": 5869,
      "Byzant": 5870,
      "belief": 5871,
      "Child": 5872,
      "Railway": 5873,
      "hired": 5874,
      "vor": 5875,
      "onom": 5876,
      "receiving": 5877,
      "satis": 5878,
      "uan": 5879,
      "uct": 5880,
      "Pit": 5881,
      "iar": 5882,
      "ween": 5883,
      "conference": 5884,
      "NHL": 5885,
      "opportunity": 5886,
      "substant": 5887,
      "kee": 5888,
      "display": 5889,
      "knot": 5890,
      "recognized": 5891,
      "1975": 5892,
      "correspond": 5893,
      "Blo": 5894,
      "strengthen": 5895,
      "notable": 5896,
      "rupt": 5897,
      "tank": 5898,
      "calls": 5899,
      "gi": 5900,
      "Jr": 5901,
      "trains": 5902,
      "views": 5903,
      "ours": 5904,
      "resident": 5905,
      "Germans": 5906,
      "Gro": 5907,
      "providing": 5908,
      "ses": 5909,
      "composition": 5910,
      "ju": 5911,
      "Only": 5912,
      "Hollywood": 5913,
      "alternative": 5914,
      "Pet": 5915,
      "rapidly": 5916,
      "Summer": 5917,
      "casualties": 5918,
      "liber": 5919,
      "agent": 5920,
      "59": 5921,
      "57": 5922,
      "merch": 5923,
      "1974": 5924,
      "charts": 5925,
      "aly": 5926,
      "Davis": 5927,
      "Ko": 5928,
      "lb": 5929,
      "southwest": 5930,
      "exter": 5931,
      "achu": 5932,
      "Cur": 5933,
      "Rome": 5934,
      "reaction": 5935,
      "Indu": 5936,
      "desc": 5937,
      "1973": 5938,
      "Democratic": 5939,
      "Water": 5940,
      "volume": 5941,
      "bac": 5942,
      "publication": 5943,
      "resc": 5944,
      "Serb": 5945,
      "digital": 5946,
      "ads": 5947,
      "shared": 5948,
      "constant": 5949,
      "Fall": 5950,
      "steel": 5951,
      "involve": 5952,
      "Between": 5953,
      "Daily": 5954,
      "hydro": 5955,
      "highlight": 5956,
      "68": 5957,
      "missing": 5958,
      "ias": 5959,
      "economy": 5960,
      "temperature": 5961,
      "1976": 5962,
      "label": 5963,
      "ogy": 5964,
      "developing": 5965,
      "adding": 5966,
      "unting": 5967,
      "card": 5968,
      "intersection": 5969,
      "lake": 5970,
      "Knight": 5971,
      "Bank": 5972,
      "Beyonce": 5973,
      "Lady": 5974,
      "ods": 5975,
      "reflect": 5976,
      "glass": 5977,
      "secondary": 5978,
      "icial": 5979,
      "Special": 5980,
      "abo": 5981,
      "letters": 5982,
      "Jour": 5983,
      "popularity": 5984,
      "Mount": 5985,
      "getting": 5986,
      "injured": 5987,
      "formal": 5988,
      "symbol": 5989,
      "inspir": 5990,
      "eleven": 5991,
      "isol": 5992,
      "painting": 5993,
      "losses": 5994,
      "ceived": 5995,
      "witness": 5996,
      "march": 5997,
      "acks": 5998,
      "Lind": 5999,
      "itled": 6000,
      "Op": 6001,
      "raid": 6002,
      "Ka": 6003,
      "urb": 6004,
      "Bad": 6005,
      "trip": 6006,
      "partn": 6007,
      "crimin": 6008,
      "emic": 6009,
      "significantly": 6010,
      "brand": 6011,
      "franchise": 6012,
      "unte": 6013,
      "portray": 6014,
      "hed": 6015,
      "MA": 6016,
      "Women": 6017,
      "250": 6018,
      "Nap": 6019,
      "knew": 6020,
      "save": 6021,
      "poll": 6022,
      "UN": 6023,
      "semi": 6024,
      "hot": 6025,
      "Arts": 6026,
      "Muslim": 6027,
      "Tam": 6028,
      "54": 6029,
      "literature": 6030,
      "remo": 6031,
      "roughly": 6032,
      "abour": 6033,
      "shape": 6034,
      "distinct": 6035,
      "Syd": 6036,
      "actress": 6037,
      "nic": 6038,
      "zen": 6039,
      "fash": 6040,
      "inal": 6041,
      "dram": 6042,
      "cricket": 6043,
      "Colonel": 6044,
      "brothers": 6045,
      "introduction": 6046,
      "anything": 6047,
      "inger": 6048,
      "53": 6049,
      "resistance": 6050,
      "Naz": 6051,
      "regarding": 6052,
      "aka": 6053,
      "projects": 6054,
      "Mod": 6055,
      "Press": 6056,
      "museum": 6057,
      "math": 6058,
      "avig": 6059,
      "scientific": 6060,
      "ully": 6061,
      "grapher": 6062,
      "89": 6063,
      "Dor": 6064,
      "Nick": 6065,
      "ients": 6066,
      "arranged": 6067,
      "gameplay": 6068,
      "IG": 6069,
      "bishop": 6070,
      "Supreme": 6071,
      "storyline": 6072,
      "ko": 6073,
      "neighbor": 6074,
      "Kentucky": 6075,
      "gro": 6076,
      "distingu": 6077,
      "evin": 6078,
      "reasons": 6079,
      "ulate": 6080,
      "rules": 6081,
      "daily": 6082,
      "1946": 6083,
      "shaped": 6084,
      "cool": 6085,
      "1981": 6086,
      "missions": 6087,
      "cruiser": 6088,
      "stages": 6089,
      "accur": 6090,
      "itors": 6091,
      "turning": 6092,
      "watched": 6093,
      "plane": 6094,
      "cells": 6095,
      "bid": 6096,
      "ulpt": 6097,
      "Gord": 6098,
      "capable": 6099,
      "perhaps": 6100,
      "declined": 6101,
      "renamed": 6102,
      "annon": 6103,
      "converted": 6104,
      "Ri": 6105,
      "setts": 6106,
      "istry": 6107,
      "Prote": 6108,
      "acres": 6109,
      "160": 6110,
      "enjoyed": 6111,
      "rhy": 6112,
      "laws": 6113,
      "1950s": 6114,
      "versy": 6115,
      "trou": 6116,
      "ura": 6117,
      "poem": 6118,
      "opinion": 6119,
      "asty": 6120,
      "Bern": 6121,
      "1917": 6122,
      "asser": 6123,
      "Dream": 6124,
      "estate": 6125,
      "Norway": 6126,
      "Massachu": 6127,
      "reputation": 6128,
      "cited": 6129,
      "ultural": 6130,
      "BN": 6131,
      "recon": 6132,
      "publish": 6133,
      "87": 6134,
      "Base": 6135,
      "Det": 6136,
      "abilities": 6137,
      "Olympics": 6138,
      "dates": 6139,
      "operating": 6140,
      "stable": 6141,
      "Ell": 6142,
      "udes": 6143,
      "awn": 6144,
      "Fair": 6145,
      "replace": 6146,
      "statement": 6147,
      "agric": 6148,
      "retire": 6149,
      "existence": 6150,
      "Massachusetts": 6151,
      "ading": 6152,
      "genre": 6153,
      "Nel": 6154,
      "rog": 6155,
      "buried": 6156,
      "enh": 6157,
      "producing": 6158,
      "graded": 6159,
      "AD": 6160,
      "iations": 6161,
      "marks": 6162,
      "combination": 6163,
      "Public": 6164,
      "exact": 6165,
      "knowledge": 6166,
      "depth": 6167,
      "Philip": 6168,
      "increasingly": 6169,
      "Vi": 6170,
      "scholar": 6171,
      "Independ": 6172,
      "zone": 6173,
      "aug": 6174,
      "planning": 6175,
      "limit": 6176,
      "approached": 6177,
      "flat": 6178,
      "tos": 6179,
      "responded": 6180,
      "Pict": 6181,
      "Tod": 6182,
      "stadium": 6183,
      "heim": 6184,
      "BS": 6185,
      "ride": 6186,
      "warm": 6187,
      "Airport": 6188,
      "Gree": 6189,
      "aer": 6190,
      "1948": 6191,
      "Vide": 6192,
      "Cir": 6193,
      "easily": 6194,
      "collected": 6195,
      "Golden": 6196,
      "Run": 6197,
      "Free": 6198,
      "anth": 6199,
      "settlement": 6200,
      "sects": 6201,
      "Elect": 6202,
      "mad": 6203,
      "expect": 6204,
      "bling": 6205,
      "1960": 6206,
      "Ball": 6207,
      "FC": 6208,
      "amond": 6209,
      "Imperial": 6210,
      "Ari": 6211,
      "succeeded": 6212,
      "Der": 6213,
      "exerc": 6214,
      "equal": 6215,
      "sustained": 6216,
      "About": 6217,
      "IA": 6218,
      "photograph": 6219,
      "models": 6220,
      "platform": 6221,
      "ctors": 6222,
      "safety": 6223,
      "learned": 6224,
      "Mit": 6225,
      "Simpsons": 6226,
      "67": 6227,
      "69": 6228,
      "Si": 6229,
      "Earl": 6230,
      "humans": 6231,
      "rol": 6232,
      "secure": 6233,
      "ii": 6234,
      "1978": 6235,
      "Pass": 6236,
      "carrying": 6237,
      "ES": 6238,
      "Init": 6239,
      "iger": 6240,
      "promotion": 6241,
      "Vietnam": 6242,
      "youth": 6243,
      "aust": 6244,
      "showing": 6245,
      "indicated": 6246,
      "baseball": 6247,
      "Review": 6248,
      "Ice": 6249,
      "ao": 6250,
      "exchange": 6251,
      "owner": 6252,
      "Songs": 6253,
      "ignment": 6254,
      "auth": 6255,
      "lasted": 6256,
      "weakened": 6257,
      "paint": 6258,
      "breeding": 6259,
      "Maria": 6260,
      "violence": 6261,
      "Hugh": 6262,
      "seems": 6263,
      "Stand": 6264,
      "Whit": 6265,
      "MTV": 6266,
      "rob": 6267,
      "1915": 6268,
      "Cape": 6269,
      "icks": 6270,
      "cruisers": 6271,
      "uration": 6272,
      "Leon": 6273,
      "designs": 6274,
      "700": 6275,
      "athlet": 6276,
      "freeway": 6277,
      "ruled": 6278,
      "univers": 6279,
      "Shortly": 6280,
      "cold": 6281,
      "agu": 6282,
      "landfall": 6283,
      "earliest": 6284,
      "proceed": 6285,
      "entry": 6286,
      "borough": 6287,
      "Sydney": 6288,
      "sculpt": 6289,
      "Hart": 6290,
      "retained": 6291,
      "1977": 6292,
      "yo": 6293,
      "trust": 6294,
      "Poland": 6295,
      "icate": 6296,
      "description": 6297,
      "Moore": 6298,
      "safe": 6299,
      "Naval": 6300,
      "Who": 6301,
      "reserve": 6302,
      "install": 6303,
      "assistant": 6304,
      "Maryland": 6305,
      "lee": 6306,
      "applied": 6307,
      "seas": 6308,
      "none": 6309,
      "issance": 6310,
      "grounds": 6311,
      "Form": 6312,
      "inton": 6313,
      "programs": 6314,
      "borne": 6315,
      "Found": 6316,
      "Hun": 6317,
      "hits": 6318,
      "insula": 6319,
      "coastal": 6320,
      "writes": 6321,
      "resour": 6322,
      "serves": 6323,
      "ampions": 6324,
      "playoff": 6325,
      "CE": 6326,
      "wich": 6327,
      "entrance": 6328,
      "page": 6329,
      "Band": 6330,
      "1963": 6331,
      "domestic": 6332,
      "Space": 6333,
      "virt": 6334,
      "dial": 6335,
      "delivered": 6336,
      "battery": 6337,
      "neut": 6338,
      "zo": 6339,
      "stret": 6340,
      "1916": 6341,
      "ental": 6342,
      "stopped": 6343,
      "strate": 6344,
      "Rhodes": 6345,
      "exclus": 6346,
      "istan": 6347,
      "Theatre": 6348,
      "onym": 6349,
      "Jay": 6350,
      "camera": 6351,
      "Spring": 6352,
      "wr": 6353,
      "candidate": 6354,
      "Ross": 6355,
      "gradually": 6356,
      "items": 6357,
      "politics": 6358,
      "cinem": 6359,
      "iverse": 6360,
      "breaking": 6361,
      "elled": 6362,
      "ining": 6363,
      "heat": 6364,
      "Confed": 6365,
      "supplies": 6366,
      "Rac": 6367,
      "apped": 6368,
      "settled": 6369,
      "details": 6370,
      "independence": 6371,
      "ador": 6372,
      "solid": 6373,
      "Edu": 6374,
      "iege": 6375,
      "athan": 6376,
      "interested": 6377,
      "distribution": 6378,
      "Prin": 6379,
      "Matt": 6380,
      "86": 6381,
      "towns": 6382,
      "ries": 6383,
      "eff": 6384,
      "Sul": 6385,
      "asks": 6386,
      "fine": 6387,
      "overs": 6388,
      "Gordon": 6389,
      "72": 6390,
      "Mulder": 6391,
      "affect": 6392,
      "bask": 6393,
      "engines": 6394,
      "equival": 6395,
      "finding": 6396,
      "minister": 6397,
      "parties": 6398,
      "ifications": 6399,
      "Bir": 6400,
      "Tun": 6401,
      "decis": 6402,
      "phoon": 6403,
      "appeal": 6404,
      "Stadium": 6405,
      "1919": 6406,
      "prisoners": 6407,
      "aret": 6408,
      "Cont": 6409,
      "1962": 6410,
      "campus": 6411,
      "lets": 6412,
      "gall": 6413,
      "py": 6414,
      "refle": 6415,
      "entitled": 6416,
      "ipe": 6417,
      "winner": 6418,
      "rose": 6419,
      "extremely": 6420,
      "regiment": 6421,
      "osis": 6422,
      "Carl": 6423,
      "iversary": 6424,
      "Fire": 6425,
      "foss": 6426,
      "Here": 6427,
      "online": 6428,
      "illi": 6429,
      "Adams": 6430,
      "Net": 6431,
      "convin": 6432,
      "Philipp": 6433,
      "investigation": 6434,
      "mical": 6435,
      "copy": 6436,
      "decade": 6437,
      "evening": 6438,
      "Kim": 6439,
      "1938": 6440,
      "adapted": 6441,
      "studied": 6442,
      "aine": 6443,
      "offers": 6444,
      "poration": 6445,
      "bought": 6446,
      "Constant": 6447,
      "survived": 6448,
      "walk": 6449,
      "inois": 6450,
      "knots": 6451,
      "classified": 6452,
      "inary": 6453,
      "hear": 6454,
      "threatened": 6455,
      "urs": 6456,
      "cler": 6457,
      "religion": 6458,
      "voted": 6459,
      "consum": 6460,
      "isms": 6461,
      "deaths": 6462,
      "acid": 6463,
      "Prof": 6464,
      "Bowl": 6465,
      "message": 6466,
      "classic": 6467,
      "61": 6468,
      "Moon": 6469,
      "Justice": 6470,
      "routes": 6471,
      "Research": 6472,
      "relations": 6473,
      "relief": 6474,
      "stic": 6475,
      "otic": 6476,
      "proposal": 6477,
      "Loc": 6478,
      "Age": 6479,
      "Instead": 6480,
      "izations": 6481,
      "installed": 6482,
      "revolution": 6483,
      "download": 6484,
      "Simon": 6485,
      "bottom": 6486,
      "crown": 6487,
      "tanks": 6488,
      "cation": 6489,
      "mine": 6490,
      "Jane": 6491,
      "swe": 6492,
      "kingdom": 6493,
      "reduce": 6494,
      "specifically": 6495,
      "ophy": 6496,
      "phase": 6497,
      "bourne": 6498,
      "iro": 6499,
      "males": 6500,
      "ieval": 6501,
      "ansas": 6502,
      "USA": 6503,
      "happy": 6504,
      "orter": 6505,
      "62": 6506,
      "implement": 6507,
      "recalled": 6508,
      "portrayed": 6509,
      "fict": 6510,
      "uzz": 6511,
      "wan": 6512,
      "controversy": 6513,
      "duty": 6514,
      "ira": 6515,
      "diss": 6516,
      "compon": 6517,
      "Gun": 6518,
      "imet": 6519,
      "ishes": 6520,
      "opera": 6521,
      "aked": 6522,
      "fal": 6523,
      "ester": 6524,
      "wides": 6525,
      "pread": 6526,
      "pel": 6527,
      "servative": 6528,
      "appropri": 6529,
      "ighters": 6530,
      "products": 6531,
      "causes": 6532,
      "everything": 6533,
      "ati": 6534,
      "send": 6535,
      "fil": 6536,
      "express": 6537,
      "arrested": 6538,
      "Tony": 6539,
      "references": 6540,
      "Let": 6541,
      "Vo": 6542,
      "meters": 6543,
      "shel": 6544,
      "Beach": 6545,
      "importance": 6546,
      "Sav": 6547,
      "faith": 6548,
      "Iron": 6549,
      "thin": 6550,
      "Alan": 6551,
      "typical": 6552,
      "130": 6553,
      "crossed": 6554,
      "visible": 6555,
      "1956": 6556,
      "1930s": 6557,
      "bringing": 6558,
      "Anth": 6559,
      "AR": 6560,
      "NBA": 6561,
      "Singles": 6562,
      "81": 6563,
      "invited": 6564,
      "presents": 6565,
      "entially": 6566,
      "Director": 6567,
      "starts": 6568,
      "opher": 6569,
      "reading": 6570,
      "admitted": 6571,
      "corner": 6572,
      "una": 6573,
      "tall": 6574,
      "nomination": 6575,
      "angle": 6576,
      "Video": 6577,
      "internal": 6578,
      "equipped": 6579,
      "Kong": 6580,
      "aints": 6581,
      "istered": 6582,
      "ipated": 6583,
      "concerns": 6584,
      "crop": 6585,
      "sequences": 6586,
      "hun": 6587,
      "Power": 6588,
      "1936": 6589,
      "IGN": 6590,
      "convoy": 6591,
      "Critical": 6592,
      "armour": 6593,
      "Engine": 6594,
      "emies": 6595,
      "volcan": 6596,
      "amoun": 6597,
      "Hamilton": 6598,
      "Donald": 6599,
      "Pur": 6600,
      "actual": 6601,
      "principal": 6602,
      "ranean": 6603,
      "lad": 6604,
      "incorporated": 6605,
      "wed": 6606,
      "images": 6607,
      "recommended": 6608,
      "Ow": 6609,
      "rie": 6610,
      "Bos": 6611,
      "Nat": 6612,
      "remainder": 6613,
      "crime": 6614,
      "UTC": 6615,
      "dream": 6616,
      "vard": 6617,
      "journey": 6618,
      "ima": 6619,
      "shots": 6620,
      "Your": 6621,
      "Adam": 6622,
      "medal": 6623,
      "17th": 6624,
      "assess": 6625,
      "ordan": 6626,
      "Plot": 6627,
      "Plan": 6628,
      "thew": 6629,
      "consisting": 6630,
      "storms": 6631,
      "price": 6632,
      "funds": 6633,
      "promote": 6634,
      "considerable": 6635,
      "Wild": 6636,
      "1961": 6637,
      "objects": 6638,
      "hr": 6639,
      "composer": 6640,
      "appointment": 6641,
      "Indones": 6642,
      "charges": 6643,
      "snow": 6644,
      "milit": 6645,
      "leton": 6646,
      "frag": 6647,
      "Memorial": 6648,
      "Kat": 6649,
      "Rem": 6650,
      "extension": 6651,
      "ilation": 6652,
      "females": 6653,
      "Prem": 6654,
      "ches": 6655,
      "Ur": 6656,
      "posted": 6657,
      "claiming": 6658,
      "Rand": 6659,
      "Death": 6660,
      "looked": 6661,
      "mort": 6662,
      "Today": 6663,
      "AAF": 6664,
      "1953": 6665,
      "WWE": 6666,
      "mast": 6667,
      "controvers": 6668,
      "spons": 6669,
      "bra": 6670,
      "generation": 6671,
      "duties": 6672,
      "7th": 6673,
      "sters": 6674,
      "Military": 6675,
      "Gram": 6676,
      "canal": 6677,
      "clean": 6678,
      "rett": 6679,
      "Nether": 6680,
      "eu": 6681,
      "someone": 6682,
      "Pear": 6683,
      "rural": 6684,
      "Hitler": 6685,
      "5th": 6686,
      "mere": 6687,
      "Kennedy": 6688,
      "beach": 6689,
      "eighth": 6690,
      "Cleve": 6691,
      "Sunday": 6692,
      "Ant": 6693,
      "decades": 6694,
      "driving": 6695,
      "Howard": 6696,
      "Transport": 6697,
      "hope": 6698,
      "Indiana": 6699,
      "perior": 6700,
      "cycle": 6701,
      "acre": 6702,
      "Tit": 6703,
      "gone": 6704,
      "san": 6705,
      "Norman": 6706,
      "onia": 6707,
      "challenge": 6708,
      "outer": 6709,
      "Kh": 6710,
      "Walk": 6711,
      "identity": 6712,
      "connection": 6713,
      "Sky": 6714,
      "aki": 6715,
      "apping": 6716,
      "Freder": 6717,
      "ulture": 6718,
      "permanent": 6719,
      "occurs": 6720,
      "manner": 6721,
      "afford": 6722,
      "brigade": 6723,
      "Norwe": 6724,
      "casting": 6725,
      "answ": 6726,
      "Scully": 6727,
      "freedom": 6728,
      "entering": 6729,
      "thesis": 6730,
      "aspects": 6731,
      "Five": 6732,
      "hotel": 6733,
      "1947": 6734,
      "Arsen": 6735,
      "inher": 6736,
      "ader": 6737,
      "divisions": 6738,
      "fashion": 6739,
      "attached": 6740,
      "liked": 6741,
      "110": 6742,
      "Sl": 6743,
      "Turk": 6744,
      "glas": 6745,
      "concerned": 6746,
      "Wars": 6747,
      "willing": 6748,
      "ician": 6749,
      "noting": 6750,
      "slowly": 6751,
      "mole": 6752,
      "1958": 6753,
      "1937": 6754,
      "classes": 6755,
      "cens": 6756,
      "prised": 6757,
      "Brist": 6758,
      "1910": 6759,
      "prem": 6760,
      "junction": 6761,
      "restaur": 6762,
      "vessels": 6763,
      "rend": 6764,
      "74": 6765,
      "oldest": 6766,
      "agn": 6767,
      "lling": 6768,
      "involving": 6769,
      "iques": 6770,
      "supporters": 6771,
      "decor": 6772,
      "seeing": 6773,
      "Ryan": 6774,
      "dub": 6775,
      "department": 6776,
      "itage": 6777,
      "Vill": 6778,
      "enemies": 6779,
      "ora": 6780,
      "describing": 6781,
      "Rele": 6782,
      "regon": 6783,
      "Project": 6784,
      "resent": 6785,
      "1957": 6786,
      "scar": 6787,
      "antly": 6788,
      "owners": 6789,
      "intention": 6790,
      "purchase": 6791,
      "Bry": 6792,
      "til": 6793,
      "valu": 6794,
      "Assembly": 6795,
      "armor": 6796,
      "theatre": 6797,
      "basic": 6798,
      "equivalent": 6799,
      "obtained": 6800,
      "Science": 6801,
      "debate": 6802,
      "possibility": 6803,
      "ynasty": 6804,
      "Jac": 6805,
      "grave": 6806,
      "ears": 6807,
      "63": 6808,
      "parliament": 6809,
      "regularly": 6810,
      "widespread": 6811,
      "Magazine": 6812,
      "agonist": 6813,
      "convent": 6814,
      "iley": 6815,
      "erald": 6816,
      "committed": 6817,
      "decline": 6818,
      "Rolling": 6819,
      "income": 6820,
      "nee": 6821,
      "Oregon": 6822,
      "agues": 6823,
      "prede": 6824,
      "Pot": 6825,
      "recognition": 6826,
      "certified": 6827,
      "icit": 6828,
      "populations": 6829,
      "departure": 6830,
      "Cleveland": 6831,
      "brain": 6832,
      "mud": 6833,
      "accused": 6834,
      "Throughout": 6835,
      "scious": 6836,
      "sessions": 6837,
      "acknow": 6838,
      "Illinois": 6839,
      "Jordan": 6840,
      "pup": 6841,
      "Douglas": 6842,
      "Hou": 6843,
      "deleg": 6844,
      "constitut": 6845,
      "ration": 6846,
      "nut": 6847,
      "frame": 6848,
      "Pier": 6849,
      "derived": 6850,
      "iven": 6851,
      "sequel": 6852,
      "Mediter": 6853,
      "Weekly": 6854,
      "assumed": 6855,
      "Master": 6856,
      "check": 6857,
      "esh": 6858,
      "intelligence": 6859,
      "segment": 6860,
      "1959": 6861,
      "Andy": 6862,
      "Ku": 6863,
      "hosted": 6864,
      "wearing": 6865,
      "survey": 6866,
      "Card": 6867,
      "Stanley": 6868,
      "icide": 6869,
      "Cas": 6870,
      "returns": 6871,
      "Family": 6872,
      "historic": 6873,
      "Media": 6874,
      "citizens": 6875,
      "6th": 6876,
      "stands": 6877,
      "ni": 6878,
      "Isa": 6879,
      "valley": 6880,
      "regional": 6881,
      "temple": 6882,
      "Roger": 6883,
      "Arsenal": 6884,
      "Third": 6885,
      "terminus": 6886,
      "literary": 6887,
      "sam": 6888,
      "nie": 6889,
      "denied": 6890,
      "parallel": 6891,
      "Mas": 6892,
      "Kevin": 6893,
      "lose": 6894,
      "transition": 6895,
      "torn": 6896,
      "Pa": 6897,
      "Recording": 6898,
      "Key": 6899,
      "noon": 6900,
      "animated": 6901,
      "Mediterranean": 6902,
      "Beatles": 6903,
      "inity": 6904,
      "akers": 6905,
      "guil": 6906,
      "Bruce": 6907,
      "Mexican": 6908,
      "DE": 6909,
      "interpret": 6910,
      "Ira": 6911,
      "pled": 6912,
      "skin": 6913,
      "passage": 6914,
      "circum": 6915,
      "thousands": 6916,
      "supposed": 6917,
      "graphics": 6918,
      "Alf": 6919,
      "1955": 6920,
      "clip": 6921,
      "1954": 6922,
      "altern": 6923,
      "uni": 6924,
      "ISBN": 6925,
      "Norwegian": 6926,
      "Bristol": 6927,
      "gets": 6928,
      "Treat": 6929,
      "plate": 6930,
      "proto": 6931,
      "intr": 6932,
      "strongly": 6933,
      "wickets": 6934,
      "Federal": 6935,
      "sailed": 6936,
      "Allen": 6937,
      "fruit": 6938,
      "ione": 6939,
      "mosphere": 6940,
      "eman": 6941,
      "address": 6942,
      "thedr": 6943,
      "trait": 6944,
      "raise": 6945,
      "convict": 6946,
      "aboard": 6947,
      "circulation": 6948,
      "passengers": 6949,
      "ici": 6950,
      "Rain": 6951,
      "downtown": 6952,
      "Anton": 6953,
      "behavior": 6954,
      "impl": 6955,
      "16th": 6956,
      "Girl": 6957,
      "Gra": 6958,
      "link": 6959,
      "thetic": 6960,
      "emerged": 6961,
      "Glo": 6962,
      "clubs": 6963,
      "races": 6964,
      "Morgan": 6965,
      "mates": 6966,
      "thirty": 6967,
      "fictional": 6968,
      "commanded": 6969,
      "prey": 6970,
      "aced": 6971,
      "tied": 6972,
      "conduct": 6973,
      "establishment": 6974,
      "Ali": 6975,
      "ML": 6976,
      "conscious": 6977,
      "replacement": 6978,
      "shr": 6979,
      "82": 6980,
      "neck": 6981,
      "Bush": 6982,
      "instru": 6983,
      "begun": 6984,
      "tex": 6985,
      "uous": 6986,
      "Channel": 6987,
      "operate": 6988,
      "Ok": 6989,
      "emed": 6990,
      "cou": 6991,
      "ocked": 6992,
      "assistance": 6993,
      "Now": 6994,
      "ologist": 6995,
      "generated": 6996,
      "destruction": 6997,
      "magn": 6998,
      "Korea": 6999,
      "exception": 7000,
      "norm": 7001,
      "task": 7002,
      "71": 7003,
      "prot": 7004,
      "CR": 7005,
      "feeling": 7006,
      "telling": 7007,
      "costs": 7008,
      "moves": 7009,
      "volunte": 7010,
      "Within": 7011,
      "attributed": 7012,
      "apart": 7013,
      "strateg": 7014,
      "atinum": 7015,
      "Forest": 7016,
      "gers": 7017,
      "speaking": 7018,
      "vary": 7019,
      "orient": 7020,
      "finishing": 7021,
      "driven": 7022,
      "anned": 7023,
      "demol": 7024,
      "13th": 7025,
      "alleged": 7026,
      "Low": 7027,
      "recovered": 7028,
      "orb": 7029,
      "Additionally": 7030,
      "Tenn": 7031,
      "stayed": 7032,
      "appearing": 7033,
      "unusual": 7034,
      "sud": 7035,
      "Color": 7036,
      "opposite": 7037,
      "Kin": 7038,
      "Ut": 7039,
      "Fame": 7040,
      "garr": 7041,
      "kid": 7042,
      "sight": 7043,
      "joining": 7044,
      "properties": 7045,
      "dict": 7046,
      "grass": 7047,
      "Argent": 7048,
      "dipl": 7049,
      "Lisa": 7050,
      "1952": 7051,
      "73": 7052,
      "ja": 7053,
      "shif": 7054,
      "Dig": 7055,
      "Cre": 7056,
      "Confeder": 7057,
      "responsibility": 7058,
      "Row": 7059,
      "atmosphere": 7060,
      "Television": 7061,
      "cow": 7062,
      "institut": 7063,
      "Morris": 7064,
      "premiere": 7065,
      "Profess": 7066,
      "fled": 7067,
      "chorus": 7068,
      "abol": 7069,
      "occasionally": 7070,
      "fighter": 7071,
      "fitted": 7072,
      "abled": 7073,
      "Robinson": 7074,
      "cavalry": 7075,
      "atus": 7076,
      "Prior": 7077,
      "completion": 7078,
      "Murray": 7079,
      "Web": 7080,
      "Lev": 7081,
      "effectively": 7082,
      "surviving": 7083,
      "Lenn": 7084,
      "Nich": 7085,
      "sounds": 7086,
      "1933": 7087,
      "methods": 7088,
      "dang": 7089,
      "Anne": 7090,
      "Similar": 7091,
      "astron": 7092,
      "swim": 7093,
      "Somer": 7094,
      "scrap": 7095,
      "Around": 7096,
      "province": 7097,
      "Ever": 7098,
      "Unlike": 7099,
      "column": 7100,
      "alco": 7101,
      "materials": 7102,
      "Hawai": 7103,
      "Ra": 7104,
      "84": 7105,
      "Construction": 7106,
      "demo": 7107,
      "warning": 7108,
      "rus": 7109,
      "Temple": 7110,
      "ingly": 7111,
      "classical": 7112,
      "tie": 7113,
      "attracted": 7114,
      "accom": 7115,
      "persu": 7116,
      "doub": 7117,
      "ua": 7118,
      "technical": 7119,
      "ords": 7120,
      "girls": 7121,
      "aza": 7122,
      "pure": 7123,
      "Lyn": 7124,
      "opt": 7125,
      "iller": 7126,
      "quant": 7127,
      "global": 7128,
      "fear": 7129,
      "classification": 7130,
      "Nelson": 7131,
      "erup": 7132,
      "ios": 7133,
      "climate": 7134,
      "Patrick": 7135,
      "differences": 7136,
      "keeping": 7137,
      "sequently": 7138,
      "inde": 7139,
      "select": 7140,
      "sid": 7141,
      "Fish": 7142,
      "mobile": 7143,
      "Premier": 7144,
      "neither": 7145,
      "enses": 7146,
      "1935": 7147,
      "Sweden": 7148,
      "reform": 7149,
      "association": 7150,
      "weigh": 7151,
      "Finn": 7152,
      "Winter": 7153,
      "basketball": 7154,
      "Fron": 7155,
      "Anim": 7156,
      "count": 7157,
      "boys": 7158,
      "reinforce": 7159,
      "battleships": 7160,
      "bels": 7161,
      "alph": 7162,
      "ili": 7163,
      "poses": 7164,
      "massive": 7165,
      "ensure": 7166,
      "concer": 7167,
      "Welsh": 7168,
      "Tar": 7169,
      "uit": 7170,
      "1949": 7171,
      "credit": 7172,
      "reality": 7173,
      "painted": 7174,
      "ratings": 7175,
      "1951": 7176,
      "Nations": 7177,
      "FI": 7178,
      "desire": 7179,
      "code": 7180,
      "Toronto": 7181,
      "separated": 7182,
      "Ak": 7183,
      "votes": 7184,
      "outbreak": 7185,
      "Journal": 7186,
      "tip": 7187,
      "poly": 7188,
      "requested": 7189,
      "seemed": 7190,
      "vehicle": 7191,
      "predecess": 7192,
      "ala": 7193,
      "shar": 7194,
      "historians": 7195,
      "praise": 7196,
      "Matthew": 7197,
      "picture": 7198,
      "restored": 7199,
      "Jam": 7200,
      "Ol": 7201,
      "memory": 7202,
      "movements": 7203,
      "Az": 7204,
      "oslav": 7205,
      "infe": 7206,
      "Byzantine": 7207,
      "hoped": 7208,
      "PS": 7209,
      "loyd": 7210,
      "Ban": 7211,
      "Netherlands": 7212,
      "soul": 7213,
      "carbon": 7214,
      "difficulty": 7215,
      "funding": 7216,
      "scape": 7217,
      "Marine": 7218,
      "convinced": 7219,
      "Gill": 7220,
      "Every": 7221,
      "programme": 7222,
      "uty": 7223,
      "Chron": 7224,
      "cript": 7225,
      "communities": 7226,
      "remember": 7227,
      "agle": 7228,
      "fee": 7229,
      "Ford": 7230,
      "cloud": 7231,
      "Dri": 7232,
      "Dean": 7233,
      "map": 7234,
      "Jews": 7235,
      "thedral": 7236,
      "Iraq": 7237,
      "sees": 7238,
      "dating": 7239,
      "delayed": 7240,
      "EC": 7241,
      "MI": 7242,
      "discovery": 7243,
      "ucks": 7244,
      "assem": 7245,
      "Again": 7246,
      "oked": 7247,
      "anniversary": 7248,
      "weapon": 7249,
      "98": 7250,
      "honour": 7251,
      "pattern": 7252,
      "Story": 7253,
      "greatly": 7254,
      "consult": 7255,
      "Hero": 7256,
      "Design": 7257,
      "injuries": 7258,
      "inspiration": 7259,
      "Dog": 7260,
      "leads": 7261,
      "Bou": 7262,
      "otherwise": 7263,
      "solution": 7264,
      "1900": 7265,
      "boil": 7266,
      "batting": 7267,
      "accounts": 7268,
      "moral": 7269,
      "rip": 7270,
      "anny": 7271,
      "94": 7272,
      "surrounded": 7273,
      "Bishop": 7274,
      "spoke": 7275,
      "needs": 7276,
      "penalty": 7277,
      "partner": 7278,
      "bear": 7279,
      "Sports": 7280,
      "Techn": 7281,
      "cos": 7282,
      "Russell": 7283,
      "Ey": 7284,
      "throne": 7285,
      "ureau": 7286,
      "crosses": 7287,
      "strategy": 7288,
      "agree": 7289,
      "Heart": 7290,
      "Thomp": 7291,
      "cock": 7292,
      "Tal": 7293,
      "elev": 7294,
      "ige": 7295,
      "architecture": 7296,
      "involvement": 7297,
      "Puer": 7298,
      "DNA": 7299,
      "Domin": 7300,
      "wrong": 7301,
      "Oak": 7302,
      "Sax": 7303,
      "documentary": 7304,
      "accompl": 7305,
      "Lau": 7306,
      "worst": 7307,
      "12th": 7308,
      "musicians": 7309,
      "Croatian": 7310,
      "Brun": 7311,
      "Hop": 7312,
      "learn": 7313,
      "remn": 7314,
      "ography": 7315,
      "vince": 7316,
      "termine": 7317,
      "rates": 7318,
      "umin": 7319,
      "Bah": 7320,
      "Pow": 7321,
      "elling": 7322,
      "premiered": 7323,
      "chairman": 7324,
      "determine": 7325,
      "formally": 7326,
      "dismissed": 7327,
      "colonial": 7328,
      "NFL": 7329,
      "Thompson": 7330,
      "9th": 7331,
      "Armen": 7332,
      "category": 7333,
      "forcing": 7334,
      "bron": 7335,
      "Dick": 7336,
      "cement": 7337,
      "falling": 7338,
      "gross": 7339,
      "MC": 7340,
      "sale": 7341,
      "trained": 7342,
      "Centre": 7343,
      "intense": 7344,
      "infl": 7345,
      "Shar": 7346,
      "surviv": 7347,
      "micro": 7348,
      "adaptation": 7349,
      "Last": 7350,
      "quir": 7351,
      "Carter": 7352,
      "resources": 7353,
      "library": 7354,
      "somewhat": 7355,
      "Islam": 7356,
      "Bed": 7357,
      "interests": 7358,
      "Kelly": 7359,
      "scheme": 7360,
      "immediate": 7361,
      "cel": 7362,
      "Holy": 7363,
      "Puerto": 7364,
      "starred": 7365,
      "medieval": 7366,
      "adults": 7367,
      "rhyth": 7368,
      "NBC": 7369,
      "tack": 7370,
      "commem": 7371,
      "presidential": 7372,
      "bond": 7373,
      "academic": 7374,
      "lins": 7375,
      "pound": 7376,
      "mont": 7377,
      "pregn": 7378,
      "legs": 7379,
      "Hend": 7380,
      "invent": 7381,
      "ardian": 7382,
      "theat": 7383,
      "hys": 7384,
      "oty": 7385,
      "Along": 7386,
      "techniques": 7387,
      "fighters": 7388,
      "stro": 7389,
      "meets": 7390,
      "attacking": 7391,
      "alien": 7392,
      "modified": 7393,
      "elections": 7394,
      "profit": 7395,
      "ninth": 7396,
      "audio": 7397,
      "faces": 7398,
      "Hungarian": 7399,
      "streets": 7400,
      "Eric": 7401,
      "frequent": 7402,
      "themat": 7403,
      "difference": 7404,
      "BI": 7405,
      "fold": 7406,
      "Niel": 7407,
      "oles": 7408,
      "measures": 7409,
      "ovic": 7410,
      "falls": 7411,
      "Labor": 7412,
      "submarine": 7413,
      "superior": 7414,
      "reviewer": 7415,
      "passenger": 7416,
      "Open": 7417,
      "ugu": 7418,
      "vul": 7419,
      "83": 7420,
      "electron": 7421,
      "1913": 7422,
      "interior": 7423,
      "Constitution": 7424,
      "MP": 7425,
      "absence": 7426,
      "Wright": 7427,
      "crete": 7428,
      "Beck": 7429,
      "Harris": 7430,
      "arrangement": 7431,
      "controversial": 7432,
      "favorite": 7433,
      "landed": 7434,
      "Modern": 7435,
      "airport": 7436,
      "firing": 7437,
      "Thus": 7438,
      "phr": 7439,
      "observ": 7440,
      "Parker": 7441,
      "engineer": 7442,
      "impressed": 7443,
      "bean": 7444,
      "convection": 7445,
      "margin": 7446,
      "Build": 7447,
      "wins": 7448,
      "Cra": 7449,
      "deemed": 7450,
      "porter": 7451,
      "Hell": 7452,
      "Ath": 7453,
      "Batman": 7454,
      "ji": 7455,
      "Bang": 7456,
      "ava": 7457,
      "conclusion": 7458,
      "1927": 7459,
      "romantic": 7460,
      "shut": 7461,
      "enters": 7462,
      "1926": 7463,
      "continuing": 7464,
      "stan": 7465,
      "Steven": 7466,
      "Pak": 7467,
      "renew": 7468,
      "characteristics": 7469,
      "belt": 7470,
      "Front": 7471,
      "Berlin": 7472,
      "afterwards": 7473,
      "Late": 7474,
      "infr": 7475,
      "myster": 7476,
      "talk": 7477,
      "facility": 7478,
      "Seven": 7479,
      "Library": 7480,
      "unch": 7481,
      "suffering": 7482,
      "munic": 7483,
      "encouraged": 7484,
      "colony": 7485,
      "temperatures": 7486,
      "giant": 7487,
      "Benn": 7488,
      "Minn": 7489,
      "Tok": 7490,
      "secured": 7491,
      "retirement": 7492,
      "agas": 7493,
      "tenance": 7494,
      "eggs": 7495,
      "Dur": 7496,
      "owed": 7497,
      "1921": 7498,
      "ameter": 7499,
      "buy": 7500,
      "1934": 7501,
      "everyone": 7502,
      "Wis": 7503,
      "biography": 7504,
      "rome": 7505,
      "ipl": 7506,
      "informed": 7507,
      "cloth": 7508,
      "legislation": 7509,
      "Education": 7510,
      "wings": 7511,
      "ceased": 7512,
      "cris": 7513,
      "oman": 7514,
      "archae": 7515,
      "attempting": 7516,
      "believes": 7517,
      "itzer": 7518,
      "Commonwealth": 7519,
      "aux": 7520,
      "defended": 7521,
      "ware": 7522,
      "horn": 7523,
      "toms": 7524,
      "styles": 7525,
      "Sab": 7526,
      "Cop": 7527,
      "cha": 7528,
      "authors": 7529,
      "facing": 7530,
      "judge": 7531,
      "distributed": 7532,
      "Police": 7533,
      "dominated": 7534,
      "rescue": 7535,
      "RAAF": 7536,
      "curren": 7537,
      "asure": 7538,
      "pointed": 7539,
      "depicted": 7540,
      "Houston": 7541,
      "apse": 7542,
      "Commander": 7543,
      "900": 7544,
      "Mot": 7545,
      "Santa": 7546,
      "roit": 7547,
      "ool": 7548,
      "Palace": 7549,
      "anyone": 7550,
      "93": 7551,
      "Dist": 7552,
      "Hospital": 7553,
      "huge": 7554,
      "ixon": 7555,
      "standards": 7556,
      "Raj": 7557,
      "habitat": 7558,
      "pin": 7559,
      "1912": 7560,
      "cancer": 7561,
      "longest": 7562,
      "unsuccessful": 7563,
      "carrier": 7564,
      "acknowled": 7565,
      "finals": 7566,
      "monarch": 7567,
      "ante": 7568,
      "Silver": 7569,
      "teor": 7570,
      "empt": 7571,
      "representing": 7572,
      "biggest": 7573,
      "stal": 7574,
      "Jacob": 7575,
      "eved": 7576,
      "merged": 7577,
      "Swedish": 7578,
      "stances": 7579,
      "AI": 7580,
      "Wy": 7581,
      "sudden": 7582,
      "dress": 7583,
      "Reser": 7584,
      "oke": 7585,
      "Indians": 7586,
      "graphical": 7587,
      "remix": 7588,
      "layer": 7589,
      "Cry": 7590,
      "iat": 7591,
      "ultane": 7592,
      "Bri": 7593,
      "vac": 7594,
      "Offic": 7595,
      "Track": 7596,
      "1932": 7597,
      "Simpson": 7598,
      "deployed": 7599,
      "igration": 7600,
      "Cru": 7601,
      "Yug": 7602,
      "abinet": 7603,
      "aire": 7604,
      "toll": 7605,
      "Jesus": 7606,
      "comfort": 7607,
      "140": 7608,
      "changing": 7609,
      "bridges": 7610,
      "dimen": 7611,
      "Corporation": 7612,
      "Yan": 7613,
      "veter": 7614,
      "ners": 7615,
      "uding": 7616,
      "releases": 7617,
      "harmon": 7618,
      "Warner": 7619,
      "closer": 7620,
      "jac": 7621,
      "garrison": 7622,
      "formerly": 7623,
      "gene": 7624,
      "retreat": 7625,
      "beautiful": 7626,
      "thy": 7627,
      "convention": 7628,
      "91": 7629,
      "Jason": 7630,
      "comed": 7631,
      "intent": 7632,
      "97": 7633,
      "Gard": 7634,
      "Anthony": 7635,
      "moderate": 7636,
      "TA": 7637,
      "trials": 7638,
      "aska": 7639,
      "RAF": 7640,
      "Yugoslav": 7641,
      "emergency": 7642,
      "Work": 7643,
      "Wing": 7644,
      "bone": 7645,
      "siege": 7646,
      "emotional": 7647,
      "assass": 7648,
      "banks": 7649,
      "gay": 7650,
      "Social": 7651,
      "Lam": 7652,
      "ugg": 7653,
      "Dom": 7654,
      "util": 7655,
      "journalist": 7656,
      "encies": 7657,
      "hypo": 7658,
      "influential": 7659,
      "Author": 7660,
      "successor": 7661,
      "satisf": 7662,
      "festival": 7663,
      "oxy": 7664,
      "narrative": 7665,
      "Rap": 7666,
      "mart": 7667,
      "eless": 7668,
      "questions": 7669,
      "courts": 7670,
      "Detroit": 7671,
      "Vis": 7672,
      "Croatia": 7673,
      "hunting": 7674,
      "suitable": 7675,
      "squad": 7676,
      "factory": 7677,
      "treated": 7678,
      "wheel": 7679,
      "bright": 7680,
      "ouri": 7681,
      "1929": 7682,
      "influences": 7683,
      "novels": 7684,
      "thel": 7685,
      "wooden": 7686,
      "printed": 7687,
      "1911": 7688,
      "Athen": 7689,
      "apparently": 7690,
      "excess": 7691,
      "Gaga": 7692,
      "Anna": 7693,
      "victims": 7694,
      "executed": 7695,
      "VI": 7696,
      "eing": 7697,
      "experiences": 7698,
      "discussed": 7699,
      "Get": 7700,
      "childhood": 7701,
      "handed": 7702,
      "Belg": 7703,
      "detail": 7704,
      "diplom": 7705,
      "Mort": 7706,
      "veget": 7707,
      "Network": 7708,
      "alcohol": 7709,
      "stab": 7710,
      "Staff": 7711,
      "hanna": 7712,
      "Chamber": 7713,
      "instruments": 7714,
      "watching": 7715,
      "Wat": 7716,
      "170": 7717,
      "inhabit": 7718,
      "ocean": 7719,
      "offices": 7720,
      "environmental": 7721,
      "aser": 7722,
      "coins": 7723,
      "Asian": 7724,
      "approval": 7725,
      "Son": 7726,
      "tone": 7727,
      "irt": 7728,
      "loan": 7729,
      "graduate": 7730,
      "tes": 7731,
      "ture": 7732,
      "Spears": 7733,
      "Wol": 7734,
      "Arn": 7735,
      "Clinton": 7736,
      "depos": 7737,
      "1931": 7738,
      "Princess": 7739,
      "hearing": 7740,
      "flash": 7741,
      "Mars": 7742,
      "15th": 7743,
      "channel": 7744,
      "1922": 7745,
      "Melbourne": 7746,
      "factors": 7747,
      "Kon": 7748,
      "exposed": 7749,
      "Heavy": 7750,
      "arked": 7751,
      "vy": 7752,
      "achment": 7753,
      "sor": 7754,
      "coin": 7755,
      "Vice": 7756,
      "Cooper": 7757,
      "normally": 7758,
      "tern": 7759,
      "Xbox": 7760,
      "existed": 7761,
      "Nic": 7762,
      "igins": 7763,
      "reck": 7764,
      "memor": 7765,
      "hundreds": 7766,
      "CO": 7767,
      "eller": 7768,
      "skills": 7769,
      "Pope": 7770,
      "Nielsen": 7771,
      "Ag": 7772,
      "navig": 7773,
      "resigned": 7774,
      "Evans": 7775,
      "Horse": 7776,
      "Khan": 7777,
      "Ian": 7778,
      "disput": 7779,
      "memorial": 7780,
      "reveals": 7781,
      "DC": 7782,
      "Hud": 7783,
      "plus": 7784,
      "flew": 7785,
      "Tower": 7786,
      "jum": 7787,
      "format": 7788,
      "jur": 7789,
      "spin": 7790,
      "drums": 7791,
      "Nevertheless": 7792,
      "prevented": 7793,
      "chain": 7794,
      "owa": 7795,
      "enthus": 7796,
      "pushed": 7797,
      "understand": 7798,
      "Category": 7799,
      "chapter": 7800,
      "substantial": 7801,
      "listing": 7802,
      "testing": 7803,
      "linked": 7804,
      "Guy": 7805,
      "wet": 7806,
      "relationships": 7807,
      "92": 7808,
      "happened": 7809,
      "opponents": 7810,
      "preferred": 7811,
      "pete": 7812,
      "locom": 7813,
      "alo": 7814,
      "genetic": 7815,
      "skill": 7816,
      "Stewart": 7817,
      "footage": 7818,
      "animation": 7819,
      "tests": 7820,
      "reportedly": 7821,
      "eat": 7822,
      "hatt": 7823,
      "iest": 7824,
      "stance": 7825,
      "poetry": 7826,
      "Thor": 7827,
      "languages": 7828,
      "thereafter": 7829,
      "chell": 7830,
      "chemical": 7831,
      "correct": 7832,
      "politan": 7833,
      "thousand": 7834,
      "Bulgar": 7835,
      "Turkish": 7836,
      "seek": 7837,
      "imens": 7838,
      "resign": 7839,
      "Samuel": 7840,
      "Austria": 7841,
      "commemor": 7842,
      "notably": 7843,
      "deter": 7844,
      "agents": 7845,
      "liqu": 7846,
      "Lane": 7847,
      "device": 7848,
      "visitors": 7849,
      "Queens": 7850,
      "grav": 7851,
      "driver": 7852,
      "Sarah": 7853,
      "Lennon": 7854,
      "TO": 7855,
      "arring": 7856,
      "employees": 7857,
      "Stock": 7858,
      "Colorado": 7859,
      "guide": 7860,
      "Real": 7861,
      "Greece": 7862,
      "Gib": 7863,
      "accompany": 7864,
      "oli": 7865,
      "Alb": 7866,
      "departed": 7867,
      "icians": 7868,
      "Express": 7869,
      "favorable": 7870,
      "interpre": 7871,
      "teeth": 7872,
      "Albums": 7873,
      "grown": 7874,
      "participate": 7875,
      "calcul": 7876,
      "Baltim": 7877,
      "factor": 7878,
      "Sulli": 7879,
      "lists": 7880,
      "gang": 7881,
      "extin": 7882,
      "Baltimore": 7883,
      "Malays": 7884,
      "osaurus": 7885,
      "Gam": 7886,
      "usal": 7887,
      "Budd": 7888,
      "helm": 7889,
      "dialogue": 7890,
      "Raw": 7891,
      "afternoon": 7892,
      "Carib": 7893,
      "residential": 7894,
      "mam": 7895,
      "ais": 7896,
      "icon": 7897,
      "extent": 7898,
      "detailed": 7899,
      "Writing": 7900,
      "mention": 7901,
      "learning": 7902,
      "instance": 7903,
      "Organ": 7904,
      "draf": 7905,
      "familiar": 7906,
      "picked": 7907,
      "covering": 7908,
      "Sullivan": 7909,
      "Bi": 7910,
      "Hand": 7911,
      "evil": 7912,
      "periods": 7913,
      "oster": 7914,
      "Conne": 7915,
      "universe": 7916,
      "Initially": 7917,
      "Rick": 7918,
      "ee": 7919,
      "powered": 7920,
      "Dave": 7921,
      "easy": 7922,
      "endment": 7923,
      "apprec": 7924,
      "iner": 7925,
      "brick": 7926,
      "Foundation": 7927,
      "Marshall": 7928,
      "Wrestling": 7929,
      "dens": 7930,
      "Lim": 7931,
      "Player": 7932,
      "iva": 7933,
      "talent": 7934,
      "AL": 7935,
      "Mario": 7936,
      "10th": 7937,
      "Frederick": 7938,
      "Bird": 7939,
      "taught": 7940,
      "imprison": 7941,
      "territories": 7942,
      "Cel": 7943,
      "Univers": 7944,
      "reviewers": 7945,
      "ende": 7946,
      "criminal": 7947,
      "videos": 7948,
      "3D": 7949,
      "balance": 7950,
      "Baby": 7951,
      "14th": 7952,
      "insur": 7953,
      "isolated": 7954,
      "Clar": 7955,
      "iling": 7956,
      "diameter": 7957,
      "Somerset": 7958,
      "technique": 7959,
      "1928": 7960,
      "Ark": 7961,
      "Andre": 7962,
      "negotiations": 7963,
      "Having": 7964,
      "covers": 7965,
      "Gilbert": 7966,
      "prep": 7967,
      "obl": 7968,
      "upgraded": 7969,
      "encountered": 7970,
      "withdrew": 7971,
      "EP": 7972,
      "ethnic": 7973,
      "creative": 7974,
      "bases": 7975,
      "Ay": 7976,
      "icop": 7977,
      "Marg": 7978,
      "lined": 7979,
      "Fel": 7980,
      "goods": 7981,
      "Release": 7982,
      "nations": 7983,
      "mac": 7984,
      "tub": 7985,
      "behavi": 7986,
      "divers": 7987,
      "1925": 7988,
      "scholars": 7989,
      "sleep": 7990,
      "dangerous": 7991,
      "olas": 7992,
      "portions": 7993,
      "satell": 7994,
      "embr": 7995,
      "founder": 7996,
      "simultane": 7997,
      "occupation": 7998,
      "cad": 7999,
      "aria": 8000,
      "organizations": 8001,
      "Nev": 8002,
      "athers": 8003,
      "junior": 8004,
      "cong": 8005,
      "Guard": 8006,
      "engineering": 8007,
      "Anglo": 8008,
      "Mississ": 8009,
      "Horn": 8010,
      "specimens": 8011,
      "excell": 8012,
      "lla": 8013,
      "partly": 8014,
      "medium": 8015,
      "Miami": 8016,
      "Giants": 8017,
      "Know": 8018,
      "lowest": 8019,
      "irs": 8020,
      "loop": 8021,
      "logy": 8022,
      "Edge": 8023,
      "Napole": 8024,
      "Soon": 8025,
      "crisis": 8026,
      "ongo": 8027,
      "toon": 8028,
      "pounds": 8029,
      "jacent": 8030,
      "partially": 8031,
      "fined": 8032,
      "indicate": 8033,
      "soft": 8034,
      "spending": 8035,
      "Seattle": 8036,
      "bellion": 8037,
      "si": 8038,
      "1924": 8039,
      "prohib": 8040,
      "expression": 8041,
      "turrets": 8042,
      "traveled": 8043,
      "whereas": 8044,
      "window": 8045,
      "refers": 8046,
      "weekend": 8047,
      "Championships": 8048,
      "rarely": 8049,
      "1920s": 8050,
      "etime": 8051,
      "oking": 8052,
      "collect": 8053,
      "monument": 8054,
      "designer": 8055,
      "orous": 8056,
      "Treaty": 8057,
      "proced": 8058,
      "doctor": 8059,
      "maintenance": 8060,
      "Alab": 8061,
      "raising": 8062,
      "pole": 8063,
      "doesn": 8064,
      "permission": 8065,
      "pitched": 8066,
      "Iowa": 8067,
      "pine": 8068,
      "spher": 8069,
      "platinum": 8070,
      "compete": 8071,
      "advice": 8072,
      "criticised": 8073,
      "Human": 8074,
      "Alabama": 8075,
      "icine": 8076,
      "intercept": 8077,
      "Forces": 8078,
      "Australians": 8079,
      "employment": 8080,
      "deser": 8081,
      "ranking": 8082,
      "friendly": 8083,
      "difficulties": 8084,
      "truth": 8085,
      "shear": 8086,
      "finale": 8087,
      "representative": 8088,
      "teacher": 8089,
      "absor": 8090,
      "Trek": 8091,
      "earning": 8092,
      "USS": 8093,
      "pse": 8094,
      "uncertain": 8095,
      "mainstream": 8096,
      "policies": 8097,
      "ordinary": 8098,
      "jan": 8099,
      "cott": 8100,
      "personality": 8101,
      "refuge": 8102,
      "stick": 8103,
      "closing": 8104,
      "WC": 8105,
      "comments": 8106,
      "km2": 8107,
      "concerts": 8108,
      "aggress": 8109,
      "recordings": 8110,
      "remove": 8111,
      "Charlie": 8112,
      "Caribbean": 8113,
      "Lan": 8114,
      "uscript": 8115,
      "understanding": 8116,
      "Canal": 8117,
      "cia": 8118,
      "attered": 8119,
      "Country": 8120,
      "marry": 8121,
      "windows": 8122,
      "recur": 8123,
      "Lawrence": 8124,
      "uster": 8125,
      "Minnes": 8126,
      "orbit": 8127,
      "jack": 8128,
      "ila": 8129,
      "1923": 8130,
      "scr": 8131,
      "drawing": 8132,
      "ilst": 8133,
      "oftw": 8134,
      "seats": 8135,
      "oren": 8136,
      "ventures": 8137,
      "prompted": 8138,
      "locomot": 8139,
      "icy": 8140,
      "Then": 8141,
      "sop": 8142,
      "fishing": 8143,
      "8th": 8144,
      "Banks": 8145,
      "destroyers": 8146,
      "housing": 8147,
      "perspect": 8148,
      "Hindu": 8149,
      "Roc": 8150,
      "divor": 8151,
      "tenth": 8152,
      "Race": 8153,
      "patch": 8154,
      "gery": 8155,
      "bay": 8156,
      "dynasty": 8157,
      "Senator": 8158,
      "examples": 8159,
      "describe": 8160,
      "emon": 8161,
      "Buff": 8162,
      "Crown": 8163,
      "dynam": 8164,
      "tag": 8165,
      "alu": 8166,
      "minimum": 8167,
      "bombers": 8168,
      "Bros": 8169,
      "Hans": 8170,
      "hat": 8171,
      "Ministry": 8172,
      "Nazi": 8173,
      "Hamp": 8174,
      "communication": 8175,
      "travelled": 8176,
      "garden": 8177,
      "Win": 8178,
      "hockey": 8179,
      "churches": 8180,
      "false": 8181,
      "Garden": 8182,
      "Ass": 8183,
      "nationally": 8184,
      "Grammy": 8185,
      "string": 8186,
      "Hungary": 8187,
      "patron": 8188,
      "neighborhood": 8189,
      "earn": 8190,
      "violent": 8191,
      "Dance": 8192,
      "Health": 8193,
      "11th": 8194,
      "alions": 8195,
      "anton": 8196,
      "USD": 8197,
      "Cho": 8198,
      "explo": 8199,
      "corpor": 8200,
      "tran": 8201,
      "Stud": 8202,
      "lon": 8203,
      "anne": 8204,
      "mines": 8205,
      "celer": 8206,
      "Dal": 8207,
      "dale": 8208,
      "expensive": 8209,
      "inno": 8210,
      "olis": 8211,
      "credits": 8212,
      "displayed": 8213,
      "naissance": 8214,
      "Flight": 8215,
      "adjacent": 8216,
      "tribute": 8217,
      "Belgium": 8218,
      "cular": 8219,
      "soil": 8220,
      "Benj": 8221,
      "Township": 8222,
      "Return": 8223,
      "Cred": 8224,
      "inaug": 8225,
      "collapse": 8226,
      "ache": 8227,
      "amph": 8228,
      "Event": 8229,
      "Polit": 8230,
      "predict": 8231,
      "forests": 8232,
      "restrict": 8233,
      "appropriate": 8234,
      "grees": 8235,
      "shall": 8236,
      "oftware": 8237,
      "creator": 8238,
      "Shakes": 8239,
      "designation": 8240,
      "benefit": 8241,
      "Diego": 8242,
      "values": 8243,
      "partnership": 8244,
      "tap": 8245,
      "lift": 8246,
      "option": 8247,
      "vals": 8248,
      "protagonist": 8249,
      "hid": 8250,
      "LC": 8251,
      "catal": 8252,
      "asp": 8253,
      "moments": 8254,
      "orph": 8255,
      "possession": 8256,
      "Shakespe": 8257,
      "aya": 8258,
      "Represent": 8259,
      "Medal": 8260,
      "scientists": 8261,
      "interesting": 8262,
      "rell": 8263,
      "itim": 8264,
      "Hotel": 8265,
      "nur": 8266,
      "Christopher": 8267,
      "Call": 8268,
      "solute": 8269,
      "Children": 8270,
      "rounds": 8271,
      "radar": 8272,
      "Guardian": 8273,
      "victories": 8274,
      "villages": 8275,
      "fung": 8276,
      "Tan": 8277,
      "incent": 8278,
      "cope": 8279,
      "dollars": 8280,
      "paintings": 8281,
      "treaty": 8282,
      "restricted": 8283,
      "1908": 8284,
      "elsewhere": 8285,
      "forth": 8286,
      "imeter": 8287,
      "instrumental": 8288,
      "Benjamin": 8289,
      "1905": 8290,
      "survive": 8291,
      "eliminated": 8292,
      "categ": 8293,
      "velt": 8294,
      "armament": 8295,
      "numbered": 8296,
      "Legacy": 8297,
      "minimal": 8298,
      "surprise": 8299,
      "autom": 8300,
      "justice": 8301,
      "21st": 8302,
      "tox": 8303,
      "encing": 8304,
      "1909": 8305,
      "seeking": 8306,
      "Minnesota": 8307,
      "Cold": 8308,
      "waves": 8309,
      "priest": 8310,
      "precip": 8311,
      "emperor": 8312,
      "Roose": 8313,
      "Apple": 8314,
      "Mississipp": 8315,
      "arriving": 8316,
      "purposes": 8317,
      "newspapers": 8318,
      "suicide": 8319,
      "jection": 8320,
      "helping": 8321,
      "namese": 8322,
      "Vietnamese": 8323,
      "Alfred": 8324,
      "bin": 8325,
      "wine": 8326,
      "Has": 8327,
      "Hills": 8328,
      "Hockey": 8329,
      "anium": 8330,
      "Por": 8331,
      "occasions": 8332,
      "smooth": 8333,
      "Interstate": 8334,
      "allies": 8335,
      "Dead": 8336,
      "unlike": 8337,
      "munition": 8338,
      "dispute": 8339,
      "cot": 8340,
      "gard": 8341,
      "aws": 8342,
      "rupted": 8343,
      "Walker": 8344,
      "degrees": 8345,
      "mayor": 8346,
      "Kurt": 8347,
      "eme": 8348,
      "Manhatt": 8349,
      "legend": 8350,
      "cous": 8351,
      "concrete": 8352,
      "Administr": 8353,
      "Manhattan": 8354,
      "orious": 8355,
      "coordin": 8356,
      "oms": 8357,
      "intensified": 8358,
      "AS": 8359,
      "parent": 8360,
      "recre": 8361,
      "preserved": 8362,
      "manuscript": 8363,
      "schedule": 8364,
      "struggle": 8365,
      "Mach": 8366,
      "competed": 8367,
      "Peninsula": 8368,
      "assisted": 8369,
      "meter": 8370,
      "cryst": 8371,
      "professor": 8372,
      "Franklin": 8373,
      "boards": 8374,
      "RO": 8375,
      "tight": 8376,
      "Trust": 8377,
      "bath": 8378,
      "lah": 8379,
      "resumed": 8380,
      "angel": 8381,
      "Roosevelt": 8382,
      "mental": 8383,
      "traits": 8384,
      "Kansas": 8385,
      "survivors": 8386,
      "publicly": 8387,
      "amounts": 8388,
      "alignment": 8389,
      "lov": 8390,
      "1907": 8391,
      "atherine": 8392,
      "Cher": 8393,
      "uto": 8394,
      "helicop": 8395,
      "Hong": 8396,
      "electronic": 8397,
      "candidates": 8398,
      "neighbour": 8399,
      "god": 8400,
      "functions": 8401,
      "iento": 8402,
      "organised": 8403,
      "prove": 8404,
      "pilots": 8405,
      "Montreal": 8406,
      "Industry": 8407,
      "impossible": 8408,
      "oxygen": 8409,
      "wrest": 8410,
      "Portland": 8411,
      "tested": 8412,
      "wedding": 8413,
      "clar": 8414,
      "neutral": 8415,
      "citing": 8416,
      "vit": 8417,
      "qualified": 8418,
      "hur": 8419,
      "stones": 8420,
      "tomb": 8421,
      "Philippines": 8422,
      "Satur": 8423,
      "ishment": 8424,
      "Much": 8425,
      "ayer": 8426,
      "poison": 8427,
      "Cole": 8428,
      "defeating": 8429,
      "argument": 8430,
      "ensu": 8431,
      "asking": 8432,
      "prosecut": 8433,
      "tunnel": 8434,
      "fu": 8435,
      "sher": 8436,
      "teaching": 8437,
      "remark": 8438,
      "advoc": 8439,
      "Building": 8440,
      "businesses": 8441,
      "sung": 8442,
      "backing": 8443,
      "oen": 8444,
      "rede": 8445,
      "backs": 8446,
      "acle": 8447,
      "shi": 8448,
      "Native": 8449,
      "het": 8450,
      "assists": 8451,
      "legitim": 8452,
      "Campbell": 8453,
      "Nash": 8454,
      "sevent": 8455,
      "elabor": 8456,
      "opponent": 8457,
      "constitutional": 8458,
      "Shel": 8459,
      "Mississippi": 8460,
      "submitted": 8461,
      "agricultural": 8462,
      "ounced": 8463,
      "foundation": 8464,
      "owing": 8465,
      "dense": 8466,
      "sunk": 8467,
      "signing": 8468,
      "Area": 8469,
      "VII": 8470,
      "gap": 8471,
      "hull": 8472,
      "lights": 8473,
      "switch": 8474,
      "consistent": 8475,
      "diet": 8476,
      "Digital": 8477,
      "Born": 8478,
      "fifteen": 8479,
      "Gate": 8480,
      "cod": 8481,
      "household": 8482,
      "discipl": 8483,
      "beaten": 8484,
      "Fried": 8485,
      "Lith": 8486,
      "behalf": 8487,
      "Set": 8488,
      "esis": 8489,
      "signs": 8490,
      "rh": 8491,
      "utter": 8492,
      "rows": 8493,
      "rug": 8494,
      "voiced": 8495,
      "Dol": 8496,
      "Blues": 8497,
      "percentage": 8498,
      "pron": 8499,
      "ammunition": 8500,
      "railroad": 8501,
      "symptoms": 8502,
      "Tennes": 8503,
      "Whe": 8504,
      "Descri": 8505,
      "racing": 8506,
      "subjects": 8507,
      "Shakespeare": 8508,
      "sank": 8509,
      "organisation": 8510,
      "pm": 8511,
      "registered": 8512,
      "spiritual": 8513,
      "incial": 8514,
      "situated": 8515,
      "Buck": 8516,
      "parish": 8517,
      "Athlet": 8518,
      "forty": 8519,
      "elder": 8520,
      "imperial": 8521,
      "recognised": 8522,
      "shells": 8523,
      "gor": 8524,
      "Halo": 8525,
      "repairs": 8526,
      "illness": 8527,
      "Rober": 8528,
      "conventional": 8529,
      "Contro": 8530,
      "Ward": 8531,
      "chron": 8532,
      "Alexand": 8533,
      "flights": 8534,
      "resolution": 8535,
      "Imp": 8536,
      "Py": 8537,
      "Inc": 8538,
      "flank": 8539,
      "Kings": 8540,
      "Nik": 8541,
      "tornado": 8542,
      "deliber": 8543,
      "Margaret": 8544,
      "onymous": 8545,
      "oz": 8546,
      "pler": 8547,
      "sacrif": 8548,
      "sho": 8549,
      "audiences": 8550,
      "attendance": 8551,
      "Historic": 8552,
      "eros": 8553,
      "itated": 8554,
      "rolled": 8555,
      "terror": 8556,
      "disaster": 8557,
      "rant": 8558,
      "Egyptian": 8559,
      "collaboration": 8560,
      "grey": 8561,
      "entertain": 8562,
      "Ultim": 8563,
      "suspended": 8564,
      "worn": 8565,
      "Lucas": 8566,
      "feelings": 8567,
      "restaurant": 8568,
      "underground": 8569,
      "lieutenant": 8570,
      "targets": 8571,
      "affairs": 8572,
      "Guide": 8573,
      "amps": 8574,
      "threw": 8575,
      "atically": 8576,
      "seed": 8577,
      "exit": 8578,
      "earthqu": 8579,
      "athy": 8580,
      "Box": 8581,
      "Tennessee": 8582,
      "360": 8583,
      "lob": 8584,
      "Ple": 8585,
      "Mode": 8586,
      "aimed": 8587,
      "Depression": 8588,
      "fires": 8589,
      "worship": 8590,
      "operational": 8591,
      "armored": 8592,
      "iples": 8593,
      "thinking": 8594,
      "1906": 8595,
      "Louisiana": 8596,
      "pace": 8597,
      "uro": 8598,
      "affair": 8599,
      "Warren": 8600,
      "funeral": 8601,
      "NO": 8602,
      "Critics": 8603,
      "Pad": 8604,
      "compilation": 8605,
      "loved": 8606,
      "1904": 8607,
      "measured": 8608,
      "poorly": 8609,
      "documents": 8610,
      "shield": 8611,
      "circle": 8612,
      "Palest": 8613,
      "Labour": 8614,
      "filed": 8615,
      "initi": 8616,
      "collaps": 8617,
      "odge": 8618,
      "delay": 8619,
      "Missouri": 8620,
      "Rang": 8621,
      "sector": 8622,
      "temporarily": 8623,
      "represents": 8624,
      "Season": 8625,
      "andal": 8626,
      "ingham": 8627,
      "inners": 8628,
      "Dest": 8629,
      "agen": 8630,
      "hem": 8631,
      "lanes": 8632,
      "altar": 8633,
      "statue": 8634,
      "crews": 8635,
      "explosion": 8636,
      "stell": 8637,
      "gry": 8638,
      "Lad": 8639,
      "plain": 8640,
      "keeper": 8641,
      "fat": 8642,
      "overe": 8643,
      "Program": 8644,
      "netic": 8645,
      "entertainment": 8646,
      "Mack": 8647,
      "OS": 8648,
      "replacing": 8649,
      "alliance": 8650,
      "offering": 8651,
      "nucle": 8652,
      "Mitchell": 8653,
      "tension": 8654,
      "Billy": 8655,
      "preparation": 8656,
      "diver": 8657,
      "inea": 8658,
      "Dragon": 8659,
      "scription": 8660,
      "Cze": 8661,
      "Tag": 8662,
      "jazz": 8663,
      "engagement": 8664,
      "Independent": 8665,
      "fifty": 8666,
      "Nine": 8667,
      "Beg": 8668,
      "AT": 8669,
      "Tel": 8670,
      "trend": 8671,
      "administrative": 8672,
      "wore": 8673,
      "tot": 8674,
      "Luc": 8675,
      "meat": 8676,
      "onomy": 8677,
      "CS": 8678,
      "mers": 8679,
      "residence": 8680,
      "Works": 8681,
      "hole": 8682,
      "Kal": 8683,
      "restoration": 8684,
      "Fem": 8685,
      "igen": 8686,
      "ateur": 8687,
      "Fal": 8688,
      "UE": 8689,
      "feud": 8690,
      "zona": 8691,
      "Ship": 8692,
      "Czech": 8693,
      "inland": 8694,
      "rod": 8695,
      "Small": 8696,
      "Graham": 8697,
      "rebuilt": 8698,
      "touring": 8699,
      "reluct": 8700,
      "venues": 8701,
      "reflected": 8702,
      "Wes": 8703,
      "exh": 8704,
      "roots": 8705,
      "geo": 8706,
      "charter": 8707,
      "Federation": 8708,
      "Michel": 8709,
      "eline": 8710,
      "rial": 8711,
      "Report": 8712,
      "suggesting": 8713,
      "prime": 8714,
      "frig": 8715,
      "fatal": 8716,
      "Business": 8717,
      "rivers": 8718,
      "surge": 8719,
      "completing": 8720,
      "blocks": 8721,
      "mountains": 8722,
      "igs": 8723,
      "amongst": 8724,
      "zed": 8725,
      "ders": 8726,
      "Ridge": 8727,
      "remin": 8728,
      "wasn": 8729,
      "directors": 8730,
      "tribes": 8731,
      "cture": 8732,
      "conservative": 8733,
      "horror": 8734,
      "escaped": 8735,
      "pulled": 8736,
      "looks": 8737,
      "vens": 8738,
      "wonder": 8739,
      "lacked": 8740,
      "cancelled": 8741,
      "diction": 8742,
      "diagn": 8743,
      "recommend": 8744,
      "dramatic": 8745,
      "arrier": 8746,
      "warn": 8747,
      "stores": 8748,
      "Shaw": 8749,
      "coverage": 8750,
      "altered": 8751,
      "Mes": 8752,
      "lemur": 8753,
      "clearly": 8754,
      "patrol": 8755,
      "argues": 8756,
      "stretch": 8757,
      "Tot": 8758,
      "ribute": 8759,
      "decides": 8760,
      "bombard": 8761,
      "circuit": 8762,
      "Cuba": 8763,
      "dia": 8764,
      "fallen": 8765,
      "predomin": 8766,
      "fixed": 8767,
      "distinguished": 8768,
      "ownership": 8769,
      "colonies": 8770,
      "eron": 8771,
      "cargo": 8772,
      "Cook": 8773,
      "ylan": 8774,
      "mining": 8775,
      "steps": 8776,
      "tellect": 8777,
      "hu": 8778,
      "patterns": 8779,
      "Nar": 8780,
      "Ring": 8781,
      "adequ": 8782,
      "Ped": 8783,
      "Snow": 8784,
      "Cow": 8785,
      "dish": 8786,
      "Phoen": 8787,
      "femin": 8788,
      "drove": 8789,
      "overeign": 8790,
      "artney": 8791,
      "Indies": 8792,
      "Dw": 8793,
      "Files": 8794,
      "Las": 8795,
      "Persian": 8796,
      "maneu": 8797,
      "remnants": 8798,
      "Marie": 8799,
      "perspective": 8800,
      "squ": 8801,
      "Josh": 8802,
      "faster": 8803,
      "merchant": 8804,
      "Tamil": 8805,
      "punk": 8806,
      "saved": 8807,
      "Bureau": 8808,
      "hen": 8809,
      "characterized": 8810,
      "Arizona": 8811,
      "oxide": 8812,
      "contributions": 8813,
      "wicket": 8814,
      "Barbar": 8815,
      "poems": 8816,
      "spoken": 8817,
      "badly": 8818,
      "Saturday": 8819,
      "Sony": 8820,
      "valid": 8821,
      "excav": 8822,
      "rix": 8823,
      "fastest": 8824,
      "artistic": 8825,
      "Dylan": 8826,
      "Grey": 8827,
      "mathemat": 8828,
      "playoffs": 8829,
      "twin": 8830,
      "icken": 8831,
      "chapel": 8832,
      "absolute": 8833,
      "shock": 8834,
      "hosts": 8835,
      "riders": 8836,
      "militia": 8837,
      "clock": 8838,
      "boundary": 8839,
      "ranging": 8840,
      "ieties": 8841,
      "severely": 8842,
      "institutions": 8843,
      "span": 8844,
      "Scout": 8845,
      "notice": 8846,
      "rising": 8847,
      "Ti": 8848,
      "idency": 8849,
      "explain": 8850,
      "Confederate": 8851,
      "Swe": 8852,
      "rub": 8853,
      "serial": 8854,
      "wait": 8855,
      "urally": 8856,
      "retail": 8857,
      "spend": 8858,
      "depending": 8859,
      "inhabitants": 8860,
      "strict": 8861,
      "bulk": 8862,
      "hears": 8863,
      "ranks": 8864,
      "explains": 8865,
      "distinctive": 8866,
      "demonstrated": 8867,
      "ideal": 8868,
      "Denn": 8869,
      "turb": 8870,
      "comparison": 8871,
      "dee": 8872,
      "lu": 8873,
      "lips": 8874,
      "crest": 8875,
      "Oklah": 8876,
      "bronze": 8877,
      "inations": 8878,
      "bowling": 8879,
      "condem": 8880,
      "arrive": 8881,
      "boss": 8882,
      "closure": 8883,
      "theater": 8884,
      "context": 8885,
      "controls": 8886,
      "Ye": 8887,
      "Austrian": 8888,
      "flagship": 8889,
      "Hip": 8890,
      "Ren": 8891,
      "practices": 8892,
      "chamber": 8893,
      "Switzer": 8894,
      "tha": 8895,
      "agency": 8896,
      "obvious": 8897,
      "waiting": 8898,
      "wider": 8899,
      "elig": 8900,
      "shad": 8901,
      "sisters": 8902,
      "wants": 8903,
      "abund": 8904,
      "evolved": 8905,
      "Harvey": 8906,
      "Switzerland": 8907,
      "Aff": 8908,
      "visiting": 8909,
      "placing": 8910,
      "Mrs": 8911,
      "Murphy": 8912,
      "dominant": 8913,
      "ABC": 8914,
      "aqu": 8915,
      "1901": 8916,
      "baby": 8917,
      "Broadway": 8918,
      "vulner": 8919,
      "Econom": 8920,
      "itter": 8921,
      "satellite": 8922,
      "northward": 8923,
      "Mess": 8924,
      "yd": 8925,
      "yield": 8926,
      "spotted": 8927,
      "conspir": 8928,
      "application": 8929,
      "articles": 8930,
      "reaches": 8931,
      "acceler": 8932,
      "Cer": 8933,
      "ighth": 8934,
      "exhibition": 8935,
      "Chand": 8936,
      "vast": 8937,
      "ogan": 8938,
      "fortun": 8939,
      "Delaware": 8940,
      "nominations": 8941,
      "Len": 8942,
      "surgery": 8943,
      "beam": 8944,
      "mphony": 8945,
      "Barry": 8946,
      "Maur": 8947,
      "palace": 8948,
      "prepare": 8949,
      "Liz": 8950,
      "synd": 8951,
      "Oklahoma": 8952,
      "carriers": 8953,
      "Shad": 8954,
      "Cycl": 8955,
      "Such": 8956,
      "Bron": 8957,
      "Mik": 8958,
      "altit": 8959,
      "helps": 8960,
      "impression": 8961,
      "heading": 8962,
      "storage": 8963,
      "households": 8964,
      "protein": 8965,
      "predicted": 8966,
      "Kirk": 8967,
      "attained": 8968,
      "subspecies": 8969,
      "Amy": 8970,
      "08": 8971,
      "Sn": 8972,
      "ffect": 8973,
      "motiv": 8974,
      "Gary": 8975,
      "enger": 8976,
      "engage": 8977,
      "ruption": 8978,
      "rescu": 8979,
      "vs": 8980,
      "typhoon": 8981,
      "Gab": 8982,
      "phe": 8983,
      "adventure": 8984,
      "oga": 8985,
      "slaves": 8986,
      "apy": 8987,
      "essential": 8988,
      "1902": 8989,
      "1903": 8990,
      "descend": 8991,
      "Tokyo": 8992,
      "Gor": 8993,
      "UC": 8994,
      "battalions": 8995,
      "HD": 8996,
      "repeatedly": 8997,
      "aks": 8998,
      "predecessor": 8999,
      "kees": 9000,
      "Original": 9001,
      "Sin": 9002,
      "vine": 9003,
      "Lithuan": 9004,
      "peaking": 9005,
      "affil": 9006,
      "bombing": 9007,
      "mistry": 9008,
      "sper": 9009,
      "intellect": 9010,
      "Juan": 9011,
      "Originally": 9012,
      "Perry": 9013,
      "striking": 9014,
      "Leslie": 9015,
      "excellent": 9016,
      "Hem": 9017,
      "westward": 9018,
      "signal": 9019,
      "Flo": 9020,
      "vous": 9021,
      "NS": 9022,
      "uv": 9023,
      "remarked": 9024,
      "frustr": 9025,
      "philosophy": 9026,
      "Baseball": 9027,
      "illegal": 9028,
      "vertical": 9029,
      "pretty": 9030,
      "alive": 9031,
      "Fif": 9032,
      "matters": 9033,
      "perceived": 9034,
      "faction": 9035,
      "bard": 9036,
      "mund": 9037,
      "convers": 9038,
      "circumstances": 9039,
      "pension": 9040,
      "Denmark": 9041,
      "cliff": 9042,
      "choose": 9043,
      "meetings": 9044,
      "seriously": 9045,
      "Hub": 9046,
      "useful": 9047,
      "Jonathan": 9048,
      "apartment": 9049,
      "Joh": 9050,
      "reconnaissance": 9051,
      "bones": 9052,
      "impress": 9053,
      "ulating": 9054,
      "proxim": 9055,
      "civilian": 9056,
      "Rico": 9057,
      "izon": 9058,
      "Players": 9059,
      "Won": 9060,
      "Atlanta": 9061,
      "Campaign": 9062,
      "drugs": 9063,
      "09": 9064,
      "sick": 9065,
      "leaf": 9066,
      "Johnny": 9067,
      "musician": 9068,
      "Sciento": 9069,
      "backed": 9070,
      "sket": 9071,
      "inals": 9072,
      "retre": 9073,
      "readers": 9074,
      "Rihanna": 9075,
      "Ton": 9076,
      "democr": 9077,
      "planets": 9078,
      "Morr": 9079,
      "whilst": 9080,
      "retain": 9081,
      "Territ": 9082,
      "RS": 9083,
      "quiet": 9084,
      "Theod": 9085,
      "angular": 9086,
      "Nixon": 9087,
      "harm": 9088,
      "similarly": 9089,
      "uma": 9090,
      "expo": 9091,
      "strengthened": 9092,
      "triple": 9093,
      "juris": 9094,
      "Lex": 9095,
      "lord": 9096,
      "iences": 9097,
      "demanded": 9098,
      "posit": 9099,
      "acou": 9100,
      "Edwards": 9101,
      "RP": 9102,
      "apolis": 9103,
      "placement": 9104,
      "Abbey": 9105,
      "simultaneously": 9106,
      "115": 9107,
      "enlisted": 9108,
      "legacy": 9109,
      "accurate": 9110,
      "Bernard": 9111,
      "assembled": 9112,
      "jury": 9113,
      "clin": 9114,
      "pressing": 9115,
      "panel": 9116,
      "alternate": 9117,
      "unc": 9118,
      "urer": 9119,
      "definite": 9120,
      "adm": 9121,
      "aph": 9122,
      "mov": 9123,
      "overw": 9124,
      "Spot": 9125,
      "Bath": 9126,
      "insisted": 9127,
      "sharp": 9128,
      "rine": 9129,
      "Gray": 9130,
      "connect": 9131,
      "mingham": 9132,
      "shipping": 9133,
      "Wilhelm": 9134,
      "Arnold": 9135,
      "bombs": 9136,
      "dancing": 9137,
      "shift": 9138,
      "Pitts": 9139,
      "Fu": 9140,
      "RI": 9141,
      "athletes": 9142,
      "promised": 9143,
      "Keith": 9144,
      "demands": 9145,
      "pages": 9146,
      "rebound": 9147,
      "estyle": 9148,
      "coat": 9149,
      "citizen": 9150,
      "texts": 9151,
      "revenue": 9152,
      "partial": 9153,
      "mainland": 9154,
      "Brig": 9155,
      "enna": 9156,
      "console": 9157,
      "cury": 9158,
      "petition": 9159,
      "behaviour": 9160,
      "Jimmy": 9161,
      "aus": 9162,
      "itted": 9163,
      "ruling": 9164,
      "compass": 9165,
      "Madagas": 9166,
      "marketing": 9167,
      "subsid": 9168,
      "Spir": 9169,
      "personally": 9170,
      "dubbed": 9171,
      "Less": 9172,
      "OC": 9173,
      "tent": 9174,
      "stim": 9175,
      "drivers": 9176,
      "Prize": 9177,
      "struggled": 9178,
      "gau": 9179,
      "tempo": 9180,
      "continental": 9181,
      "extend": 9182,
      "guilty": 9183,
      "interpretation": 9184,
      "vices": 9185,
      "believing": 9186,
      "definition": 9187,
      "guitarist": 9188,
      "regation": 9189,
      "Iran": 9190,
      "pione": 9191,
      "loose": 9192,
      "Gy": 9193,
      "moon": 9194,
      "orchestra": 9195,
      "Wolf": 9196,
      "armies": 9197,
      "Internet": 9198,
      "confess": 9199,
      "constitution": 9200,
      "secretary": 9201,
      "propag": 9202,
      "audition": 9203,
      "Prom": 9204,
      "Rachel": 9205,
      "artwork": 9206,
      "Universal": 9207,
      "fest": 9208,
      "Ky": 9209,
      "Neil": 9210,
      "mn": 9211,
      "fossil": 9212,
      "Eve": 9213,
      "itt": 9214,
      "compens": 9215,
      "Furthermore": 9216,
      "jobs": 9217,
      "demolished": 9218,
      "amid": 9219,
      "accum": 9220,
      "Yankees": 9221,
      "artific": 9222,
      "olds": 9223,
      "Tracy": 9224,
      "iveness": 9225,
      "markets": 9226,
      "compliment": 9227,
      "cannon": 9228,
      "starring": 9229,
      "Laur": 9230,
      "Da": 9231,
      "anes": 9232,
      "isons": 9233,
      "ghan": 9234,
      "Railroad": 9235,
      "lavery": 9236,
      "feels": 9237,
      "See": 9238,
      "Birmingham": 9239,
      "sized": 9240,
      "verte": 9241,
      "profile": 9242,
      "Eventually": 9243,
      "Pil": 9244,
      "acclaim": 9245,
      "counties": 9246,
      "pursue": 9247,
      "AP": 9248,
      "Hur": 9249,
      "kW": 9250,
      "lain": 9251,
      "guy": 9252,
      "azines": 9253,
      "Barr": 9254,
      "Chel": 9255,
      "adi": 9256,
      "bonus": 9257,
      "hl": 9258,
      "increases": 9259,
      "culmin": 9260,
      "Lost": 9261,
      "iders": 9262,
      "utical": 9263,
      "comprom": 9264,
      "Obama": 9265,
      "Defence": 9266,
      "Canter": 9267,
      "ske": 9268,
      "haw": 9269,
      "discovers": 9270,
      "challenged": 9271,
      "clothing": 9272,
      "erected": 9273,
      "ressing": 9274,
      "productions": 9275,
      "listen": 9276,
      "glac": 9277,
      "delivery": 9278,
      "Napoleon": 9279,
      "bearing": 9280,
      "wire": 9281,
      "elevation": 9282,
      "succeed": 9283,
      "Enterprise": 9284,
      "Jup": 9285,
      "lik": 9286,
      "Bobby": 9287,
      "Bac": 9288,
      "Cost": 9289,
      "Hudson": 9290,
      "Phoenix": 9291,
      "Baker": 9292,
      "inian": 9293,
      "cutting": 9294,
      "sq": 9295,
      "practical": 9296,
      "fi": 9297,
      "ultan": 9298,
      "chest": 9299,
      "Mission": 9300,
      "gence": 9301,
      "Wayne": 9302,
      "overseas": 9303,
      "liner": 9304,
      "educational": 9305,
      "extract": 9306,
      "Impact": 9307,
      "renov": 9308,
      "laugh": 9309,
      "funny": 9310,
      "doubt": 9311,
      "hind": 9312,
      "defences": 9313,
      "tario": 9314,
      "Pearl": 9315,
      "dan": 9316,
      "icing": 9317,
      "cticut": 9318,
      "Connecticut": 9319,
      "deterior": 9320,
      "Madagascar": 9321,
      "McCartney": 9322,
      "Bach": 9323,
      "Sid": 9324,
      "hire": 9325,
      "oblig": 9326,
      "sitting": 9327,
      "Rights": 9328,
      "conversion": 9329,
      "founding": 9330,
      "realized": 9331,
      "settlers": 9332,
      "acknowledged": 9333,
      "Leonard": 9334,
      "edited": 9335,
      "understood": 9336,
      "Peace": 9337,
      "indicating": 9338,
      "Todd": 9339,
      "connecting": 9340,
      "barr": 9341,
      "dock": 9342,
      "Blood": 9343,
      "Ontario": 9344,
      "cultiv": 9345,
      "objective": 9346,
      "oral": 9347,
      "solar": 9348,
      "legislature": 9349,
      "Morrison": 9350,
      "Canterbury": 9351,
      "highways": 9352,
      "Type": 9353,
      "Community": 9354,
      "quer": 9355,
      "prises": 9356,
      "Trail": 9357,
      "communications": 9358,
      "dressed": 9359,
      "wrestling": 9360,
      "mush": 9361,
      "ogen": 9362,
      "Friday": 9363,
      "rolling": 9364,
      "atomic": 9365,
      "Goth": 9366,
      "jer": 9367,
      "rice": 9368,
      "idal": 9369,
      "diamond": 9370,
      "campaigns": 9371,
      "bacter": 9372,
      "Wag": 9373,
      "ouver": 9374,
      "compounds": 9375,
      "aftermath": 9376,
      "Allies": 9377,
      "decisions": 9378,
      "compound": 9379,
      "arrangements": 9380,
      "zon": 9381,
      "initiated": 9382,
      "bats": 9383,
      "raids": 9384,
      "concentration": 9385,
      "atropical": 9386,
      "dissipated": 9387,
      "haul": 9388,
      "walking": 9389,
      "trouble": 9390,
      "Rat": 9391,
      "Rud": 9392,
      "establishing": 9393,
      "Drive": 9394,
      "aggressive": 9395,
      "lia": 9396,
      "Boys": 9397,
      "Foreign": 9398,
      "wealthy": 9399,
      "hidden": 9400,
      "dogs": 9401,
      "irty": 9402,
      "exactly": 9403,
      "liquid": 9404,
      "TNA": 9405,
      "tale": 9406,
      "ashed": 9407,
      "danger": 9408,
      "confron": 9409,
      "permitted": 9410,
      "improvements": 9411,
      "considering": 9412,
      "Trib": 9413,
      "oker": 9414,
      "Pruss": 9415,
      "execution": 9416,
      "publishing": 9417,
      "hydrogen": 9418,
      "publications": 9419,
      "graduated": 9420,
      "evacuated": 9421,
      "ras": 9422,
      "Windows": 9423,
      "Mountains": 9424,
      "removal": 9425,
      "Mint": 9426,
      "virus": 9427,
      "feeding": 9428,
      "maid": 9429,
      "fewer": 9430,
      "aman": 9431,
      "celebrated": 9432,
      "Sem": 9433,
      "fortress": 9434,
      "soldier": 9435,
      "observations": 9436,
      "recip": 9437,
      "spell": 9438,
      "travels": 9439,
      "Ga": 9440,
      "ported": 9441,
      "membership": 9442,
      "Outstanding": 9443,
      "Prim": 9444,
      "stationed": 9445,
      "aerial": 9446,
      "UEFA": 9447,
      "Mol": 9448,
      "Patt": 9449,
      "utions": 9450,
      "guar": 9451,
      "asant": 9452,
      "asters": 9453,
      "ME": 9454,
      "rebellion": 9455,
      "requires": 9456,
      "defending": 9457,
      "cry": 9458,
      "visits": 9459,
      "ori": 9460,
      "originated": 9461,
      "ancouver": 9462,
      "origins": 9463,
      "strategic": 9464,
      "Vancouver": 9465,
      "extratropical": 9466,
      "Jupiter": 9467,
      "nan": 9468,
      "explan": 9469,
      "Cin": 9470,
      "eland": 9471,
      "ancers": 9472,
      "05": 9473,
      "okie": 9474,
      "putting": 9475,
      "Ted": 9476,
      "bare": 9477,
      "revers": 9478,
      "youngest": 9479,
      "metric": 9480,
      "approaching": 9481,
      "quarterback": 9482,
      "theatrical": 9483,
      "Cat": 9484,
      "Our": 9485,
      "Dall": 9486,
      "shorter": 9487,
      "Portugu": 9488,
      "assembly": 9489,
      "announcement": 9490,
      "fantasy": 9491,
      "amen": 9492,
      "magazines": 9493,
      "astronom": 9494,
      "Lion": 9495,
      "nik": 9496,
      "conven": 9497,
      "donated": 9498,
      "Rio": 9499,
      "kiss": 9500,
      "Edin": 9501,
      "Ah": 9502,
      "Cand": 9503,
      "brilli": 9504,
      "magic": 9505,
      "Administration": 9506,
      "Champions": 9507,
      "Pakistan": 9508,
      "ongoing": 9509,
      "tape": 9510,
      "riff": 9511,
      "monitor": 9512,
      "adier": 9513,
      "aken": 9514,
      "gray": 9515,
      "exposure": 9516,
      "Spart": 9517,
      "irts": 9518,
      "ennium": 9519,
      "discussion": 9520,
      "cruc": 9521,
      "rik": 9522,
      "topped": 9523,
      "sang": 9524,
      "closest": 9525,
      "Portuguese": 9526,
      "Kn": 9527,
      "insects": 9528,
      "ules": 9529,
      "strongest": 9530,
      "Triple": 9531,
      "amental": 9532,
      "consol": 9533,
      "Collins": 9534,
      "colleagues": 9535,
      "Bradman": 9536,
      "tubes": 9537,
      "pale": 9538,
      "ried": 9539,
      "uman": 9540,
      "identify": 9541,
      "withdrawal": 9542,
      "07": 9543,
      "350": 9544,
      "leans": 9545,
      "proof": 9546,
      "landscape": 9547,
      "warf": 9548,
      "skull": 9549,
      "gathered": 9550,
      "volumes": 9551,
      "indicates": 9552,
      "phrase": 9553,
      "Princ": 9554,
      "supplied": 9555,
      "Stu": 9556,
      "Dwight": 9557,
      "itals": 9558,
[...]
