{
  "version": "1.0",
  "truncation": null,
  "padding": null,
  "added_tokens": [
    {
      "id": 0,
      "content": "[PAD]",
      "single_word": false,
      "lstrip": false,
      "rstrip": false,
      "normalized": false,
      "special": true
    },
    {
      "id": 1,
      "content": "[UNK]",
      "single_word": false,
      "lstrip": false,
      "rstrip": false,
      "normalized": false,
      "special": true
    },
    {
      "id": 2,
      "content": "<|START|>",
      "single_word": false,
      "lstrip": false,
      "rstrip": false,
      "normalized": false,
      "special": true
    },
    {
      "id": 3,
      "content": "<|END|>",
      "single_word": false,
      "lstrip": false,
      "rstrip": false,
      "normalized": false,
      "special": true
    }
  ],
  "normalizer": {
    "type": "Sequence",
    "normalizers": [
      {
        "type": "NFD"
      },
      {
        "type": "StripAccents"
      }
    ]
  },
  "pre_tokenizer": {
    "type": "Sequence",
    "pretokenizers": [
      {
        "type": "Whitespace"
      }
    ]
  },
  "post_processor": {
    "type": "TemplateProcessing",
    "single": [
      {
        "SpecialToken": {
          "id": "<|START|>",
          "type_id": 0
        }
      },
      {
        "Sequence": {
          "id": "A",
          "type_id": 0
        }
      },
      {
        "SpecialToken": {
          "id": "<|END|>",
          "type_id": 0
        }
      }
    ],
    "pair": [
      {
        "Sequence": {
          "id": "A",
          "type_id": 0
        }
      },
      {
        "Sequence": {
          "id": "B",
          "type_id": 1
        }
      }
    ],
    "special_tokens": {
      "<|END|>": {
        "id": "<|END|>",
        "ids": [
          3
        ],
        "tokens": [
          "<|END|>"
        ]
      },
      "<|START|>": {
        "id": "<|START|>",
        "ids": [
          2
        ],
        "tokens": [
          "<|START|>"
        ]
      }
    }
  },
  "decoder": null,
  "model": {
    "type": "BPE",
    "dropout": null,
    "unk_token": "[UNK]",
    "continuing_subword_prefix": null,
    "end_of_word_suffix": null,
    "fuse_unk": false,
    "byte_fallback": false,
    "ignore_merges": false,
    "vocab": {
      "[PAD]": 0,
      "[UNK]": 1,
      "<|START|>": 2,
      "<|END|>": 3,
      "!": 4,
      "\"": 5,
      "#": 6,
      "$": 7,
      "%": 8,
      "&": 9,
      "'": 10,
      "(": 11,
      ")": 12,
      "*": 13,
      "+": 14,
      ",": 15,
      "-": 16,
      ".": 17,
      "/": 18,
      "0": 19,
      "1": 20,
      "2": 21,
      "3": 22,
      "4": 23,
      "5": 24,
      "6": 25,
      "7": 26,
      "8": 27,
      "9": 28,
      ":": 29,
      ";": 30,
      "<": 31,
      "=": 32,
      ">": 33,
      "?": 34,
      "@": 35,
      "A": 36,
      "B": 37,
      "C": 38,
      "D": 39,
      "E": 40,
      "F": 41,
      "G": 42,
      "H": 43,
      "I": 44,
      "J": 45,
      "K": 46,
      "L": 47,
      "M": 48,
      "N": 49,
      "O": 50,
      "P": 51,
      "Q": 52,
      "R": 53,
      "S": 54,
      "T": 55,
      "U": 56,
      "V": 57,
      "W": 58,
      "X": 59,
      "Y": 60,
      "Z": 61,
      "[": 62,
      "\\": 63,
      "]": 64,
      "^": 65,
      "_": 66,
      "`": 67,
      "a": 68,
      "b": 69,
      "c": 70,
      "d": 71,
      "e": 72,
      "f": 73,
      "g": 74,
      "h": 75,
      "i": 76,
      "j": 77,
      "k": 78,
      "l": 79,
      "m": 80,
      "n": 81,
      "o": 82,
      "p": 83,
      "q": 84,
      "r": 85,
      "s": 86,
      "t": 87,
      "u": 88,
      "v": 89,
      "w": 90,
      "x": 91,
      "y": 92,
      "z": 93,
      "{": 94,
      "|": 95,
      "}": 96,
      "~": 97,
      "": 98,
      "¡": 99,
      "¢": 100,
      "£": 101,
      "¤": 102,
      "¥": 103,
      "¦": 104,
      "§": 105,
      "¨": 106,
      "©": 107,
      "ª": 108,
      "«": 109,
      "¬": 110,
      "­": 111,
      "®": 112,
      "¯": 113,
      "°": 114,
      "±": 115,
      "²": 116,
      "³": 117,
      "´": 118,
      "µ": 119,
      "¶": 120,
      "·": 121,
      "¸": 122,
      "¹": 123,
      "º": 124,
      "»": 125,
      "¼": 126,
      "½": 127,
      "¾": 128,
      "¿": 129,
      "Æ": 130,
      "Ð": 131,
      "×": 132,
      "Ø": 133,
      "Þ": 134,
      "ß": 135,
      "æ": 136,
      "ð": 137,
      "÷": 138,
      "ø": 139,
      "þ": 140,
      "Đ": 141,
      "đ": 142,
      "Ħ": 143,
      "ħ": 144,
      "ı": 145,
      "Ĳ": 146,
      "ĳ": 147,
      "ĸ": 148,
      "Ŀ": 149,
      "Ł": 150,
      "ł": 151,
      "ŉ": 152,
      "Ŋ": 153,
      "ŋ": 154,
      "Œ": 155,
      "œ": 156,
      "Ŧ": 157,
      "ŧ": 158,
      "ſ": 159,
      "ƀ": 160,
      "Ɓ": 161,
      "Ƅ": 162,
      "ƅ": 163,
      "Ɔ": 164,
      "ƈ": 165,
      "Ɗ": 166,
      "ƍ": 167,
      "Ǝ": 168,
      "Ə": 169,
      "Ɛ": 170,
      "Ƒ": 171,
      "ƒ": 172,
      "Ɠ": 173,
      "Ɣ": 174,
      "ƕ": 175,
      "Ɩ": 176,
      "Ƙ": 177,
      "ƙ": 178,
      "ƚ": 179,
      "ƛ": 180,
      "Ɯ": 181,
      "ƞ": 182,
      "Ɵ": 183,
      "Ƥ": 184,
      "ƥ": 185,
      "Ʀ": 186,
      "Ƨ": 187,
      "Ʃ": 188,
      "ƪ": 189,
      "ƫ": 190,
      "ƭ": 191,
      "Ʈ": 192,
      "Ʊ": 193,
      "Ʋ": 194,
      "Ƴ": 195,
      "ƴ": 196,
      "Ƶ": 197,
      "ƶ": 198,
      "Ʒ": 199,
      "ƺ": 200,
      "ƻ": 201,
      "ƽ": 202,
      "ƾ": 203,
      "ƿ": 204,
      "ǀ": 205,
      "ǁ": 206,
      "ǂ": 207,
      "ǃ": 208,
      "ǅ": 209,
      "ǈ": 210,
      "ǉ": 211,
      "ǋ": 212,
      "ǝ": 213,
      "Ǥ": 214,
      "ǥ": 215,
      "ǲ": 216,
      "Ƕ": 217,
      "Ƿ": 218,
      "Ȝ": 219,
      "ȝ": 220,
      "Ȣ": 221,
      "ȣ": 222,
      "Ȥ": 223,
      "ȥ": 224,
      "ȶ": 225,
      "ȷ": 226,
      "Ȼ": 227,
      "ȼ": 228,
      "Ƚ": 229,
      "ɀ": 230,
      "Ɂ": 231,
      "Ʌ": 232,
      "Ɉ": 233,
      "ɐ": 234,
      "ɑ": 235,
      "ɒ": 236,
      "ɓ": 237,
      "ɔ": 238,
      "ɕ": 239,
      "ɖ": 240,
      "ɗ": 241,
      "ɘ": 242,
      "ə": 243,
      "ɚ": 244,
      "ɛ": 245,
      "ɜ": 246,
      "ɝ": 247,
      "ɞ": 248,
      "ɟ": 249,
      "ɠ": 250,
      "ɡ": 251,
      "ɢ": 252,
      "ɣ": 253,
      "ɤ": 254,
      "ɥ": 255,
      "ɦ": 256,
      "ɧ": 257,
      "ɨ": 258,
      "ɩ": 259,
      "ɪ": 260,
      "ɫ": 261,
      "ɬ": 262,
      "ɭ": 263,
      "ɮ": 264,
      "ɯ": 265,
      "ɰ": 266,
      "ɱ": 267,
      "ɲ": 268,
      "ɳ": 269,
      "ɴ": 270,
      "ɵ": 271,
      "ɶ": 272,
      "ɷ": 273,
      "ɸ": 274,
      "ɹ": 275,
      "ɺ": 276,
      "ɻ": 277,
      "ɼ": 278,
      "ɽ": 279,
      "ɾ": 280,
      "ɿ": 281,
      "ʀ": 282,
      "ʁ": 283,
      "ʂ": 284,
      "ʃ": 285,
      "ʄ": 286,
      "ʆ": 287,
      "ʇ": 288,
      "ʈ": 289,
      "ʉ": 290,
      "ʊ": 291,
      "ʋ": 292,
      "ʌ": 293,
      "ʍ": 294,
      "ʎ": 295,
      "ʏ": 296,
      "ʐ": 297,
      "ʑ": 298,
      "ʒ": 299,
      "ʓ": 300,
      "ʔ": 301,
      "ʕ": 302,
      "ʖ": 303,
      "ʗ": 304,
      "ʘ": 305,
      "ʙ": 306,
      "ʛ": 307,
      "ʜ": 308,
      "ʝ": 309,
      "ʟ": 310,
      "ʠ": 311,
      "ʡ": 312,
      "ʢ": 313,
      "ʣ": 314,
      "ʤ": 315,
      "ʥ": 316,
      "ʦ": 317,
      "ʧ": 318,
      "ʨ": 319,
      "ʰ": 320,
      "ʱ": 321,
      "ʲ": 322,
      "ʳ": 323,
      "ʷ": 324,
      "ʹ": 325,
      "ʺ": 326,
      "ʻ": 327,
      "ʼ": 328,
      "ʽ": 329,
      "ʾ": 330,
      "ʿ": 331,
      "ˀ": 332,
      "ˁ": 333,
      "˂": 334,
      "˃": 335,
      "˄": 336,
      "˅": 337,
      "ˆ": 338,
      "ˇ": 339,
      "ˈ": 340,
      "ˉ": 341,
      "ˊ": 342,
      "ˋ": 343,
      "ˌ": 344,
      "ˍ": 345,
      "ː": 346,
      "ˑ": 347,
      "˒": 348,
      "˓": 349,
      "˔": 350,
      "˕": 351,
      "˗": 352,
      "˘": 353,
      "˙": 354,
      "˚": 355,
      "˛": 356,
      "˜": 357,
      "˝": 358,
      "˞": 359,
      "˟": 360,
      "ˠ": 361,
      "ˡ": 362,
      "ˢ": 363,
      "ˣ": 364,
      "ˤ": 365,
      "˥": 366,
      "˦": 367,
      "˧": 368,
      "˨": 369,
      "˩": 370,
      "˪": 371,
      "˭": 372,
      "ˮ": 373,
      "˹": 374,
      "˺": 375,
      "΄": 376,
      "Α": 377,
      "Β": 378,
      "Γ": 379,
      "Δ": 380,
      "Ε": 381,
      "Ζ": 382,
      "Η": 383,
      "Θ": 384,
      "Ι": 385,
      "Κ": 386,
      "Λ": 387,
      "Μ": 388,
      "Ν": 389,
      "Ξ": 390,
      "Ο": 391,
      "Π": 392,
      "Ρ": 393,
      "Σ": 394,
      "Τ": 395,
      "Υ": 396,
      "Φ": 397,
      "Χ": 398,
      "Ψ": 399,
      "Ω": 400,
      "α": 401,
      "β": 402,
      "γ": 403,
      "δ": 404,
      "ε": 405,
      "ζ": 406,
      "η": 407,
      "θ": 408,
      "ι": 409,
      "κ": 410,
      "λ": 411,
      "μ": 412,
      "ν": 413,
      "ξ": 414,
      "ο": 415,
      "π": 416,
      "ρ": 417,
      "ς": 418,
      "σ": 419,
      "τ": 420,
      "υ": 421,
      "φ": 422,
      "χ": 423,
      "ψ": 424,
      "ω": 425,
      "ϐ": 426,
      "ϑ": 427,
      "ϒ": 428,
      "ϕ": 429,
      "ϖ": 430,
      "Ϙ": 431,
      "Ϛ": 432,
      "ϛ": 433,
      "Ϝ": 434,
      "ϝ": 435,
      "ϣ": 436,
      "ϩ": 437,
      "Ϫ": 438,
      "ϫ": 439,
      "ϭ": 440,
      "ϯ": 441,
      "ϰ": 442,
      "ϱ": 443,
      "ϲ": 444,
      "ϳ": 445,
      "ϴ": 446,
      "ϵ": 447,
      "Ϲ": 448,
      "Ͼ": 449,
      "Ђ": 450,
      "Є": 451,
      "Ѕ": 452,
      "І": 453,
      "Ј": 454,
      "Љ": 455,
      "Њ": 456,
      "Ћ": 457,
      "Џ": 458,
      "А": 459,
      "Б": 460,
      "В": 461,
      "Г": 462,
      "Д": 463,
      "Е": 464,
      "Ж": 465,
      "З": 466,
      "И": 467,
      "К": 468,
      "Л": 469,
      "М": 470,
      "Н": 471,
      "О": 472,
      "П": 473,
      "Р": 474,
      "С": 475,
      "Т": 476,
      "У": 477,
      "Ф": 478,
      "Х": 479,
      "Ц": 480,
      "Ч": 481,
      "Ш": 482,
      "Щ": 483,
      "Ъ": 484,
      "Ы": 485,
      "Ь": 486,
      "Э": 487,
      "Ю": 488,
      "Я": 489,
      "а": 490,
      "б": 491,
      "в": 492,
      "г": 493,
      "д": 494,
      "е": 495,
      "ж": 496,
      "з": 497,
      "и": 498,
      "к": 499,
      "л": 500,
      "м": 501,
      "н": 502,
      "о": 503,
      "п": 504,
      "р": 505,
      "с": 506,
      "т": 507,
      "у": 508,
      "ф": 509,
      "х": 510,
      "ц": 511,
      "ч": 512,
      "ш": 513,
      "щ": 514,
      "ъ": 515,
      "ы": 516,
      "ь": 517,
      "э": 518,
      "ю": 519,
      "я": 520,
      "ђ": 521,
      "є": 522,
      "ѕ": 523,
      "і": 524,
      "ј": 525,
      "љ": 526,
      "њ": 527,
      "ћ": 528,
      "џ": 529,
      "Ѡ": 530,
      "ѡ": 531,
      "Ѣ": 532,
      "ѣ": 533,
      "ѥ": 534,
      "Ѧ": 535,
      "ѧ": 536,
      "Ѩ": 537,
      "ѩ": 538,
      "ѫ": 539,
      "Ѭ": 540,
      "ѭ": 541,
      "Ѯ": 542,
      "ѯ": 543,
      "Ѱ": 544,
      "ѱ": 545,
      "Ѳ": 546,
      "ѳ": 547,
      "Ѵ": 548,
      "ѵ": 549,
      "Ѹ": 550,
      "ѹ": 551,
      "Ѻ": 552,
      "ѻ": 553,
      "Ҁ": 554,
      "ҁ": 555,
      "Ґ": 556,
      "ґ": 557,
      "Ғ": 558,
      "ғ": 559,
      "җ": 560,
      "Қ": 561,
      "қ": 562,
      "ҟ": 563,
      "ҡ": 564,
      "Ң": 565,
      "ң": 566,
      "ҥ": 567,
      "ҩ": 568,
      "Ҫ": 569,
      "ҫ": 570,
      "ҭ": 571,
      "Ү": 572,
      "ү": 573,
      "Ұ": 574,
      "ұ": 575,
      "Ҳ": 576,
      "ҳ": 577,
      "ҵ": 578,
      "Ҷ": 579,
      "ҷ": 580,
      "һ": 581,
      "ҽ": 582,
      "ҿ": 583,
      "Ӏ": 584,
      "Ӄ": 585,
      "ӄ": 586,
      "Ӈ": 587,
      "ӈ": 588,
      "ӏ": 589,
      "Ӕ": 590,
      "ӕ": 591,
      "Ә": 592,
      "ә": 593,
      "ӡ": 594,
      "Ө": 595,
      "ө": 596,
      "ӷ": 597,
      "ӻ": 598,
      "Ԁ": 599,
      "ԁ": 600,
      "ԅ": 601,
      "Ԍ": 602,
      "Ԑ": 603,
      "Ԓ": 604,
      "ԓ": 605,
      "ԛ": 606,
      "ԥ": 607,
      "Ա": 608,
      "Բ": 609,
      "Գ": 610,
      "Դ": 611,
      "Ե": 612,
      "Զ": 613,
      "Է": 614,
      "Թ": 615,
      "Ի": 616,
      "Լ": 617,
      "Խ": 618,
      "Ծ": 619,
      "Կ": 620,
      "Հ": 621,
      "Ղ": 622,
      "Ճ": 623,
      "Մ": 624,
      "Ն": 625,
      "Շ": 626,
      "Ո": 627,
      "Չ": 628,
      "Պ": 629,
      "Ռ": 630,
      "Ս": 631,
      "Վ": 632,
      "Տ": 633,
      "Ր": 634,
      "Փ": 635,
      "Ք": 636,
      "Օ": 637,
      "Ֆ": 638,
      "՛": 639,
      "՜": 640,
      "ա": 641,
      "բ": 642,
      "գ": 643,
      "դ": 644,
      "ե": 645,
      "զ": 646,
      "է": 647,
      "ը": 648,
      "թ": 649,
      "ժ": 650,
      "ի": 651,
      "լ": 652,
      "խ": 653,
      "ծ": 654,
      "կ": 655,
      "հ": 656,
      "ձ": 657,
      "ղ": 658,
      "ճ": 659,
      "մ": 660,
      "յ": 661,
      "ն": 662,
      "շ": 663,
      "ո": 664,
      "չ": 665,
      "պ": 666,
      "ջ": 667,
      "ռ": 668,
      "ս": 669,
      "վ": 670,
      "տ": 671,
      "ր": 672,
      "ց": 673,
      "ւ": 674,
      "փ": 675,
      "ք": 676,
      "օ": 677,
      "ֆ": 678,
      "և": 679,
      "־": 680,
      "׀": 681,
      "׃": 682,
      "א": 683,
      "ב": 684,
      "ג": 685,
      "ד": 686,
      "ה": 687,
      "ו": 688,
      "ז": 689,
      "ח": 690,
      "ט": 691,
      "י": 692,
      "ך": 693,
      "כ": 694,
      "ל": 695,
      "ם": 696,
      "מ": 697,
      "ן": 698,
      "נ": 699,
      "ס": 700,
      "ע": 701,
      "ף": 702,
      "פ": 703,
      "ץ": 704,
      "צ": 705,
      "ק": 706,
      "ר": 707,
      "ש": 708,
      "ת": 709,
      "װ": 710,
      "ױ": 711,
      "ײ": 712,
      "׳": 713,
      "״": 714,
      "،": 715,
      "؛": 716,
      "؟": 717,
      "ء": 718,
      "ا": 719,
      "ب": 720,
      "ة": 721,
      "ت": 722,
      "ث": 723,
      "ج": 724,
      "ح": 725,
      "خ": 726,
      "د": 727,
      "ذ": 728,
      "ر": 729,
      "ز": 730,
      "س": 731,
      "ش": 732,
      "ص": 733,
      "ض": 734,
      "ط": 735,
      "ظ": 736,
      "ع": 737,
      "غ": 738,
      "ـ": 739,
      "ف": 740,
      "ق": 741,
      "ك": 742,
      "ل": 743,
      "م": 744,
      "ن": 745,
      "ه": 746,
      "و": 747,
      "ى": 748,
      "ي": 749,
      "٠": 750,
      "١": 751,
      "٢": 752,
      "٣": 753,
      "٤": 754,
      "٥": 755,
      "٦": 756,
      "٧": 757,
      "٨": 758,
      "٩": 759,
      "٪": 760,
      "٭": 761,
      "ٮ": 762,
      "ٱ": 763,
      "ٲ": 764,
      "ٳ": 765,
      "ٴ": 766,
      "ٹ": 767,
      "ټ": 768,
      "ٽ": 769,
      "پ": 770,
      "ڀ": 771,
      "ځ": 772,
      "څ": 773,
      "چ": 774,
      "ڈ": 775,
      "ډ": 776,
      "ڊ": 777,
      "ڌ": 778,
      "ڑ": 779,
      "ړ": 780,
      "ڕ": 781,
      "ږ": 782,
      "ژ": 783,
      "ښ": 784,
      "ڛ": 785,
      "ڟ": 786,
      "ڠ": 787,
      "ڤ": 788,
      "ک": 789,
      "ڪ": 790,
      "ګ": 791,
      "ڭ": 792,
      "گ": 793,
      "ڵ": 794,
      "ڹ": 795,
      "ں": 796,
      "ڼ": 797,
      "ھ": 798,
      "ہ": 799,
      "ۃ": 800,
      "ۆ": 801,
      "ۇ": 802,
      "ۈ": 803,
      "ۋ": 804,
      "ی": 805,
      "ۍ": 806,
      "ێ": 807,
      "ې": 808,
      "ے": 809,
      "۔": 810,
      "ە": 811,
      "۞": 812,
      "ۥ": 813,
      "ۦ": 814,
      "۩": 815,
      "۰": 816,
      "۱": 817,
      "۲": 818,
      "۳": 819,
      "۴": 820,
      "۵": 821,
      "۶": 822,
      "۷": 823,
      "۸": 824,
      "۹": 825,
      "܁": 826,
      "ܐ": 827,
      "ܒ": 828,
      "ܓ": 829,
      "ܕ": 830,
      "ܗ": 831,
      "ܘ": 832,
      "ܙ": 833,
      "ܚ": 834,
      "ܛ": 835,
      "ܝ": 836,
      "ܟ": 837,
      "ܠ": 838,
      "ܡ": 839,
      "ܢ": 840,
      "ܣ": 841,
      "ܥ": 842,
      "ܦ": 843,
      "ܨ": 844,
      "ܩ": 845,
      "ܪ": 846,
      "ܫ": 847,
      "ܬ": 848,
      "ݙ": 849,
      "ݢ": 850,
      "ݣ": 851,
      "ݰ": 852,
      "ހ": 853,
      "ނ": 854,
      "ބ": 855,
      "ޅ": 856,
      "ކ": 857,
      "އ": 858,
      "ވ": 859,
      "މ": 860,
      "ފ": 861,
      "ދ": 862,
      "ތ": 863,
      "ލ": 864,
      "ސ": 865,
      "ߊ": 866,
      "ߋ": 867,
      "ߌ": 868,
      "ߍ": 869,
      "ߎ": 870,
      "ߏ": 871,
      "ߓ": 872,
      "ߔ": 873,
      "ߕ": 874,
      "ߖ": 875,
      "ߘ": 876,
      "ߛ": 877,
      "ߜ": 878,
      "ߞ": 879,
      "ߡ": 880,
      "ߣ": 881,
      "ߥ": 882,
      "ߺ": 883,
      "ࠀ": 884,
      "ࠁ": 885,
      "ࠅ": 886,
      "ࠆ": 887,
      "ࠉ": 888,
      "ࢹ": 889,
      "࣓": 890,
      "अ": 891,
      "आ": 892,
      "इ": 893,
      "ई": 894,
      "उ": 895,
      "ऊ": 896,
      "ऋ": 897,
      "ऌ": 898,
      "ऍ": 899,
      "ए": 900,
      "ऐ": 901,
      "ऑ": 902,
      "ओ": 903,
      "औ": 904,
      "क": 905,
      "ख": 906,
      "ग": 907,
      "घ": 908,
      "ङ": 909,
      "च": 910,
      "छ": 911,
      "ज": 912,
      "झ": 913,
      "ञ": 914,
      "ट": 915,
      "ठ": 916,
      "ड": 917,
      "ढ": 918,
      "ण": 919,
      "त": 920,
      "थ": 921,
      "द": 922,
      "ध": 923,
      "न": 924,
      "प": 925,
      "फ": 926,
      "ब": 927,
      "भ": 928,
      "म": 929,
      "य": 930,
      "र": 931,
      "ल": 932,
      "ळ": 933,
      "व": 934,
      "श": 935,
      "ष": 936,
      "स": 937,
      "ह": 938,
      "ऽ": 939,
      "ॐ": 940,
      "ॠ": 941,
      "ॡ": 942,
      "।": 943,
      "॥": 944,
      "०": 945,
      "१": 946,
      "२": 947,
      "३": 948,
      "४": 949,
      "५": 950,
      "६": 951,
      "७": 952,
      "८": 953,
      "९": 954,
      "অ": 955,
      "আ": 956,
      "ই": 957,
      "ঈ": 958,
      "উ": 959,
      "ঊ": 960,
      "ঋ": 961,
      "এ": 962,
      "ঐ": 963,
      "ও": 964,
      "ক": 965,
      "খ": 966,
      "গ": 967,
      "ঘ": 968,
      "ঙ": 969,
      "চ": 970,
      "ছ": 971,
      "জ": 972,
      "ঝ": 973,
      "ঞ": 974,
      "ট": 975,
      "ঠ": 976,
      "ড": 977,
      "ঢ": 978,
      "ণ": 979,
      "ত": 980,
      "থ": 981,
      "দ": 982,
      "ধ": 983,
      "ন": 984,
      "প": 985,
      "ফ": 986,
      "ব": 987,
      "ভ": 988,
      "ম": 989,
      "য": 990,
      "র": 991,
      "ল": 992,
      "শ": 993,
      "ষ": 994,
      "স": 995,
      "হ": 996,
      "ঽ": 997,
      "ৎ": 998,
      "০": 999,
      "১": 1000,
      "২": 1001,
      "৩": 1002,
      "৪": 1003,
      "৫": 1004,
      "৬": 1005,
      "৭": 1006,
      "৮": 1007,
      "৯": 1008,
      "ৰ": 1009,
      "ৱ": 1010,
      "৳": 1011,
      "ਅ": 1012,
      "ਆ": 1013,
      "ਇ": 1014,
      "ਈ": 1015,
      "ਉ": 1016,
      "ਊ": 1017,
      "ਏ": 1018,
      "ਐ": 1019,
      "ਓ": 1020,
      "ਔ": 1021,
      "ਕ": 1022,
      "ਖ": 1023,
      "ਗ": 1024,
      "ਘ": 1025,
      "ਙ": 1026,
      "ਚ": 1027,
      "ਛ": 1028,
      "ਜ": 1029,
      "ਝ": 1030,
      "ਞ": 1031,
      "ਟ": 1032,
      "ਠ": 1033,
      "ਡ": 1034,
      "ਢ": 1035,
      "ਣ": 1036,
      "ਤ": 1037,
      "ਥ": 1038,
      "ਦ": 1039,
      "ਧ": 1040,
      "ਨ": 1041,
      "ਪ": 1042,
      "ਫ": 1043,
      "ਬ": 1044,
      "ਭ": 1045,
      "ਮ": 1046,
      "ਯ": 1047,
      "ਰ": 1048,
      "ਲ": 1049,
      "ਵ": 1050,
      "ਸ": 1051,
      "ਹ": 1052,
      "ੜ": 1053,
      "੩": 1054,
      "੪": 1055,
      "੫": 1056,
      "੭": 1057,
      "੮": 1058,
      "ੲ": 1059,
      "ੳ": 1060,
      "ੴ": 1061,
      "અ": 1062,
      "આ": 1063,
      "ઇ": 1064,
      "ઈ": 1065,
      "ઉ": 1066,
      "એ": 1067,
      "ઓ": 1068,
      "ક": 1069,
      "ખ": 1070,
      "ગ": 1071,
      "ચ": 1072,
      "છ": 1073,
      "જ": 1074,
      "ઝ": 1075,
      "ટ": 1076,
      "ઠ": 1077,
      "ડ": 1078,
      "ણ": 1079,
      "ત": 1080,
      "થ": 1081,
      "દ": 1082,
      "ધ": 1083,
      "ન": 1084,
      "પ": 1085,
      "ફ": 1086,
      "બ": 1087,
      "ભ": 1088,
      "મ": 1089,
      "ય": 1090,
      "ર": 1091,
      "લ": 1092,
      "ળ": 1093,
      "વ": 1094,
      "શ": 1095,
      "ષ": 1096,
      "સ": 1097,
      "હ": 1098,
      "૦": 1099,
      "૧": 1100,
      "૩": 1101,
      "૪": 1102,
      "૫": 1103,
      "૯": 1104,
      "ଆ": 1105,
      "ଇ": 1106,
      "ଈ": 1107,
      "ଉ": 1108,
      "ଓ": 1109,
      "କ": 1110,
      "ଗ": 1111,
      "ଚ": 1112,
      "ଜ": 1113,
      "ଟ": 1114,
      "ଡ": 1115,
      "ଣ": 1116,
      "ତ": 1117,
      "ଥ": 1118,
      "ଦ": 1119,
      "ନ": 1120,
      "ପ": 1121,
      "ବ": 1122,
      "ଭ": 1123,
      "ମ": 1124,
      "ଯ": 1125,
      "ର": 1126,
      "ଲ": 1127,
      "ଳ": 1128,
      "ଶ": 1129,
      "ସ": 1130,
      "ହ": 1131,
      "ୟ": 1132,
      "ୡ": 1133,
      "ୱ": 1134,
      "ஃ": 1135,
      "அ": 1136,
      "ஆ": 1137,
      "இ": 1138,
      "ஈ": 1139,
      "உ": 1140,
      "ஊ": 1141,
      "எ": 1142,
      "ஏ": 1143,
      "ஐ": 1144,
      "ஒ": 1145,
      "ஓ": 1146,
      "க": 1147,
      "ங": 1148,
      "ச": 1149,
      "ஜ": 1150,
      "ஞ": 1151,
      "ட": 1152,
      "ண": 1153,
      "த": 1154,
      "ந": 1155,
      "ன": 1156,
      "ப": 1157,
      "ம": 1158,
      "ய": 1159,
      "ர": 1160,
      "ற": 1161,
      "ல": 1162,
      "ள": 1163,
      "ழ": 1164,
      "வ": 1165,
      "ஶ": 1166,
      "ஷ": 1167,
      "ஸ": 1168,
      "ஹ": 1169,
      "అ": 1170,
      "ఆ": 1171,
      "ఇ": 1172,
      "ఈ": 1173,
      "ఉ": 1174,
      "ఊ": 1175,
      "ఎ": 1176,
      "ఏ": 1177,
      "ఐ": 1178,
      "ఒ": 1179,
      "ఓ": 1180,
      "క": 1181,
      "ఖ": 1182,
      "గ": 1183,
      "ఘ": 1184,
      "చ": 1185,
      "జ": 1186,
      "ట": 1187,
      "ఠ": 1188,
      "డ": 1189,
      "ణ": 1190,
      "త": 1191,
      "థ": 1192,
      "ద": 1193,
      "ధ": 1194,
      "న": 1195,
      "ప": 1196,
      "ఫ": 1197,
      "బ": 1198,
      "భ": 1199,
      "మ": 1200,
      "య": 1201,
      "ర": 1202,
      "ల": 1203,
      "ళ": 1204,
      "వ": 1205,
      "శ": 1206,
      "ష": 1207,
      "స": 1208,
      "హ": 1209,
      "ಅ": 1210,
      "ಆ": 1211,
      "ಇ": 1212,
      "ಈ": 1213,
      "ಉ": 1214,
      "ಎ": 1215,
      "ಏ": 1216,
      "ಒ": 1217,
      "ಓ": 1218,
      "ಕ": 1219,
      "ಖ": 1220,
      "ಗ": 1221,
      "ಘ": 1222,
      "ಚ": 1223,
      "ಜ": 1224,
      "ಞ": 1225,
      "ಟ": 1226,
      "ಠ": 1227,
      "ಡ": 1228,
      "ಣ": 1229,
      "ತ": 1230,
      "ಥ": 1231,
      "ದ": 1232,
      "ಧ": 1233,
      "ನ": 1234,
      "ಪ": 1235,
      "ಫ": 1236,
      "ಬ": 1237,
      "ಭ": 1238,
      "ಮ": 1239,
      "ಯ": 1240,
      "ರ": 1241,
      "ಲ": 1242,
      "ಳ": 1243,
      "ವ": 1244,
      "ಶ": 1245,
      "ಷ": 1246,
      "ಸ": 1247,
      "ಹ": 1248,
      "೦": 1249,
      "അ": 1250,
      "ആ": 1251,
      "ഇ": 1252,
      "ഉ": 1253,
      "ഊ": 1254,
      "എ": 1255,
      "ഐ": 1256,
      "ഒ": 1257,
      "ഓ": 1258,
      "ക": 1259,
      "ഗ": 1260,
      "ഘ": 1261,
      "ങ": 1262,
      "ച": 1263,
      "ഛ": 1264,
      "ജ": 1265,
      "ഞ": 1266,
      "ട": 1267,
      "ഠ": 1268,
      "ഡ": 1269,
      "ണ": 1270,
      "ത": 1271,
      "ഥ": 1272,
      "ദ": 1273,
      "ധ": 1274,
      "ന": 1275,
      "പ": 1276,
      "ഫ": 1277,
      "ബ": 1278,
      "ഭ": 1279,
      "മ": 1280,
      "യ": 1281,
      "ര": 1282,
      "റ": 1283,
      "ല": 1284,
      "ള": 1285,
      "ഴ": 1286,
      "വ": 1287,
      "ശ": 1288,
      "ഷ": 1289,
      "സ": 1290,
      "ഹ": 1291,
      "൩": 1292,
      "ൻ": 1293,
      "ർ": 1294,
      "ൽ": 1295,
      "ൾ": 1296,
      "අ": 1297,
      "ආ": 1298,
      "ඇ": 1299,
      "ඈ": 1300,
      "උ": 1301,
      "ඌ": 1302,
      "එ": 1303,
      "ඒ": 1304,
      "ඔ": 1305,
      "ඕ": 1306,
      "ක": 1307,
      "ඛ": 1308,
      "ග": 1309,
      "ඟ": 1310,
      "ච": 1311,
      "ජ": 1312,
      "ට": 1313,
      "ඨ": 1314,
      "ඩ": 1315,
      "ණ": 1316,
      "ත": 1317,
      "ථ": 1318,
      "ද": 1319,
      "ධ": 1320,
      "න": 1321,
      "ඳ": 1322,
      "ප": 1323,
      "ඵ": 1324,
      "බ": 1325,
      "භ": 1326,
      "ම": 1327,
      "ඹ": 1328,
      "ය": 1329,
      "ර": 1330,
      "ල": 1331,
      "ව": 1332,
      "ශ": 1333,
      "ෂ": 1334,
      "ස": 1335,
      "හ": 1336,
      "ළ": 1337,
      "ෆ": 1338,
      "෴": 1339,
      "ก": 1340,
      "ข": 1341,
      "ค": 1342,
      "ฆ": 1343,
      "ง": 1344,
      "จ": 1345,
      "ฉ": 1346,
      "ช": 1347,
      "ซ": 1348,
      "ฌ": 1349,
      "ญ": 1350,
      "ฎ": 1351,
      "ฏ": 1352,
      "ฐ": 1353,
      "ฑ": 1354,
      "ฒ": 1355,
      "ณ": 1356,
      "ด": 1357,
      "ต": 1358,
      "ถ": 1359,
      "ท": 1360,
      "ธ": 1361,
      "น": 1362,
      "บ": 1363,
      "ป": 1364,
      "ผ": 1365,
      "ฝ": 1366,
      "พ": 1367,
      "ฟ": 1368,
      "ภ": 1369,
      "ม": 1370,
      "ย": 1371,
      "ร": 1372,
      "ฤ": 1373,
      "ล": 1374,
      "ว": 1375,
      "ศ": 1376,
      "ษ": 1377,
      "ส": 1378,
      "ห": 1379,
      "ฬ": 1380,
      "อ": 1381,
      "ฮ": 1382,
      "ฯ": 1383,
      "ะ": 1384,
      "า": 1385,
      "ำ": 1386,
      "฿": 1387,
      "เ": 1388,
      "แ": 1389,
      "โ": 1390,
      "ใ": 1391,
      "ไ": 1392,
      "ๆ": 1393,
      "๐": 1394,
      "๑": 1395,
      "๒": 1396,
      "๓": 1397,
      "๔": 1398,
      "๕": 1399,
      "๖": 1400,
      "๗": 1401,
      "๘": 1402,
      "๙": 1403,
      "๛": 1404,
      "ກ": 1405,
      "ຂ": 1406,
      "ຄ": 1407,
      "ງ": 1408,
      "ຈ": 1409,
      "ຊ": 1410,
      "ດ": 1411,
      "ຕ": 1412,
      "ຖ": 1413,
      "ທ": 1414,
      "ນ": 1415,
      "ບ": 1416,
      "ປ": 1417,
      "ຜ": 1418,
      "ພ": 1419,
      "ມ": 1420,
      "ຢ": 1421,
      "ລ": 1422,
      "ວ": 1423,
      "ສ": 1424,
      "ຫ": 1425,
      "ອ": 1426,
      "ຮ": 1427,
      "ະ": 1428,
      "າ": 1429,
      "ຳ": 1430,
      "ຽ": 1431,
      "ເ": 1432,
      "ແ": 1433,
      "ໄ": 1434,
      "ໜ": 1435,
      "༄": 1436,
      "་": 1437,
      "༌": 1438,
      "།": 1439,
      "༠": 1440,
      "༡": 1441,
      "༢": 1442,
      "༣": 1443,
      "༤": 1444,
      "༥": 1445,
      "༦": 1446,
      "༧": 1447,
      "༨": 1448,
      "༩": 1449,
      "༯": 1450,
      "༰": 1451,
      "༼": 1452,
      "༽": 1453,
      "ཀ": 1454,
      "ཁ": 1455,
      "ག": 1456,
      "ང": 1457,
      "ཅ": 1458,
      "ཆ": 1459,
      "ཇ": 1460,
      "ཉ": 1461,
      "ཎ": 1462,
      "ཏ": 1463,
      "ཐ": 1464,
      "ད": 1465,
      "ན": 1466,
      "པ": 1467,
      "ཕ": 1468,
      "བ": 1469,
      "མ": 1470,
      "ཙ": 1471,
      "ཚ": 1472,
      "ཛ": 1473,
      "ཝ": 1474,
      "ཞ": 1475,
      "ཟ": 1476,
      "འ": 1477,
      "ཡ": 1478,
      "ར": 1479,
      "ལ": 1480,
      "ཤ": 1481,
      "ས": 1482,
      "ཧ": 1483,
      "ཨ": 1484,
      "က": 1485,
      "ခ": 1486,
      "ဂ": 1487,
      "င": 1488,
      "စ": 1489,
      "ဆ": 1490,
      "ဇ": 1491,
      "ဉ": 1492,
      "ည": 1493,
      "ဌ": 1494,
      "တ": 1495,
      "ထ": 1496,
      "ဒ": 1497,
      "ဓ": 1498,
      "န": 1499,
      "ပ": 1500,
      "ဖ": 1501,
      "ဗ": 1502,
      "ဘ": 1503,
      "မ": 1504,
      "ယ": 1505,
      "ရ": 1506,
      "လ": 1507,
      "ဝ": 1508,
      "သ": 1509,
      "ဟ": 1510,
      "အ": 1511,
      "ဥ": 1512,
      "ဩ": 1513,
      "၀": 1514,
      "၁": 1515,
      "၂": 1516,
      "၃": 1517,
      "၄": 1518,
      "၅": 1519,
      "၆": 1520,
      "၇": 1521,
      "၈": 1522,
      "၉": 1523,
      "၊": 1524,
      "။": 1525,
      "၌": 1526,
      "၎": 1527,
      "၏": 1528,
      "ၼ": 1529,
      "ၾ": 1530,
      "ႁ": 1531,
      "႔": 1532,
      "ა": 1533,
      "ბ": 1534,
      "გ": 1535,
      "დ": 1536,
      "ე": 1537,
      "ვ": 1538,
      "ზ": 1539,
      "თ": 1540,
      "ი": 1541,
      "კ": 1542,
      "ლ": 1543,
      "მ": 1544,
      "ნ": 1545,
      "ო": 1546,
      "პ": 1547,
      "ჟ": 1548,
      "რ": 1549,
      "ს": 1550,
      "ტ": 1551,
      "უ": 1552,
      "ფ": 1553,
      "ქ": 1554,
      "ღ": 1555,
      "ყ": 1556,
      "შ": 1557,
      "ჩ": 1558,
      "ც": 1559,
      "ძ": 1560,
      "წ": 1561,
      "ჭ": 1562,
      "ხ": 1563,
      "ჯ": 1564,
      "ჰ": 1565,
      "჻": 1566,
      "ᄀ": 1567,
      "ᄁ": 1568,
      "ᄂ": 1569,
      "ᄃ": 1570,
      "ᄄ": 1571,
      "ᄅ": 1572,
      "ᄆ": 1573,
      "ᄇ": 1574,
      "ᄈ": 1575,
      "ᄉ": 1576,
      "ᄊ": 1577,
      "ᄋ": 1578,
      "ᄌ": 1579,
      "ᄍ": 1580,
      "ᄎ": 1581,
      "ᄏ": 1582,
      "ᄐ": 1583,
      "ᄑ": 1584,
      "ᄒ": 1585,
      "ᅉ": 1586,
      "ᅙ": 1587,
      "ᅟ": 1588,
      "ᅡ": 1589,
      "ᅢ": 1590,
      "ᅣ": 1591,
      "ᅥ": 1592,
      "ᅦ": 1593,
      "ᅧ": 1594,
      "ᅨ": 1595,
      "ᅩ": 1596,
      "ᅪ": 1597,
      "ᅫ": 1598,
      "ᅬ": 1599,
      "ᅭ": 1600,
      "ᅮ": 1601,
      "ᅯ": 1602,
      "ᅰ": 1603,
      "ᅱ": 1604,
      "ᅲ": 1605,
      "ᅳ": 1606,
      "ᅴ": 1607,
      "ᅵ": 1608,
      "ᆨ": 1609,
      "ᆩ": 1610,
      "ᆪ": 1611,
      "ᆫ": 1612,
      "ᆭ": 1613,
      "ᆮ": 1614,
      "ᆯ": 1615,
      "ᆰ": 1616,
      "ᆱ": 1617,
      "ᆲ": 1618,
      "ᆵ": 1619,
      "ᆶ": 1620,
      "ᆷ": 1621,
      "ᆸ": 1622,
      "ᆹ": 1623,
      "ᆺ": 1624,
      "ᆻ": 1625,
      "ᆼ": 1626,
      "ᆽ": 1627,
      "ᆾ": 1628,
      "ᆿ": 1629,
      "ᇀ": 1630,
      "ᇁ": 1631,
      "ᇂ": 1632,
      "ᇰ": 1633,
      "ሀ": 1634,
      "ሁ": 1635,
      "ሂ": 1636,
      "ሃ": 1637,
      "ህ": 1638,
      "ሆ": 1639,
      "ለ": 1640,
      "ሉ": 1641,
      "ሊ": 1642,
      "ላ": 1643,
      "ሌ": 1644,
      "ል": 1645,
      "ሎ": 1646,
      "ሑ": 1647,
      "ሕ": 1648,
      "መ": 1649,
      "ሙ": 1650,
      "ሚ": 1651,
      "ማ": 1652,
      "ሜ": 1653,
      "ም": 1654,
      "ሞ": 1655,
      "ሠ": 1656,
      "ሥ": 1657,
      "ረ": 1658,
      "ሪ": 1659,
      "ራ": 1660,
      "ሬ": 1661,
      "ር": 1662,
      "ሮ": 1663,
      "ሰ": 1664,
      "ሲ": 1665,
      "ሳ": 1666,
      "ሴ": 1667,
      "ስ": 1668,
      "ሸ": 1669,
      "ሻ": 1670,
      "ሽ": 1671,
      "ቀ": 1672,
      "ቂ": 1673,
      "ቃ": 1674,
      "ቄ": 1675,
      "ቅ": 1676,
      "ቆ": 1677,
      "ቈ": 1678,
      "ቊ": 1679,
      "ቐ": 1680,
      "ቚ": 1681,
      "ቛ": 1682,
      "በ": 1683,
      "ቡ": 1684,
      "ባ": 1685,
      "ቤ": 1686,
      "ብ": 1687,
      "ቦ": 1688,
      "ቪ": 1689,
      "ተ": 1690,
      "ታ": 1691,
      "ቴ": 1692,
      "ት": 1693,
      "ቶ": 1694,
      "ቹ": 1695,
      "ቻ": 1696,
      "ች": 1697,
      "ኅ": 1698,
      "ነ": 1699,
      "ኑ": 1700,
      "ኒ": 1701,
      "ና": 1702,
      "ን": 1703,
      "ኘ": 1704,
      "ኛ": 1705,
      "አ": 1706,
      "ኢ": 1707,
      "ኣ": 1708,
      "ኤ": 1709,
      "እ": 1710,
      "ከ": 1711,
      "ኩ": 1712,
      "ካ": 1713,
      "ክ": 1714,
      "ኮ": 1715,
      "ኸ": 1716,
      "ወ": 1717,
      "ዊ": 1718,
      "ዋ": 1719,
      "ው": 1720,
      "ዎ": 1721,
      "ዐ": 1722,
      "ዑ": 1723,
      "ዓ": 1724,
      "ዕ": 1725,
      "ዖ": 1726,
      "ዘ": 1727,
      "ዚ": 1728,
      "ዛ": 1729,
      "ዜ": 1730,
      "ዝ": 1731,
      "ዞ": 1732,
      "ዥ": 1733,
      "የ": 1734,
      "ያ": 1735,
      "ይ": 1736,
      "ዮ": 1737,
      "ደ": 1738,
      "ዱ": 1739,
      "ዲ": 1740,
      "ዳ": 1741,
      "ድ": 1742,
      "ጁ": 1743,
      "ጅ": 1744,
      "ጆ": 1745,
      "ገ": 1746,
      "ጉ": 1747,
      "ጊ": 1748,
      "ጋ": 1749,
      "ግ": 1750,
      "ጎ": 1751,
      "ጐ": 1752,
      "ጕ": 1753,
      "ጠ": 1754,
      "ጣ": 1755,
      "ጥ": 1756,
      "ጦ": 1757,
      "ጨ": 1758,
      "ጭ": 1759,
      "ጵ": 1760,
      "ጸ": 1761,
      "ጻ": 1762,
      "ጼ": 1763,
      "ጽ": 1764,
      "ፃ": 1765,
      "ፅ": 1766,
      "ፈ": 1767,
      "ፋ": 1768,
      "ፍ": 1769,
      "ፐ": 1770,
      "ፑ": 1771,
      "ፒ": 1772,
      "ፓ": 1773,
      "ፔ": 1774,
      "ፕ": 1775,
      "ፖ": 1776,
      "ፗ": 1777,
      "፡": 1778,
      "።": 1779,
      "፣": 1780,
      "Ꭰ": 1781,
      "Ꭱ": 1782,
      "Ꭲ": 1783,
      "Ꭳ": 1784,
      "Ꭴ": 1785,
      "Ꭵ": 1786,
      "Ꭶ": 1787,
      "Ꭷ": 1788,
      "Ꭸ": 1789,
      "Ꭹ": 1790,
      "Ꭺ": 1791,
      "Ꭻ": 1792,
      "Ꭼ": 1793,
      "Ꭽ": 1794,
      "Ꭾ": 1795,
      "Ꭿ": 1796,
      "Ꮀ": 1797,
      "Ꮁ": 1798,
      "Ꮂ": 1799,
      "Ꮃ": 1800,
      "Ꮄ": 1801,
      "Ꮅ": 1802,
      "Ꮆ": 1803,
      "Ꮇ": 1804,
      "Ꮈ": 1805,
      "Ꮉ": 1806,
      "Ꮎ": 1807,
      "Ꮏ": 1808,
      "Ꮐ": 1809,
      "Ꮑ": 1810,
      "Ꮒ": 1811,
      "Ꮓ": 1812,
      "Ꮔ": 1813,
      "Ꮕ": 1814,
      "Ꮖ": 1815,
      "Ꮘ": 1816,
      "Ꮙ": 1817,
      "Ꮚ": 1818,
      "Ꮜ": 1819,
      "Ꮝ": 1820,
      "Ꮞ": 1821,
      "Ꮟ": 1822,
      "Ꮠ": 1823,
      "Ꮡ": 1824,
      "Ꮢ": 1825,
      "Ꮣ": 1826,
      "Ꮤ": 1827,
      "Ꮥ": 1828,
      "Ꮦ": 1829,
      "Ꮧ": 1830,
      "Ꮨ": 1831,
      "Ꮩ": 1832,
      "Ꮪ": 1833,
      "Ꮫ": 1834,
      "Ꮬ": 1835,
      "Ꮭ": 1836,
      "Ꮯ": 1837,
      "Ꮰ": 1838,
      "Ꮲ": 1839,
      "Ꮳ": 1840,
      "Ꮴ": 1841,
      "Ꮵ": 1842,
      "Ꮶ": 1843,
      "Ꮷ": 1844,
      "Ꮸ": 1845,
      "Ꮹ": 1846,
      "Ꮺ": 1847,
      "Ꮻ": 1848,
      "Ꮼ": 1849,
      "Ꮽ": 1850,
      "Ꮾ": 1851,
      "Ꮿ": 1852,
      "Ᏸ": 1853,
      "Ᏹ": 1854,
      "Ᏺ": 1855,
      "Ᏻ": 1856,
      "Ᏼ": 1857,
      "ᐃ": 1858,
      "ᐄ": 1859,
      "ᐅ": 1860,
      "ᐊ": 1861,
      "ᐋ": 1862,
      "ᐣ": 1863,
      "ᐤ": 1864,
      "ᐦ": 1865,
      "ᐧ": 1866,
      "ᐳ": 1867,
      "ᐹ": 1868,
      "ᐺ": 1869,
      "ᑌ": 1870,
      "ᑎ": 1871,
      "ᑏ": 1872,
      "ᑐ": 1873,
      "ᑕ": 1874,
      "ᑖ": 1875,
      "ᑦ": 1876,
      "ᑭ": 1877,
      "ᑯ": 1878,
      "ᑲ": 1879,
      "ᑳ": 1880,
      "ᒀ": 1881,
      "ᒃ": 1882,
      "ᒄ": 1883,
      "ᒋ": 1884,
      "ᒌ": 1885,
      "ᒑ": 1886,
      "ᒡ": 1887,
      "ᒥ": 1888,
      "ᒧ": 1889,
      "ᒪ": 1890,
      "ᒫ": 1891,
      "ᒼ": 1892,
      "ᓀ": 1893,
      "ᓁ": 1894,
      "ᓂ": 1895,
      "ᓃ": 1896,
      "ᓄ": 1897,
      "ᓅ": 1898,
      "ᓇ": 1899,
      "ᓈ": 1900,
      "ᓐ": 1901,
      "ᓔ": 1902,
      "ᓗ": 1903,
      "ᓯ": 1904,
      "ᓱ": 1905,
      "ᓴ": 1906,
      "ᔅ": 1907,
      "ᔖ": 1908,
      "ᔥ": 1909,
      "ᔨ": 1910,
      "ᔪ": 1911,
      "ᔮ": 1912,
      "ᕄ": 1913,
      "ᕐ": 1914,
      "ᕕ": 1915,
      "ᕗ": 1916,
      "ᖅ": 1917,
      "ᖇ": 1918,
      "ᖑ": 1919,
      "ᖕ": 1920,
      "ᗸ": 1921,
      "ᘯ": 1922,
      "᙮": 1923,
      "ᙱ": 1924,
      "ᙳ": 1925,
      "ᚠ": 1926,
      "ᚢ": 1927,
      "ᚦ": 1928,
      "ᚨ": 1929,
      "ᚮ": 1930,
      "ᚯ": 1931,
      "ᚱ": 1932,
      "ᚲ": 1933,
      "ᚴ": 1934,
      "ᚵ": 1935,
      "ᚷ": 1936,
      "ᚹ": 1937,
      "ᚺ": 1938,
      "ᚻ": 1939,
      "ᚼ": 1940,
      "ᚽ": 1941,
      "ᚾ": 1942,
      "ᚿ": 1943,
      "ᛁ": 1944,
      "ᛃ": 1945,
      "ᛅ": 1946,
      "ᛆ": 1947,
      "ᛇ": 1948,
      "ᛈ": 1949,
      "ᛉ": 1950,
      "ᛊ": 1951,
      "ᛋ": 1952,
      "ᛏ": 1953,
      "ᛒ": 1954,
      "ᛕ": 1955,
      "ᛖ": 1956,
      "ᛗ": 1957,
      "ᛘ": 1958,
      "ᛚ": 1959,
      "ᛜ": 1960,
      "ᛞ": 1961,
      "ᛟ": 1962,
      "ᛦ": 1963,
      "ᜂ": 1964,
      "ᜃ": 1965,
      "ᜉ": 1966,
      "ᜋ": 1967,
      "ក": 1968,
      "ខ": 1969,
      "គ": 1970,
      "ឃ": 1971,
      "ង": 1972,
      "ច": 1973,
      "ឆ": 1974,
      "ជ": 1975,
      "ញ": 1976,
      "ដ": 1977,
      "ឋ": 1978,
      "ណ": 1979,
      "ត": 1980,
      "ថ": 1981,
      "ទ": 1982,
      "ធ": 1983,
      "ន": 1984,
      "ប": 1985,
      "ផ": 1986,
      "ព": 1987,
      "ភ": 1988,
      "ម": 1989,
      "យ": 1990,
      "រ": 1991,
      "ល": 1992,
      "វ": 1993,
      "ស": 1994,
      "ហ": 1995,
      "ឡ": 1996,
      "អ": 1997,
      "ឥ": 1998,
      "ឧ": 1999,
      "ឬ": 2000,
      "ឱ": 2001,
      "។": 2002,
      "៖": 2003,
      "៛": 2004,
      "ᠠ": 2005,
      "ᠡ": 2006,
      "ᠢ": 2007,
      "ᠣ": 2008,
      "ᠥ": 2009,
      "ᠦ": 2010,
      "ᠨ": 2011,
      "ᠩ": 2012,
      "ᠪ": 2013,
      "ᠬ": 2014,
      "ᠭ": 2015,
      "ᠮ": 2016,
      "ᠯ": 2017,
      "ᠰ": 2018,
      "ᠱ": 2019,
      "ᠲ": 2020,
      "ᠳ": 2021,
      "ᠴ": 2022,
      "ᠵ": 2023,
      "ᠶ": 2024,
      "ᠷ": 2025,
      "ᠸ": 2026,
      "ᡅ": 2027,
      "ᡆ": 2028,
      "ᡋ": 2029,
      "ᡎ": 2030,
      "ᡐ": 2031,
      "ᡑ": 2032,
      "ᡔ": 2033,
      "ᡝ": 2034,
      "ᡠ": 2035,
      "ᡡ": 2036,
      "ᡤ": 2037,
      "ᡥ": 2038,
      "ᡧ": 2039,
      "ᡨ": 2040,
      "ᡩ": 2041,
      "ᡳ": 2042,
      "ᡴ": 2043,
      "ᡵ": 2044,
      "ᡶ": 2045,
      "ᤌ": 2046,
      "ᤐ": 2047,
      "ᤕ": 2048,
      "ᥒ": 2049,
      "ᦈ": 2050,
      "ᦉ": 2051,
      "ᦋ": 2052,
      "ᦑ": 2053,
      "ᦓ": 2054,
      "ᦗ": 2055,
      "ᦘ": 2056,
      "ᦱ": 2057,
      "ᦲ": 2058,
      "ᦵ": 2059,
      "ᦹ": 2060,
      "ᦺ": 2061,
      "ᧁ": 2062,
      "ᧃ": 2063,
      "ᧈ": 2064,
      "᧑": 2065,
      "᧒": 2066,
      "ᨦ": 2067,
      "ᨶ": 2068,
      "ᨷ": 2069,
      "ᨻ": 2070,
      "ᩈ": 2071,
      "ᩋ": 2072,
      "ᮌ": 2073,
      "ᮏ": 2074,
      "ᮕ": 2075,
      "ᮜ": 2076,
      "ᮝ": 2077,
      "ᯝ": 2078,
      "ᱛ": 2079,
      "ᱟ": 2080,
      "ᱤ": 2081,
      "ᱥ": 2082,
      "ᱱ": 2083,
      "ᱲ": 2084,
      "ᲀ": 2085,
      "ᴀ": 2086,
      "ᴄ": 2087,
      "ᴅ": 2088,
      "ᴇ": 2089,
      "ᴉ": 2090,
      "ᴊ": 2091,
      "ᴋ": 2092,
      "ᴍ": 2093,
      "ᴏ": 2094,
      "ᴗ": 2095,
      "ᴘ": 2096,
      "ᴙ": 2097,
      "ᴛ": 2098,
      "ᴜ": 2099,
      "ᴠ": 2100,
      "ᴡ": 2101,
      "ᴢ": 2102,
      "ᴣ": 2103,
      "ᴥ": 2104,
      "ᴦ": 2105,
      "ᴧ": 2106,
      "ᴨ": 2107,
      "ᴩ": 2108,
      "ᴪ": 2109,
      "ᴰ": 2110,
      "ᴱ": 2111,
      "ᴴ": 2112,
      "ᴹ": 2113,
      "ᴼ": 2114,
      "ᴾ": 2115,
      "ᵀ": 2116,
      "ᵂ": 2117,
      "ᵄ": 2118,
      "ᵈ": 2119,
      "ᵉ": 2120,
      "ᵊ": 2121,
      "ᵌ": 2122,
      "ᵐ": 2123,
      "ᵒ": 2124,
      "ᵖ": 2125,
      "ᵗ": 2126,
      "ᵛ": 2127,
      "ᵝ": 2128,
      "ᵞ": 2129,
      "ᵟ": 2130,
      "ᵠ": 2131,
      "ᵡ": 2132,
      "ᵢ": 2133,
      "ᵤ": 2134,
      "ᵦ": 2135,
      "ᵧ": 2136,
      "ᵨ": 2137,
      "ᵩ": 2138,
      "ᵪ": 2139,
      "ᵭ": 2140,
      "ᵮ": 2141,
      "ᵱ": 2142,
      "ᵶ": 2143,
      "ᵹ": 2144,
      "ᵺ": 2145,
      "ᵻ": 2146,
      "ᵽ": 2147,
      "ᵿ": 2148,
      "ᶂ": 2149,
      "ᶈ": 2150,
      "ᶎ": 2151,
      "ᶑ": 2152,
      "ᶒ": 2153,
      "ᶜ": 2154,
      "ᶟ": 2155,
      "ᶢ": 2156,
      "ᶣ": 2157,
      "ᶲ": 2158,
      "ᶷ": 2159,
      "ᶻ": 2160,
      "ᶼ": 2161,
      "ᶽ": 2162,
      "ᶿ": 2163,
      "ẚ": 2164,
      "ẞ": 2165,
      "᾽": 2166,
      "᾿": 2167,
      "῀": 2168,
      "῾": 2169,
      "​": 2170,
      "‌": 2171,
      "‍": 2172,
      "‎": 2173,
      "‏": 2174,
      "‐": 2175,
      "‑": 2176,
      "‒": 2177,
      "–": 2178,
      "—": 2179,
      "―": 2180,
      "‖": 2181,
      "‗": 2182,
      "‘": 2183,
      "’": 2184,
      "‚": 2185,
      "‛": 2186,
      "“": 2187,
      "”": 2188,
      "„": 2189,
      "‟": 2190,
      "†": 2191,
      "‡": 2192,
      "•": 2193,
      "‣": 2194,
      "․": 2195,
      "‥": 2196,
      "…": 2197,
      "‧": 2198,
      "‪": 2199,
      "‫": 2200,
      "‬": 2201,
      "‰": 2202,
      "′": 2203,
      "″": 2204,
      "‴": 2205,
      "‶": 2206,
      "‹": 2207,
      "›": 2208,
      "※": 2209,
      "‼": 2210,
      "‽": 2211,
      "‾": 2212,
      "‿": 2213,
      "⁃": 2214,
      "⁄": 2215,
      "⁇": 2216,
      "⁊": 2217,
      "⁎": 2218,
      "⁕": 2219,
      "⁖": 2220,
      "⁚": 2221,
      "⁞": 2222,
      "⁡": 2223,
      "⁢": 2224,
      "⁰": 2225,
      "ⁱ": 2226,
      "⁴": 2227,
      "⁵": 2228,
      "⁶": 2229,
      "⁷": 2230,
      "⁸": 2231,
      "⁹": 2232,
      "⁺": 2233,
      "⁻": 2234,
      "⁼": 2235,
      "⁽": 2236,
      "⁾": 2237,
      "ⁿ": 2238,
      "₀": 2239,
      "₁": 2240,
      "₂": 2241,
      "₃": 2242,
      "₄": 2243,
      "₅": 2244,
      "₆": 2245,
      "₇": 2246,
      "₈": 2247,
      "₉": 2248,
      "₊": 2249,
      "₋": 2250,
      "₌": 2251,
      "₍": 2252,
      "₎": 2253,
      "ₑ": 2254,
      "ₓ": 2255,
      "ₖ": 2256,
      "ₗ": 2257,
      "ₙ": 2258,
      "ₜ": 2259,
      "₡": 2260,
      "₣": 2261,
      "₤": 2262,
      "₦": 2263,
      "₧": 2264,
      "₨": 2265,
      "₩": 2266,
      "₪": 2267,
      "₫": 2268,
      "€": 2269,
      "₭": 2270,
      "₮": 2271,
      "₯": 2272,
      "₱": 2273,
      "₵": 2274,
      "₹": 2275,
      "₼": 2276,
      "₽": 2277,
      "₾": 2278,
      "₿": 2279,
      "℃": 2280,
      "℅": 2281,
      "ℇ": 2282,
      "℈": 2283,
      "℉": 2284,
      "ℌ": 2285,
      "ℎ": 2286,
      "ℏ": 2287,
      "ℑ": 2288,
      "ℒ": 2289,
      "ℓ": 2290,
      "℔": 2291,
      "ℕ": 2292,
      "№": 2293,
      "℗": 2294,
      "℘": 2295,
      "ℚ": 2296,
      "ℛ": 2297,
      "ℜ": 2298,
      "ℝ": 2299,
      "℞": 2300,
      "℟": 2301,
      "℠": 2302,
      "™": 2303,
      "℣": 2304,
      "ℤ": 2305,
      "℥": 2306,
      "℧": 2307,
      "ℨ": 2308,
      "℩": 2309,
      "℮": 2310,
      "ℳ": 2311,
      "ℵ": 2312,
      "ℹ": 2313,
      "ⅇ": 2314,
      "⅋": 2315,
      "⅌": 2316,
      "⅓": 2317,
      "⅔": 2318,
      "⅕": 2319,
      "⅖": 2320,
      "⅗": 2321,
      "⅘": 2322,
      "⅙": 2323,
      "⅚": 2324,
      "⅛": 2325,
      "⅜": 2326,
      "⅝": 2327,
      "⅞": 2328,
      "⅟": 2329,
      "Ⅰ": 2330,
      "Ⅱ": 2331,
      "Ⅲ": 2332,
      "Ⅳ": 2333,
      "Ⅴ": 2334,
      "Ⅵ": 2335,
      "Ⅶ": 2336,
      "Ⅷ": 2337,
      "Ⅸ": 2338,
      "Ⅹ": 2339,
      "Ⅺ": 2340,
      "Ⅻ": 2341,
      "Ⅼ": 2342,
      "Ⅽ": 2343,
      "Ⅾ": 2344,
      "Ⅿ": 2345,
      "ⅰ": 2346,
      "ⅱ": 2347,
      "ⅲ": 2348,
      "ⅳ": 2349,
      "ⅴ": 2350,
      "Ↄ": 2351,
      "←": 2352,
      "↑": 2353,
      "→": 2354,
      "↓": 2355,
      "↔": 2356,
      "↕": 2357,
      "↖": 2358,
      "↗": 2359,
      "↘": 2360,
      "↙": 2361,
      "↠": 2362,
      "↤": 2363,
      "↥": 2364,
      "↦": 2365,
      "↩": 2366,
      "↪": 2367,
      "↰": 2368,
      "↱": 2369,
      "↲": 2370,
      "↳": 2371,
      "↴": 2372,
      "↵": 2373,
      "↷": 2374,
      "↹": 2375,
      "↻": 2376,
      "⇄": 2377,
      "⇅": 2378,
      "⇆": 2379,
      "⇋": 2380,
      "⇌": 2381,
      "⇐": 2382,
      "⇑": 2383,
      "⇒": 2384,
      "⇓": 2385,
      "⇔": 2386,
      "⇖": 2387,
      "⇗": 2388,
      "⇝": 2389,
      "⇟": 2390,
      "⇣": 2391,
      "⇥": 2392,
      "⇦": 2393,
      "⇧": 2394,
      "⇨": 2395,
      "⇩": 2396,
      "⇳": 2397,
      "∀": 2398,
      "∂": 2399,
      "∃": 2400,
      "∅": 2401,
      "∆": 2402,
      "∇": 2403,
      "∈": 2404,
      "∊": 2405,
      "∋": 2406,
      "∎": 2407,
      "∏": 2408,
      "∑": 2409,
      "−": 2410,
      "∓": 2411,
      "∕": 2412,
      "∗": 2413,
      "∘": 2414,
      "∙": 2415,
      "√": 2416,
      "∛": 2417,
      "∝": 2418,
      "∞": 2419,
      "∠": 2420,
      "∣": 2421,
      "∥": 2422,
      "∧": 2423,
      "∨": 2424,
      "∩": 2425,
      "∪": 2426,
      "∫": 2427,
      "∬": 2428,
      "∴": 2429,
      "∵": 2430,
      "∶": 2431,
      "∷": 2432,
      "∼": 2433,
      "∽": 2434,
      "≀": 2435,
      "≃": 2436,
      "≅": 2437,
      "≈": 2438,
      "≌": 2439,
      "≒": 2440,
      "≔": 2441,
      "≘": 2442,
      "≝": 2443,
      "≟": 2444,
      "≡": 2445,
      "≤": 2446,
      "≥": 2447,
      "≦": 2448,
      "≧": 2449,
      "≨": 2450,
      "≪": 2451,
      "≫": 2452,
      "≲": 2453,
      "≳": 2454,
      "≺": 2455,
      "≻": 2456,
      "≼": 2457,
      "≽": 2458,
      "⊂": 2459,
      "⊃": 2460,
      "⊆": 2461,
      "⊇": 2462,
      "⊏": 2463,
      "⊑": 2464,
      "⊓": 2465,
      "⊕": 2466,
      "⊗": 2467,
      "⊘": 2468,
      "⊙": 2469,
      "⊞": 2470,
      "⊢": 2471,
      "⊤": 2472,
      "⊥": 2473,
      "⊨": 2474,
      "⊱": 2475,
      "⊳": 2476,
      "⊸": 2477,
      "⊿": 2478,
      "⋂": 2479,
      "⋃": 2480,
      "⋄": 2481,
      "⋅": 2482,
      "⋆": 2483,
      "⋈": 2484,
      "⋖": 2485,
      "⋘": 2486,
      "⋛": 2487,
      "⋜": 2488,
      "⋦": 2489,
      "⋮": 2490,
      "⋯": 2491,
      "⋱": 2492,
      "⌀": 2493,
      "⌂": 2494,
      "⌃": 2495,
      "⌄": 2496,
      "⌈": 2497,
      "⌉": 2498,
      "⌊": 2499,
      "⌋": 2500,
      "⌗": 2501,
      "⌘": 2502,
      "⌚": 2503,
      "⌛": 2504,
      "⌜": 2505,
      "⌝": 2506,
      "⌠": 2507,
      "⌥": 2508,
      "⌨": 2509,
      "⌫": 2510,
      "⌬": 2511,
      "⌶": 2512,
      "⌷": 2513,
      "⌽": 2514,
      "⍝": 2515,
      "⍳": 2516,
      "⍴": 2517,
      "⍵": 2518,
      "⍺": 2519,
      "⍽": 2520,
      "⎈": 2521,
      "⎓": 2522,
      "⎕": 2523,
      "⎖": 2524,
      "⎗": 2525,
      "⎘": 2526,
      "⎙": 2527,
      "⎚": 2528,
      "⎛": 2529,
      "⎜": 2530,
      "⎝": 2531,
      "⎞": 2532,
      "⎟": 2533,
      "⎠": 2534,
      "⎡": 2535,
      "⎤": 2536,
      "⎧": 2537,
      "⎨": 2538,
      "⎩": 2539,
      "⎪": 2540,
      "⎫": 2541,
      "⎬": 2542,
      "⎭": 2543,
      "⎯": 2544,
      "⎷": 2545,
      "⎸": 2546,
      "⎼": 2547,
      "⏎": 2548,
      "⏐": 2549,
      "⏑": 2550,
      "⏚": 2551,
      "⏣": 2552,
      "⏤": 2553,
      "⏨": 2554,
      "⏩": 2555,
      "⏪": 2556,
      "⏫": 2557,
      "⏰": 2558,
      "⏱": 2559,
      "⏲": 2560,
      "⏳": 2561,
      "⏸": 2562,
      "␞": 2563,
      "␣": 2564,
      "␤": 2565,
      "␦": 2566,
      "①": 2567,
      "②": 2568,
      "③": 2569,
      "④": 2570,
      "⑤": 2571,
      "⑥": 2572,
      "⑦": 2573,
      "⑧": 2574,
      "⑨": 2575,
      "⑩": 2576,
      "⑴": 2577,
      "⑵": 2578,
      "⑶": 2579,
      "⑷": 2580,
      "⑸": 2581,
      "⑹": 2582,
      "⑺": 2583,
      "⑻": 2584,
      "⒈": 2585,
      "⒉": 2586,
      "⒊": 2587,
      "⒋": 2588,
      "⒌": 2589,
      "⒍": 2590,
      "⒎": 2591,
      "Ⓒ": 2592,
      "Ⓟ": 2593,
      "Ⓡ": 2594,
      "Ⓣ": 2595,
      "ⓐ": 2596,
      "ⓑ": 2597,
      "ⓒ": 2598,
      "ⓔ": 2599,
      "ⓕ": 2600,
      "ⓘ": 2601,
      "ⓡ": 2602,
      "ⓢ": 2603,
      "⓵": 2604,
      "⓽": 2605,
      "─": 2606,
      "━": 2607,
      "│": 2608,
      "┌": 2609,
      "┐": 2610,
      "└": 2611,
      "┘": 2612,
      "├": 2613,
      "┣": 2614,
      "┤": 2615,
      "┨": 2616,
      "┬": 2617,
      "┴": 2618,
      "┼": 2619,
      "╂": 2620,
      "╃": 2621,
      "═": 2622,
      "║": 2623,
      "╓": 2624,
      "╔": 2625,
      "╖": 2626,
      "╗": 2627,
      "╚": 2628,
      "╜": 2629,
      "╝": 2630,
      "╠": 2631,
      "╡": 2632,
      "╣": 2633,
      "╥": 2634,
      "╦": 2635,
      "╩": 2636,
      "╭": 2637,
      "╯": 2638,
      "╳": 2639,
      "╾": 2640,
      "▀": 2641,
      "▁": 2642,
      "▄": 2643,
      "█": 2644,
      "▌": 2645,
      "▎": 2646,
      "░": 2647,
      "▒": 2648,
      "▓": 2649,
      "■": 2650,
      "□": 2651,
      "▢": 2652,
      "▣": 2653,
      "▤": 2654,
      "▧": 2655,
      "▪": 2656,
      "▫": 2657,
      "▬": 2658,
      "▭": 2659,
      "▯": 2660,
      "▲": 2661,
      "△": 2662,
      "▴": 2663,
      "▵": 2664,
      "▶": 2665,
      "▷": 2666,
      "▸": 2667,
      "▹": 2668,
      "►": 2669,
      "▻": 2670,
      "▼": 2671,
      "▽": 2672,
      "▾": 2673,
      "▿": 2674,
      "◀": 2675,
      "◁": 2676,
      "◂": 2677,
      "◄": 2678,
      "◅": 2679,
      "◆": 2680,
      "◇": 2681,
      "◉": 2682,
      "◊": 2683,
      "○": 2684,
      "◌": 2685,
      "◎": 2686,
      "●": 2687,
      "◑": 2688,
      "◕": 2689,
      "◗": 2690,
      "◙": 2691,
      "◡": 2692,
      "◦": 2693,
      "◪": 2694,
      "◯": 2695,
      "◳": 2696,
      "◻": 2697,
      "◼": 2698,
      "◽": 2699,
      "◾": 2700,
      "☀": 2701,
      "☁": 2702,
      "☂": 2703,
      "☃": 2704,
      "☄": 2705,
      "★": 2706,
      "☆": 2707,
      "☉": 2708,
      "☎": 2709,
      "☏": 2710,
      "☐": 2711,
      "☑": 2712,
      "☒": 2713,
      "☓": 2714,
      "☔": 2715,
      "☕": 2716,
      "☗": 2717,
      "☘": 2718,
      "☙": 2719,
      "☚": 2720,
      "☛": 2721,
      "☝": 2722,
      "☞": 2723,
      "☠": 2724,
      "☢": 2725,
      "☥": 2726,
      "☧": 2727,
      "☨": 2728,
      "☪": 2729,
      "☭": 2730,
      "☮": 2731,
      "☯": 2732,
      "☰": 2733,
      "☵": 2734,
      "☶": 2735,
      "☷": 2736,
      "☸": 2737,
      "☹": 2738,
      "☺": 2739,
      "☻": 2740,
      "☼": 2741,
      "☽": 2742,
      "☾": 2743,
      "♀": 2744,
      "♂": 2745,
      "♄": 2746,
      "♅": 2747,
      "♆": 2748,
      "♇": 2749,
      "♈": 2750,
      "♉": 2751,
      "♊": 2752,
      "♋": 2753,
      "♌": 2754,
      "♍": 2755,
      "♎": 2756,
      "♏": 2757,
      "♐": 2758,
      "♑": 2759,
      "♒": 2760,
      "♓": 2761,
      "♔": 2762,
      "♕": 2763,
      "♖": 2764,
      "♗": 2765,
      "♘": 2766,
      "♙": 2767,
      "♛": 2768,
      "♟": 2769,
      "♠": 2770,
      "♡": 2771,
      "♢": 2772,
      "♣": 2773,
      "♤": 2774,
      "♥": 2775,
      "♦": 2776,
      "♧": 2777,
      "♨": 2778,
      "♩": 2779,
      "♪": 2780,
      "♫": 2781,
      "♬": 2782,
      "♭": 2783,
      "♮": 2784,
      "♯": 2785,
      "♻": 2786,
      "♾": 2787,
      "♿": 2788,
      "⚊": 2789,
      "⚋": 2790,
      "⚒": 2791,
      "⚓": 2792,
      "⚔": 2793,
      "⚕": 2794,
      "⚖": 2795,
      "⚗": 2796,
      "⚙": 2797,
      "⚛": 2798,
      "⚠": 2799,
      "⚡": 2800,
      "⚣": 2801,
      "⚦": 2802,
      "⚪": 2803,
      "⚫": 2804,
      "⚳": 2805,
      "⚵": 2806,
      "⚽": 2807,
      "⚾": 2808,
      "⛄": 2809,
      "⛅": 2810,
      "⛎": 2811,
      "⛏": 2812,
      "⛑": 2813,
      "⛔": 2814,
      "⛟": 2815,
      "⛪": 2816,
      "⛵": 2817,
      "⛷": 2818,
      "⛹": 2819,
      "⛽": 2820,
      "✂": 2821,
      "✅": 2822,
      "✆": 2823,
      "✈": 2824,
      "✉": 2825,
      "✊": 2826,
      "✋": 2827,
      "✌": 2828,
      "✍": 2829,
      "✎": 2830,
      "✏": 2831,
      "✑": 2832,
      "✒": 2833,
      "✓": 2834,
      "✔": 2835,
      "✕": 2836,
      "✖": 2837,
      "✗": 2838,
      "✘": 2839,
      "✙": 2840,
      "✝": 2841,
      "✞": 2842,
      "✠": 2843,
      "✡": 2844,
      "✤": 2845,
      "✥": 2846,
      "✦": 2847,
      "✧": 2848,
      "✨": 2849,
      "✪": 2850,
      "✫": 2851,
      "✭": 2852,
      "✰": 2853,
      "✱": 2854,
      "✳": 2855,
      "✴": 2856,
      "✵": 2857,
      "✶": 2858,
      "✷": 2859,
      "✸": 2860,
      "✹": 2861,
      "✺": 2862,
      "✻": 2863,
      "✽": 2864,
      "✿": 2865,
      "❀": 2866,
      "❂": 2867,
      "❄": 2868,
      "❅": 2869,
      "❆": 2870,
      "❉": 2871,
      "❊": 2872,
      "❋": 2873,
      "❌": 2874,
      "❍": 2875,
      "❏": 2876,
      "❐": 2877,
      "❑": 2878,
      "❒": 2879,
      "❓": 2880,
      "❔": 2881,
      "❖": 2882,
      "❗": 2883,
      "❘": 2884,
      "❙": 2885,
      "❚": 2886,
      "❛": 2887,
      "❜": 2888,
      "❝": 2889,
      "❞": 2890,
      "❡": 2891,
      "❣": 2892,
      "❤": 2893,
      "❥": 2894,
      "❦": 2895,
      "❧": 2896,
      "❮": 2897,
      "❯": 2898,
      "❰": 2899,
      "❱": 2900,
      "❶": 2901,
      "❷": 2902,
      "❸": 2903,
      "❹": 2904,
      "❺": 2905,
      "➀": 2906,
      "➁": 2907,
      "➂": 2908,
      "➊": 2909,
      "➋": 2910,
      "➌": 2911,
      "➍": 2912,
      "➎": 2913,
      "➏": 2914,
      "➔": 2915,
      "➕": 2916,
      "➖": 2917,
      "➙": 2918,
      "➚": 2919,
      "➜": 2920,
      "➝": 2921,
      "➞": 2922,
      "➟": 2923,
      "➠": 2924,
      "➡": 2925,
      "➢": 2926,
      "➤": 2927,
      "➥": 2928,
      "➦": 2929,
      "➧": 2930,
      "➨": 2931,
      "➭": 2932,
      "➯": 2933,
      "➲": 2934,
      "➺": 2935,
      "➼": 2936,
      "⟂": 2937,
      "⟜": 2938,
      "⟨": 2939,
      "⟩": 2940,
      "⟪": 2941,
      "⟶": 2942,
      "⟹": 2943,
      "⠀": 2944,
      "⠁": 2945,
      "⠂": 2946,
      "⠃": 2947,
      "⠄": 2948,
      "⠉": 2949,
      "⠊": 2950,
      "⠋": 2951,
      "⠐": 2952,
      "⠑": 2953,
      "⠓": 2954,
      "⠗": 2955,
      "⠙": 2956,
      "⠚": 2957,
      "⠛": 2958,
      "⠻": 2959,
      "⤓": 2960,
      "⤢": 2961,
      "⤴": 2962,
      "⤵": 2963,
      "⤺": 2964,
      "⥶": 2965,
      "⥷": 2966,
      "⦁": 2967,
      "⦓": 2968,
      "⦖": 2969,
      "⦵": 2970,
      "⦿": 2971,
      "⧫": 2972,
      "⧭": 2973,
      "⧼": 2974,
      "⧽": 2975,
      "⨁": 2976,
      "⨯": 2977,
      "⩽": 2978,
      "⩾": 2979,
      "⪕": 2980,
      "⪛": 2981,
      "⪟": 2982,
      "⪣": 2983,
      "⬆": 2984,
      "⬇": 2985,
      "⬖": 2986,
      "⬗": 2987,
      "⬘": 2988,
      "⬙": 2989,
      "⬜": 2990,
      "⬤": 2991,
      "⬥": 2992,
      "⭐": 2993,
      "⭕": 2994,
      "⭘": 2995,
      "⮕": 2996,
      "⮙": 2997,
      "⮚": 2998,
      "Ⰶ": 2999,
      "ⰼ": 3000,
      "Ᵽ": 3001,
      "Ⱬ": 3002,
      "ⱬ": 3003,
      "ⱱ": 3004,
      "Ⱳ": 3005,
      "ⱳ": 3006,
      "ⱷ": 3007,
      "ⱼ": 3008,
      "Ɀ": 3009,
      "Ⲁ": 3010,
      "ⲁ": 3011,
      "ⲃ": 3012,
      "ⲉ": 3013,
      "ⲏ": 3014,
      "ⲓ": 3015,
      "ⲗ": 3016,
      "ⲛ": 3017,
      "ⲟ": 3018,
      "Ⲡ": 3019,
      "ⲡ": 3020,
      "ⲣ": 3021,
      "Ⲥ": 3022,
      "ⲥ": 3023,
      "ⲧ": 3024,
      "ⲩ": 3025,
      "ⲱ": 3026,
      "ⴰ": 3027,
      "ⴻ": 3028,
      "ⵇ": 3029,
      "ⵉ": 3030,
      "ⵏ": 3031,
      "ⵙ": 3032,
      "ⵟ": 3033,
      "⸀": 3034,
      "⸮": 3035,
      "⸺": 3036,
      "⸻": 3037,
      "⺈": 3038,
      "⺘": 3039,
      "⺡": 3040,
      "⼈": 3041,
      "⿰": 3042,
      "⿱": 3043,
      "⿳": 3044,
      "⿸": 3045,
      "⿹": 3046,
      "⿺": 3047,
      "⿻": 3048,
      "、": 3049,
      "。": 3050,
      "々": 3051,
      "〆": 3052,
      "〇": 3053,
      "〈": 3054,
      "〉": 3055,
      "《": 3056,
      "》": 3057,
      "「": 3058,
      "」": 3059,
      "『": 3060,
      "』": 3061,
      "【": 3062,
      "】": 3063,
      "〒": 3064,
      "〔": 3065,
      "〕": 3066,
      "〖": 3067,
      "〗": 3068,
      "〜": 3069,
      "〞": 3070,
      "〰": 3071,
      "ぁ": 3072,
      "あ": 3073,
      "ぃ": 3074,
      "い": 3075,
      "ぅ": 3076,
      "う": 3077,
      "ぇ": 3078,
      "え": 3079,
      "ぉ": 3080,
      "お": 3081,
      "か": 3082,
      "き": 3083,
      "く": 3084,
      "け": 3085,
      "こ": 3086,
      "さ": 3087,
      "し": 3088,
      "す": 3089,
      "せ": 3090,
      "そ": 3091,
      "た": 3092,
      "ち": 3093,
      "っ": 3094,
      "つ": 3095,
      "て": 3096,
      "と": 3097,
      "な": 3098,
      "に": 3099,
      "ぬ": 3100,
      "ね": 3101,
      "の": 3102,
      "は": 3103,
      "ひ": 3104,
      "ふ": 3105,
      "へ": 3106,
      "ほ": 3107,
      "ま": 3108,
      "み": 3109,
      "む": 3110,
      "め": 3111,
      "も": 3112,
      "ゃ": 3113,
      "や": 3114,
      "ゅ": 3115,
      "ゆ": 3116,
      "ょ": 3117,
      "よ": 3118,
      "ら": 3119,
      "り": 3120,
      "る": 3121,
      "れ": 3122,
      "ろ": 3123,
      "ゎ": 3124,
      "わ": 3125,
      "ゐ": 3126,
      "ゑ": 3127,
      "を": 3128,
      "ん": 3129,
      "ァ": 3130,
      "ア": 3131,
      "ィ": 3132,
      "イ": 3133,
      "ゥ": 3134,
      "ウ": 3135,
      "ェ": 3136,
      "エ": 3137,
      "ォ": 3138,
      "オ": 3139,
      "カ": 3140,
      "キ": 3141,
      "ク": 3142,
      "ケ": 3143,
      "コ": 3144,
      "サ": 3145,
      "シ": 3146,
      "ス": 3147,
      "セ": 3148,
      "ソ": 3149,
      "タ": 3150,
      "チ": 3151,
      "ッ": 3152,
      "ツ": 3153,
      "テ": 3154,
      "ト": 3155,
      "ナ": 3156,
      "ニ": 3157,
      "ヌ": 3158,
      "ネ": 3159,
      "ノ": 3160,
      "ハ": 3161,
      "ヒ": 3162,
      "フ": 3163,
      "ヘ": 3164,
      "ホ": 3165,
      "マ": 3166,
      "ミ": 3167,
      "ム": 3168,
      "メ": 3169,
      "モ": 3170,
      "ャ": 3171,
      "ヤ": 3172,
      "ュ": 3173,
      "ユ": 3174,
      "ョ": 3175,
      "ヨ": 3176,
      "ラ": 3177,
      "リ": 3178,
      "ル": 3179,
      "レ": 3180,
      "ロ": 3181,
      "ヮ": 3182,
      "ワ": 3183,
      "ヰ": 3184,
      "ヱ": 3185,
      "ヲ": 3186,
      "ン": 3187,
      "ヵ": 3188,
      "ヶ": 3189,
      "・": 3190,
      "ー": 3191,
      "ヽ": 3192,
      "ㄅ": 3193,
      "ㄆ": 3194,
      "ㄇ": 3195,
      "ㄉ": 3196,
      "ㄊ": 3197,
      "ㄋ": 3198,
      "ㄍ": 3199,
      "ㄎ": 3200,
      "ㄏ": 3201,
      "ㄐ": 3202,
      "ㄑ": 3203,
      "ㄒ": 3204,
      "ㄓ": 3205,
      "ㄖ": 3206,
      "ㄘ": 3207,
      "ㄚ": 3208,
      "ㄜ": 3209,
      "ㄝ": 3210,
      "ㄞ": 3211,
      "ㄠ": 3212,
      "ㄡ": 3213,
      "ㄢ": 3214,
      "ㄣ": 3215,
      "ㄥ": 3216,
      "ㄧ": 3217,
      "ㄨ": 3218,
      "ㄩ": 3219,
      "ㄱ": 3220,
      "ㄲ": 3221,
      "ㄴ": 3222,
      "ㄷ": 3223,
      "ㄸ": 3224,
      "ㄹ": 3225,
      "ㅁ": 3226,
      "ㅂ": 3227,
      "ㅃ": 3228,
      "ㅅ": 3229,
      "ㅆ": 3230,
      "ㅇ": 3231,
      "ㅈ": 3232,
      "ㅉ": 3233,
      "ㅊ": 3234,
      "ㅋ": 3235,
      "ㅌ": 3236,
      "ㅍ": 3237,
      "ㅎ": 3238,
      "ㅏ": 3239,
      "ㅐ": 3240,
      "ㅑ": 3241,
      "ㅒ": 3242,
      "ㅓ": 3243,
      "ㅔ": 3244,
      "ㅕ": 3245,
      "ㅖ": 3246,
      "ㅗ": 3247,
      "ㅘ": 3248,
      "ㅙ": 3249,
      "ㅚ": 3250,
      "ㅛ": 3251,
      "ㅜ": 3252,
      "ㅝ": 3253,
      "ㅞ": 3254,
      "ㅟ": 3255,
      "ㅠ": 3256,
      "ㅡ": 3257,
      "ㅢ": 3258,
      "ㅣ": 3259,
      "ㆍ": 3260,
      "㇁": 3261,
      "㇐": 3262,
      "㇓": 3263,
      "ㇰ": 3264,
      "ㇱ": 3265,
      "ㇲ": 3266,
      "ㇳ": 3267,
      "ㇴ": 3268,
      "ㇵ": 3269,
      "ㇶ": 3270,
      "ㇷ": 3271,
      "ㇸ": 3272,
      "ㇹ": 3273,
      "ㇺ": 3274,
      "ㇻ": 3275,
      "ㇼ": 3276,
      "ㇽ": 3277,
      "ㇾ": 3278,
      "ㇿ": 3279,
      "㈀": 3280,
      "㈱": 3281,
      "㉦": 3282,
      "㉭": 3283,
      "㋛": 3284,
      "㎁": 3285,
      "㎃": 3286,
      "㎛": 3287,
      "㎜": 3288,
      "㎝": 3289,
      "㎠": 3290,
      "㎡": 3291,
      "㎢": 3292,
      "㎤": 3293,
      "㎥": 3294,
      "㎷": 3295,
      "㎽": 3296,
      "㑤": 3297,
      "㒼": 3298,
      "㤀": 3299,
      "㨡": 3300,
      "㪴": 3301,
      "㪶": 3302,
      "㬢": 3303,
      "㭺": 3304,
      "㷁": 3305,
      "㹂": 3306,
      "䟆": 3307,
      "䮤": 3308,
      "䯬": 3309,
      "䰦": 3310,
      "䷃": 3311,
      "一": 3312,
      "丁": 3313,
      "七": 3314,
      "万": 3315,
      "丈": 3316,
      "三": 3317,
      "上": 3318,
      "下": 3319,
      "不": 3320,
      "与": 3321,
      "丐": 3322,
      "丑": 3323,
      "专": 3324,
      "且": 3325,
      "世": 3326,
      "丘": 3327,
      "丙": 3328,
      "业": 3329,
      "东": 3330,
      "丝": 3331,
      "丞": 3332,
      "丟": 3333,
      "両": 3334,
      "丢": 3335,
      "两": 3336,
      "严": 3337,
      "並": 3338,
      "丧": 3339,
      "丨": 3340,
      "个": 3341,
      "中": 3342,
      "丰": 3343,
      "串": 3344,
      "临": 3345,
      "丶": 3346,
      "丸": 3347,
      "丹": 3348,
      "为": 3349,
      "主": 3350,
      "丼": 3351,
      "丽": 3352,
      "举": 3353,
      "丿": 3354,
      "乀": 3355,
      "乂": 3356,
      "乃": 3357,
      "久": 3358,
      "么": 3359,
      "义": 3360,
      "之": 3361,
      "乌": 3362,
      "乎": 3363,
      "乏": 3364,
      "乐": 3365,
      "乔": 3366,
      "乖": 3367,
      "乗": 3368,
      "乘": 3369,
      "乙": 3370,
      "乚": 3371,
      "九": 3372,
      "乞": 3373,
      "也": 3374,
      "习": 3375,
      "乡": 3376,
      "书": 3377,
      "买": 3378,
      "乱": 3379,
      "乳": 3380,
      "乾": 3381,
      "亀": 3382,
      "亂": 3383,
      "了": 3384,
      "亇": 3385,
      "予": 3386,
      "争": 3387,
      "事": 3388,
      "二": 3389,
      "于": 3390,
      "亏": 3391,
      "云": 3392,
      "互": 3393,
      "五": 3394,
      "井": 3395,
      "亙": 3396,
      "亚": 3397,
      "些": 3398,
      "亜": 3399,
      "亞": 3400,
      "亠": 3401,
      "亡": 3402,
      "交": 3403,
      "亥": 3404,
      "亦": 3405,
      "产": 3406,
      "亨": 3407,
      "享": 3408,
      "京": 3409,
      "亭": 3410,
      "亮": 3411,
      "亲": 3412,
      "亳": 3413,
      "人": 3414,
      "亻": 3415,
      "亿": 3416,
      "什": 3417,
      "仁": 3418,
      "仄": 3419,
      "仅": 3420,
      "仆": 3421,
      "仇": 3422,
      "仉": 3423,
      "今": 3424,
      "介": 3425,
      "仍": 3426,
      "从": 3427,
      "仏": 3428,
      "仑": 3429,
      "仓": 3430,
      "仔": 3431,
      "仕": 3432,
      "他": 3433,
      "仗": 3434,
      "付": 3435,
      "仙": 3436,
      "仚": 3437,
      "仝": 3438,
      "仟": 3439,
      "仡": 3440,
      "代": 3441,
      "令": 3442,
      "以": 3443,
      "仪": 3444,
      "仫": 3445,
      "们": 3446,
      "仮": 3447,
      "仰": 3448,
      "仲": 3449,
      "件": 3450,
      "价": 3451,
      "任": 3452,
      "份": 3453,
      "仿": 3454,
      "企": 3455,
      "伊": 3456,
      "伋": 3457,
      "伍": 3458,
      "伎": 3459,
      "伏": 3460,
      "伐": 3461,
      "休": 3462,
      "众": 3463,
      "优": 3464,
      "伙": 3465,
      "会": 3466,
      "伝": 3467,
      "伞": 3468,
      "伟": 3469,
      "传": 3470,
      "伤": 3471,
      "伦": 3472,
      "伪": 3473,
      "伫": 3474,
      "伯": 3475,
      "估": 3476,
      "伴": 3477,
      "伶": 3478,
      "伸": 3479,
      "伺": 3480,
      "似": 3481,
      "伽": 3482,
      "但": 3483,
      "佇": 3484,
      "佈": 3485,
      "佉": 3486,
      "位": 3487,
      "低": 3488,
      "住": 3489,
      "佐": 3490,
      "佑": 3491,
      "体": 3492,
      "佔": 3493,
      "何": 3494,
      "佗": 3495,
      "佘": 3496,
      "余": 3497,
      "佚": 3498,
      "佛": 3499,
      "作": 3500,
      "你": 3501,
      "佣": 3502,
      "佤": 3503,
      "佩": 3504,
      "佬": 3505,
      "佮": 3506,
      "佰": 3507,
      "佳": 3508,
      "併": 3509,
      "佶": 3510,
      "佷": 3511,
      "佼": 3512,
      "佽": 3513,
      "使": 3514,
      "侃": 3515,
      "來": 3516,
      "侈": 3517,
      "例": 3518,
      "侍": 3519,
      "侑": 3520,
      "侗": 3521,
      "侘": 3522,
      "供": 3523,
      "依": 3524,
      "侠": 3525,
      "価": 3526,
      "侣": 3527,
      "侧": 3528,
      "侭": 3529,
      "侮": 3530,
      "侯": 3531,
      "侵": 3532,
      "侶": 3533,
      "便": 3534,
      "係": 3535,
      "促": 3536,
      "俄": 3537,
      "俆": 3538,
      "俊": 3539,
      "俐": 3540,
      "俑": 3541,
      "俗": 3542,
      "俘": 3543,
      "俚": 3544,
      "保": 3545,
      "俞": 3546,
      "俟": 3547,
      "俠": 3548,
      "信": 3549,
      "俥": 3550,
      "俩": 3551,
      "俭": 3552,
      "修": 3553,
      "俯": 3554,
      "俱": 3555,
      "俳": 3556,
      "俵": 3557,
      "俺": 3558,
      "俾": 3559,
      "倀": 3560,
      "倉": 3561,
      "個": 3562,
      "倍": 3563,
      "倏": 3564,
      "們": 3565,
      "倒": 3566,
      "倓": 3567,
      "倘": 3568,
      "候": 3569,
      "倚": 3570,
      "借": 3571,
      "倡": 3572,
      "倣": 3573,
      "値": 3574,
      "倧": 3575,
      "倩": 3576,
      "倪": 3577,
      "倫": 3578,
      "倭": 3579,
      "倶": 3580,
      "债": 3581,
      "值": 3582,
      "倾": 3583,
      "偁": 3584,
      "偃": 3585,
      "假": 3586,
      "偈": 3587,
      "偉": 3588,
      "偎": 3589,
      "偏": 3590,
      "偓": 3591,
      "做": 3592,
      "停": 3593,
      "健": 3594,
      "偲": 3595,
      "側": 3596,
      "偵": 3597,
      "偶": 3598,
      "偷": 3599,
      "偸": 3600,
      "偽": 3601,
      "偿": 3602,
      "傀": 3603,
      "傅": 3604,
      "傈": 3605,
      "傍": 3606,
      "傑": 3607,
      "傘": 3608,
      "備": 3609,
      "傣": 3610,
      "储": 3611,
      "催": 3612,
      "傲": 3613,
      "傳": 3614,
      "債": 3615,
      "傷": 3616,
      "傻": 3617,
      "傾": 3618,
      "僅": 3619,
      "僉": 3620,
      "僊": 3621,
      "働": 3622,
      "像": 3623,
      "僑": 3624,
      "僕": 3625,
      "僖": 3626,
      "僚": 3627,
      "僞": 3628,
      "僧": 3629,
      "僰": 3630,
      "僱": 3631,
      "僳": 3632,
      "僵": 3633,
      "價": 3634,
      "儀": 3635,
      "儂": 3636,
      "億": 3637,
      "儈": 3638,
      "儒": 3639,
      "儘": 3640,
      "償": 3641,
      "儡": 3642,
      "優": 3643,
      "儲": 3644,
      "儻": 3645,
      "儿": 3646,
      "兀": 3647,
      "允": 3648,
      "元": 3649,
      "兄": 3650,
      "充": 3651,
      "兆": 3652,
      "先": 3653,
      "光": 3654,
      "克": 3655,
      "兌": 3656,
      "免": 3657,
      "兎": 3658,
      "児": 3659,
      "兑": 3660,
      "兒": 3661,
      "兔": 3662,
      "兕": 3663,
      "党": 3664,
      "兜": 3665,
      "入": 3666,
      "內": 3667,
      "全": 3668,
      "兩": 3669,
      "兪": 3670,
      "八": 3671,
      "公": 3672,
      "六": 3673,
      "兮": 3674,
      "兰": 3675,
      "共": 3676,
      "关": 3677,
      "兴": 3678,
      "兵": 3679,
      "其": 3680,
      "具": 3681,
      "典": 3682,
      "兹": 3683,
      "养": 3684,
      "兼": 3685,
      "兽": 3686,
      "冀": 3687,
      "冂": 3688,
      "内": 3689,
      "円": 3690,
      "冈": 3691,
      "冉": 3692,
      "冊": 3693,
      "册": 3694,
      "再": 3695,
      "冑": 3696,
      "冒": 3697,
      "冕": 3698,
      "冖": 3699,
      "冗": 3700,
      "写": 3701,
      "军": 3702,
      "农": 3703,
      "冠": 3704,
      "冡": 3705,
      "冤": 3706,
      "冥": 3707,
      "冨": 3708,
      "冬": 3709,
      "冯": 3710,
      "冰": 3711,
      "冱": 3712,
      "冲": 3713,
      "决": 3714,
      "况": 3715,
      "冶": 3716,
      "冷": 3717,
      "冻": 3718,
      "净": 3719,
      "凄": 3720,
      "准": 3721,
      "凉": 3722,
      "凋": 3723,
      "凌": 3724,
      "减": 3725,
      "凑": 3726,
      "凝": 3727,
      "几": 3728,
      "凡": 3729,
      "凤": 3730,
      "処": 3731,
      "凧": 3732,
      "凭": 3733,
      "凯": 3734,
      "凰": 3735,
      "凱": 3736,
      "凳": 3737,
      "凵": 3738,
      "凶": 3739,
      "凸": 3740,
      "凹": 3741,
      "出": 3742,
      "击": 3743,
      "函": 3744,
      "凿": 3745,
      "刀": 3746,
      "刁": 3747,
      "刂": 3748,
      "刃": 3749,
      "分": 3750,
      "切": 3751,
      "刈": 3752,
      "刊": 3753,
      "刋": 3754,
      "刎": 3755,
      "刑": 3756,
      "划": 3757,
      "刖": 3758,
      "列": 3759,
      "刘": 3760,
      "则": 3761,
      "刚": 3762,
      "创": 3763,
      "初": 3764,
      "删": 3765,
      "判": 3766,
      "別": 3767,
      "刧": 3768,
      "利": 3769,
      "刪": 3770,
      "别": 3771,
      "刮": 3772,
      "到": 3773,
      "制": 3774,
      "刷": 3775,
      "券": 3776,
      "刹": 3777,
      "刺": 3778,
      "刻": 3779,
      "剂": 3780,
      "剃": 3781,
      "則": 3782,
      "削": 3783,
      "剌": 3784,
      "前": 3785,
      "剑": 3786,
      "剖": 3787,
      "剛": 3788,
      "剣": 3789,
      "剤": 3790,
      "剥": 3791,
      "剧": 3792,
      "剩": 3793,
      "剪": 3794,
      "副": 3795,
      "剰": 3796,
      "割": 3797,
      "創": 3798,
      "剽": 3799,
      "劃": 3800,
      "劇": 3801,
      "劉": 3802,
      "劍": 3803,
      "劑": 3804,
      "力": 3805,
      "劝": 3806,
      "办": 3807,
      "功": 3808,
      "加": 3809,
      "务": 3810,
      "劣": 3811,
      "劧": 3812,
      "动": 3813,
      "助": 3814,
      "努": 3815,
      "劫": 3816,
      "励": 3817,
      "劲": 3818,
      "劳": 3819,
      "労": 3820,
      "効": 3821,
      "势": 3822,
      "勃": 3823,
      "勅": 3824,
      "勇": 3825,
      "勉": 3826,
      "勐": 3827,
      "勒": 3828,
      "動": 3829,
      "勘": 3830,
      "務": 3831,
      "勛": 3832,
      "勝": 3833,
      "勞": 3834,
      "募": 3835,
      "勢": 3836,
      "勤": 3837,
      "勧": 3838,
      "勳": 3839,
      "勵": 3840,
      "勸": 3841,
      "勾": 3842,
      "勿": 3843,
      "匂": 3844,
      "匃": 3845,
      "包": 3846,
      "匆": 3847,
      "匈": 3848,
      "匏": 3849,
      "匕": 3850,
      "化": 3851,
      "北": 3852,
      "匙": 3853,
      "匠": 3854,
      "匡": 3855,
      "匪": 3856,
      "匯": 3857,
      "匱": 3858,
      "匹": 3859,
      "区": 3860,
      "医": 3861,
      "匽": 3862,
      "匿": 3863,
      "區": 3864,
      "十": 3865,
      "千": 3866,
      "卅": 3867,
      "升": 3868,
      "午": 3869,
      "半": 3870,
      "华": 3871,
      "协": 3872,
      "卐": 3873,
      "卑": 3874,
      "卒": 3875,
      "卓": 3876,
      "協": 3877,
      "单": 3878,
      "卖": 3879,
      "南": 3880,
      "単": 3881,
      "博": 3882,
      "卜": 3883,
      "卞": 3884,
      "占": 3885,
      "卡": 3886,
      "卢": 3887,
      "卣": 3888,
      "卦": 3889,
      "卧": 3890,
      "卫": 3891,
      "卯": 3892,
      "印": 3893,
      "危": 3894,
      "即": 3895,
      "却": 3896,
      "卵": 3897,
      "卷": 3898,
      "卸": 3899,
      "卻": 3900,
      "卽": 3901,
      "卿": 3902,
      "厂": 3903,
      "厄": 3904,
      "厅": 3905,
      "历": 3906,
      "厉": 3907,
      "压": 3908,
      "厌": 3909,
      "厓": 3910,
      "厘": 3911,
      "厚": 3912,
      "厝": 3913,
      "原": 3914,
      "厤": 3915,
      "厥": 3916,
      "厦": 3917,
      "厨": 3918,
      "厲": 3919,
      "厳": 3920,
      "去": 3921,
      "县": 3922,
      "参": 3923,
      "參": 3924,
      "又": 3925,
      "叉": 3926,
      "及": 3927,
      "友": 3928,
      "双": 3929,
      "反": 3930,
      "収": 3931,
      "发": 3932,
      "叔": 3933,
      "取": 3934,
      "受": 3935,
      "变": 3936,
      "叙": 3937,
      "叛": 3938,
      "叟": 3939,
      "叠": 3940,
      "叡": 3941,
      "叢": 3942,
      "口": 3943,
      "古": 3944,
      "句": 3945,
      "另": 3946,
      "叩": 3947,
      "只": 3948,
      "叫": 3949,
      "召": 3950,
      "叭": 3951,
      "叮": 3952,
      "可": 3953,
      "台": 3954,
      "叱": 3955,
      "史": 3956,
      "右": 3957,
      "叶": 3958,
      "号": 3959,
      "司": 3960,
      "叹": 3961,
      "叻": 3962,
      "吀": 3963,
      "吁": 3964,
      "吃": 3965,
      "各": 3966,
      "合": 3967,
      "吉": 3968,
      "吊": 3969,
      "同": 3970,
      "名": 3971,
      "后": 3972,
      "吏": 3973,
      "吐": 3974,
      "向": 3975,
      "吒": 3976,
      "吓": 3977,
      "吕": 3978,
      "吖": 3979,
      "吗": 3980,
      "君": 3981,
      "吝": 3982,
      "吞": 3983,
      "吟": 3984,
      "吠": 3985,
      "否": 3986,
      "吧": 3987,
      "吨": 3988,
      "吩": 3989,
      "含": 3990,
      "听": 3991,
      "启": 3992,
      "吳": 3993,
      "吴": 3994,
      "吵": 3995,
      "吶": 3996,
      "吸": 3997,
      "吹": 3998,
      "吻": 3999,
      "吽": 4000,
      "吾": 4001,
      "呀": 4002,
      "呂": 4003,
      "呆": 4004,
      "呇": 4005,
      "呈": 4006,
      "呉": 4007,
      "告": 4008,
      "呌": 4009,
      "呕": 4010,
      "呖": 4011,
      "呗": 4012,
      "员": 4013,
      "呜": 4014,
      "呢": 4015,
      "呣": 4016,
      "周": 4017,
      "呪": 4018,
      "呬": 4019,
      "味": 4020,
      "呵": 4021,
      "呼": 4022,
      "命": 4023,
      "呾": 4024,
      "咀": 4025,
      "咄": 4026,
      "和": 4027,
      "咎": 4028,
      "咏": 4029,
      "咐": 4030,
      "咒": 4031,
      "咕": 4032,
      "咖": 4033,
      "咗": 4034,
      "咝": 4035,
      "咡": 4036,
      "咧": 4037,
      "咨": 4038,
      "咩": 4039,
      "咫": 4040,
      "咬": 4041,
      "咯": 4042,
      "咱": 4043,
      "咲": 4044,
      "咳": 4045,
      "咸": 4046,
      "哀": 4047,
      "品": 4048,
      "哄": 4049,
      "哆": 4050,
      "哇": 4051,
      "哈": 4052,
      "哉": 4053,
      "哌": 4054,
      "响": 4055,
      "哎": 4056,
      "哑": 4057,
      "哗": 4058,
      "員": 4059,
      "哥": 4060,
      "哦": 4061,
      "哩": 4062,
      "哪": 4063,
      "哭": 4064,
      "哲": 4065,
      "哺": 4066,
      "哼": 4067,
      "唄": 4068,
      "唅": 4069,
      "唆": 4070,
      "唇": 4071,
      "唐": 4072,
      "唔": 4073,
      "唤": 4074,
      "唬": 4075,
      "售": 4076,
      "唯": 4077,
      "唱": 4078,
      "唳": 4079,
      "啃": 4080,
      "啄": 4081,
      "商": 4082,
      "啊": 4083,
      "問": 4084,
      "啓": 4085,
      "啖": 4086,
      "啟": 4087,
      "啡": 4088,
      "啤": 4089,
      "啥": 4090,
      "啦": 4091,
      "啪": 4092,
      "啭": 4093,
      "啰": 4094,
      "啲": 4095,
      "啼": 4096,
      "啾": 4097,
      "喀": 4098,
      "喂": 4099,
      "喃": 4100,
      "善": 4101,
      "喆": 4102,
      "喇": 4103,
      "喉": 4104,
      "喊": 4105,
      "喋": 4106,
      "喎": 4107,
      "喔": 4108,
      "喚": 4109,
      "喜": 4110,
      "喝": 4111,
      "喧": 4112,
      "喩": 4113,
      "喪": 4114,
      "喫": 4115,
      "喬": 4116,
      "單": 4117,
      "喰": 4118,
      "喵": 4119,
      "営": 4120,
      "喷": 4121,
      "喻": 4122,
      "喾": 4123,
      "嗅": 4124,
      "嗎": 4125,
      "嗜": 4126,
      "嗡": 4127,
      "嗢": 4128,
      "嗣": 4129,
      "嗦": 4130,
      "嗨": 4131,
      "嗩": 4132,
      "嗯": 4133,
      "嗽": 4134,
      "嘀": 4135,
      "嘅": 4136,
      "嘆": 4137,
      "嘉": 4138,
      "嘗": 4139,
      "嘘": 4140,
      "嘛": 4141,
      "嘟": 4142,
      "嘩": 4143,
      "嘯": 4144,
      "嘱": 4145,
      "嘲": 4146,
      "嘴": 4147,
      "嘶": 4148,
      "嘿": 4149,
      "噌": 4150,
      "噛": 4151,
      "噠": 4152,
      "器": 4153,
      "噩": 4154,
      "噪": 4155,
      "噭": 4156,
      "噶": 4157,
      "嚈": 4158,
      "嚎": 4159,
      "嚐": 4160,
      "嚙": 4161,
      "嚜": 4162,
      "嚣": 4163,
      "嚩": 4164,
      "嚫": 4165,
      "嚳": 4166,
      "嚴": 4167,
      "嚼": 4168,
      "囃": 4169,
      "囉": 4170,
      "囊": 4171,
      "囍": 4172,
      "囏": 4173,
      "囗": 4174,
      "囚": 4175,
      "四": 4176,
      "回": 4177,
      "因": 4178,
      "囡": 4179,
      "团": 4180,
      "団": 4181,
      "囧": 4182,
      "囫": 4183,
      "园": 4184,
      "囯": 4185,
      "困": 4186,
      "囲": 4187,
      "図": 4188,
      "围": 4189,
      "囵": 4190,
      "固": 4191,
      "国": 4192,
      "图": 4193,
      "囿": 4194,
      "圀": 4195,
      "圃": 4196,
      "圆": 4197,
      "圈": 4198,
      "國": 4199,
      "圍": 4200,
      "圏": 4201,
      "園": 4202,
      "圓": 4203,
      "圖": 4204,
      "團": 4205,
      "土": 4206,
      "圣": 4207,
      "圧": 4208,
      "在": 4209,
      "圭": 4210,
      "地": 4211,
      "圳": 4212,
      "场": 4213,
      "圻": 4214,
      "圾": 4215,
      "址": 4216,
      "坂": 4217,
      "均": 4218,
      "坊": 4219,
      "坌": 4220,
      "坎": 4221,
      "坏": 4222,
      "坐": 4223,
      "坑": 4224,
      "块": 4225,
      "坚": 4226,
      "坛": 4227,
      "坝": 4228,
      "坞": 4229,
      "坟": 4230,
      "坠": 4231,
      "坡": 4232,
      "坤": 4233,
      "坦": 4234,
      "坪": 4235,
      "坳": 4236,
      "垂": 4237,
      "垃": 4238,
      "垄": 4239,
      "型": 4240,
      "垠": 4241,
      "垢": 4242,
      "垣": 4243,
      "垫": 4244,
      "埃": 4245,
      "埋": 4246,
      "城": 4247,
      "埔": 4248,
      "埗": 4249,
      "域": 4250,
      "埠": 4251,
      "埴": 4252,
      "埵": 4253,
      "執": 4254,
      "培": 4255,
      "基": 4256,
      "埼": 4257,
      "堀": 4258,
      "堂": 4259,
      "堅": 4260,
      "堆": 4261,
      "堕": 4262,
      "堡": 4263,
      "堤": 4264,
      "堪": 4265,
      "堯": 4266,
      "堰": 4267,
      "報": 4268,
      "場": 4269,
      "堵": 4270,
      "堺": 4271,
      "塈": 4272,
      "塊": 4273,
      "塌": 4274,
      "塑": 4275,
      "塔": 4276,
      "塗": 4277,
      "塘": 4278,
      "塚": 4279,
      "塞": 4280,
      "塡": 4281,
      "塩": 4282,
      "填": 4283,
      "塱": 4284,
      "塵": 4285,
      "塹": 4286,
      "境": 4287,
      "墊": 4288,
      "墓": 4289,
      "増": 4290,
      "墙": 4291,
      "增": 4292,
      "墟": 4293,
      "墨": 4294,
      "墮": 4295,
      "墳": 4296,
      "墾": 4297,
      "壁": 4298,
      "壇": 4299,
      "壊": 4300,
      "壌": 4301,
      "壑": 4302,
      "壓": 4303,
      "壕": 4304,
      "壘": 4305,
      "壞": 4306,
      "壤": 4307,
      "壩": 4308,
      "士": 4309,
      "壬": 4310,
      "壮": 4311,
      "壯": 4312,
      "声": 4313,
      "壱": 4314,
      "売": 4315,
      "壳": 4316,
      "壶": 4317,
      "壷": 4318,
      "壹": 4319,
      "壺": 4320,
      "壽": 4321,
      "夂": 4322,
      "处": 4323,
      "备": 4324,
      "変": 4325,
      "复": 4326,
      "夏": 4327,
      "夔": 4328,
      "夕": 4329,
      "外": 4330,
      "多": 4331,
      "夜": 4332,
      "够": 4333,
      "夠": 4334,
      "夢": 4335,
      "夥": 4336,
      "大": 4337,
      "天": 4338,
      "太": 4339,
      "夫": 4340,
      "夭": 4341,
      "央": 4342,
      "夯": 4343,
      "失": 4344,
      "头": 4345,
      "夷": 4346,
      "夸": 4347,
      "夺": 4348,
      "夾": 4349,
      "奄": 4350,
      "奇": 4351,
      "奈": 4352,
      "奉": 4353,
      "奋": 4354,
      "奌": 4355,
      "奏": 4356,
      "契": 4357,
      "奔": 4358,
      "奕": 4359,
      "奖": 4360,
      "套": 4361,
      "奘": 4362,
      "奠": 4363,
      "奢": 4364,
      "奥": 4365,
      "奧": 4366,
      "奨": 4367,
      "奪": 4368,
      "奭": 4369,
      "奮": 4370,
      "女": 4371,
      "奴": 4372,
      "奶": 4373,
      "她": 4374,
      "好": 4375,
      "如": 4376,
      "妃": 4377,
      "妄": 4378,
      "妆": 4379,
      "妇": 4380,
      "妈": 4381,
      "妊": 4382,
      "妍": 4383,
      "妓": 4384,
      "妖": 4385,
      "妙": 4386,
      "妛": 4387,
      "妥": 4388,
      "妨": 4389,
      "妬": 4390,
      "妮": 4391,
      "妲": 4392,
      "妹": 4393,
      "妻": 4394,
      "妾": 4395,
      "姆": 4396,
      "姉": 4397,
      "姊": 4398,
      "始": 4399,
      "姐": 4400,
      "姑": 4401,
      "姓": 4402,
      "委": 4403,
      "姚": 4404,
      "姜": 4405,
      "姞": 4406,
      "姥": 4407,
      "姦": 4408,
      "姨": 4409,
      "姫": 4410,
      "姬": 4411,
      "姻": 4412,
      "姿": 4413,
      "威": 4414,
      "娃": 4415,
      "娇": 4416,
      "娑": 4417,
      "娘": 4418,
      "娛": 4419,
      "娜": 4420,
      "娟": 4421,
      "娠": 4422,
      "娥": 4423,
      "娩": 4424,
      "娱": 4425,
      "娴": 4426,
      "娼": 4427,
      "婁": 4428,
      "婆": 4429,
      "婉": 4430,
      "婚": 4431,
      "婢": 4432,
      "婦": 4433,
      "婧": 4434,
      "婬": 4435,
      "婴": 4436,
      "婷": 4437,
      "媒": 4438,
      "媚": 4439,
      "媛": 4440,
      "媧": 4441,
      "媲": 4442,
      "媽": 4443,
      "嫁": 4444,
      "嫇": 4445,
      "嫉": 4446,
      "嫌": 4447,
      "嫘": 4448,
      "嫣": 4449,
      "嫦": 4450,
      "嫪": 4451,
      "嫲": 4452,
      "嬉": 4453,
      "嬢": 4454,
      "嬰": 4455,
      "嬴": 4456,
      "子": 4457,
      "孔": 4458,
      "孕": 4459,
      "字": 4460,
      "存": 4461,
      "孙": 4462,
      "孚": 4463,
      "孜": 4464,
      "孝": 4465,
      "孟": 4466,
      "季": 4467,
      "孤": 4468,
      "学": 4469,
      "孩": 4470,
      "孫": 4471,
      "孵": 4472,
      "學": 4473,
      "孺": 4474,
      "孽": 4475,
      "宀": 4476,
      "宁": 4477,
      "它": 4478,
      "宅": 4479,
      "宇": 4480,
      "守": 4481,
      "安": 4482,
      "宋": 4483,
      "完": 4484,
      "宏": 4485,
      "宓": 4486,
      "宕": 4487,
      "宗": 4488,
      "官": 4489,
      "宙": 4490,
      "定": 4491,
      "宛": 4492,
      "宜": 4493,
      "宝": 4494,
      "实": 4495,
      "実": 4496,
      "宠": 4497,
      "审": 4498,
      "客": 4499,
      "宣": 4500,
      "室": 4501,
      "宥": 4502,
      "宦": 4503,
      "宪": 4504,
      "宫": 4505,
      "宮": 4506,
      "宰": 4507,
      "害": 4508,
      "宴": 4509,
      "宵": 4510,
      "家": 4511,
      "宸": 4512,
      "容": 4513,
      "宽": 4514,
      "宾": 4515,
      "宿": 4516,
      "寂": 4517,
      "寄": 4518,
      "寅": 4519,
      "密": 4520,
      "寇": 4521,
      "富": 4522,
      "寒": 4523,
      "寓": 4524,
      "寛": 4525,
      "寝": 4526,
      "察": 4527,
      "寡": 4528,
      "寢": 4529,
      "寥": 4530,
      "實": 4531,
      "寧": 4532,
      "寨": 4533,
      "審": 4534,
      "寫": 4535,
      "寬": 4536,
      "寮": 4537,
      "寳": 4538,
      "寵": 4539,
      "寶": 4540,
      "寸": 4541,
      "对": 4542,
      "寺": 4543,
      "寻": 4544,
      "导": 4545,
      "対": 4546,
      "寿": 4547,
      "封": 4548,
      "専": 4549,
      "射": 4550,
      "将": 4551,
      "將": 4552,
      "專": 4553,
      "尉": 4554,
      "尊": 4555,
      "尋": 4556,
      "對": 4557,
      "導": 4558,
      "小": 4559,
      "少": 4560,
      "尒": 4561,
      "尓": 4562,
      "尔": 4563,
      "尖": 4564,
      "尘": 4565,
      "尙": 4566,
      "尚": 4567,
      "尝": 4568,
      "尠": 4569,
      "尤": 4570,
      "尧": 4571,
      "尨": 4572,
      "尬": 4573,
      "就": 4574,
      "尴": 4575,
      "尸": 4576,
      "尹": 4577,
      "尺": 4578,
      "尻": 4579,
      "尼": 4580,
      "尽": 4581,
      "尾": 4582,
      "尿": 4583,
      "局": 4584,
      "屁": 4585,
      "层": 4586,
      "居": 4587,
      "屆": 4588,
      "屈": 4589,
      "届": 4590,
      "屋": 4591,
      "屍": 4592,
      "屎": 4593,
      "屏": 4594,
      "展": 4595,
      "屛": 4596,
      "属": 4597,
      "屠": 4598,
      "屡": 4599,
      "層": 4600,
      "履": 4601,
      "屬": 4602,
      "屯": 4603,
      "山": 4604,
      "屲": 4605,
      "屿": 4606,
      "岁": 4607,
      "岐": 4608,
      "岗": 4609,
      "岛": 4610,
      "岡": 4611,
      "岩": 4612,
      "岫": 4613,
      "岬": 4614,
      "岭": 4615,
      "岱": 4616,
      "岳": 4617,
      "岷": 4618,
      "岸": 4619,
      "峒": 4620,
      "峙": 4621,
      "峠": 4622,
      "峡": 4623,
      "峦": 4624,
      "峨": 4625,
      "峪": 4626,
      "峭": 4627,
      "峯": 4628,
      "峰": 4629,
      "島": 4630,
      "峻": 4631,
      "峽": 4632,
      "崇": 4633,
      "崎": 4634,
      "崑": 4635,
      "崔": 4636,
      "崖": 4637,
      "崗": 4638,
      "崙": 4639,
      "崛": 4640,
      "崧": 4641,
      "崩": 4642,
      "崱": 4643,
      "崳": 4644,
      "嵁": 4645,
      "嵋": 4646,
      "嵌": 4647,
      "嵐": 4648,
      "嵘": 4649,
      "嵩": 4650,
      "嵬": 4651,
      "嶋": 4652,
      "嶦": 4653,
      "嶺": 4654,
      "嶼": 4655,
      "嶽": 4656,
      "巅": 4657,
      "巌": 4658,
      "巍": 4659,
      "巖": 4660,
      "川": 4661,
      "州": 4662,
      "巡": 4663,
      "巢": 4664,
      "工": 4665,
      "左": 4666,
      "巧": 4667,
      "巨": 4668,
      "巫": 4669,
      "差": 4670,
      "己": 4671,
      "已": 4672,
      "巳": 4673,
      "巴": 4674,
      "巷": 4675,
      "巻": 4676,
      "巽": 4677,
      "巾": 4678,
      "帀": 4679,
      "币": 4680,
      "市": 4681,
      "布": 4682,
      "帆": 4683,
      "师": 4684,
      "希": 4685,
      "帐": 4686,
      "帕": 4687,
      "帖": 4688,
      "帘": 4689,
      "帛": 4690,
      "帜": 4691,
      "帝": 4692,
      "帥": 4693,
      "带": 4694,
      "帧": 4695,
      "師": 4696,
      "席": 4697,
      "帮": 4698,
      "帯": 4699,
      "帰": 4700,
      "帳": 4701,
      "帶": 4702,
      "常": 4703,
      "帽": 4704,
      "幅": 4705,
      "幌": 4706,
      "幕": 4707,
      "幡": 4708,
      "幢": 4709,
      "幣": 4710,
      "幫": 4711,
      "干": 4712,
      "平": 4713,
      "年": 4714,
      "并": 4715,
      "幸": 4716,
      "幹": 4717,
      "幺": 4718,
      "幻": 4719,
      "幼": 4720,
      "幽": 4721,
      "幾": 4722,
      "广": 4723,
      "庁": 4724,
      "広": 4725,
      "庄": 4726,
      "庆": 4727,
      "床": 4728,
      "序": 4729,
      "庐": 4730,
      "库": 4731,
      "应": 4732,
      "底": 4733,
      "店": 4734,
      "庙": 4735,
      "庚": 4736,
      "府": 4737,
      "庞": 4738,
      "废": 4739,
      "庠": 4740,
      "庥": 4741,
      "度": 4742,
      "座": 4743,
      "庫": 4744,
      "庭": 4745,
      "庵": 4746,
      "庶": 4747,
      "康": 4748,
      "庸": 4749,
      "庾": 4750,
      "廁": 4751,
      "廂": 4752,
      "廃": 4753,
      "廈": 4754,
      "廉": 4755,
      "廊": 4756,
      "廋": 4757,
      "廐": 4758,
      "廓": 4759,
      "廖": 4760,
      "廚": 4761,
      "廞": 4762,
      "廟": 4763,
      "廠": 4764,
      "廢": 4765,
      "廣": 4766,
      "廪": 4767,
      "廬": 4768,
      "廱": 4769,
      "廳": 4770,
      "延": 4771,
      "廷": 4772,
      "建": 4773,
      "廻": 4774,
      "廾": 4775,
      "廿": 4776,
      "开": 4777,
      "弁": 4778,
      "异": 4779,
      "弃": 4780,
      "弄": 4781,
      "弈": 4782,
      "弊": 4783,
      "弋": 4784,
      "式": 4785,
      "弐": 4786,
      "弓": 4787,
      "引": 4788,
      "弖": 4789,
      "弗": 4790,
      "弘": 4791,
      "弟": 4792,
      "张": 4793,
      "弥": 4794,
      "弦": 4795,
      "弧": 4796,
      "弩": 4797,
      "弯": 4798,
      "弱": 4799,
      "張": 4800,
      "強": 4801,
      "弹": 4802,
      "强": 4803,
      "弼": 4804,
      "弾": 4805,
      "彈": 4806,
      "彊": 4807,
      "彌": 4808,
      "彎": 4809,
      "归": 4810,
      "当": 4811,
      "录": 4812,
      "彙": 4813,
      "彚": 4814,
      "彝": 4815,
      "形": 4816,
      "彤": 4817,
      "彥": 4818,
      "彦": 4819,
      "彩": 4820,
      "彪": 4821,
      "彬": 4822,
      "彭": 4823,
      "彰": 4824,
      "影": 4825,
      "彳": 4826,
      "彷": 4827,
      "役": 4828,
      "彻": 4829,
      "彼": 4830,
      "往": 4831,
      "征": 4832,
      "徂": 4833,
      "径": 4834,
      "待": 4835,
      "徇": 4836,
      "很": 4837,
      "徉": 4838,
      "徊": 4839,
      "律": 4840,
      "後": 4841,
      "徐": 4842,
      "徑": 4843,
      "徒": 4844,
      "従": 4845,
      "徕": 4846,
      "得": 4847,
      "徘": 4848,
      "徙": 4849,
      "徜": 4850,
      "從": 4851,
      "徠": 4852,
      "御": 4853,
      "徧": 4854,
      "復": 4855,
      "循": 4856,
      "徭": 4857,
      "微": 4858,
      "徳": 4859,
      "徴": 4860,
      "徵": 4861,
      "德": 4862,
      "徹": 4863,
      "徼": 4864,
      "徽": 4865,
      "心": 4866,
      "忄": 4867,
      "必": 4868,
      "忆": 4869,
      "忉": 4870,
      "忌": 4871,
      "忍": 4872,
      "志": 4873,
      "忘": 4874,
      "忙": 4875,
      "応": 4876,
      "忠": 4877,
      "忡": 4878,
      "忧": 4879,
      "快": 4880,
      "忱": 4881,
      "念": 4882,
      "忽": 4883,
      "忿": 4884,
      "怀": 4885,
      "态": 4886,
      "怍": 4887,
      "怎": 4888,
      "怒": 4889,
      "怕": 4890,
      "怖": 4891,
      "怛": 4892,
      "怜": 4893,
      "思": 4894,
      "怡": 4895,
      "急": 4896,
      "性": 4897,
      "怨": 4898,
      "怪": 4899,
      "总": 4900,
      "恆": 4901,
      "恋": 4902,
      "恐": 4903,
      "恒": 4904,
      "恕": 4905,
      "恙": 4906,
      "恢": 4907,
      "恣": 4908,
      "恤": 4909,
      "恥": 4910,
      "恨": 4911,
      "恩": 4912,
      "恪": 4913,
      "恬": 4914,
      "恭": 4915,
      "息": 4916,
      "恰": 4917,
      "恱": 4918,
      "恵": 4919,
      "恶": 4920,
      "恺": 4921,
      "恼": 4922,
      "悄": 4923,
      "悅": 4924,
      "悉": 4925,
      "悌": 4926,
      "悍": 4927,
      "悔": 4928,
      "悗": 4929,
      "悚": 4930,
      "悟": 4931,
      "悠": 4932,
      "患": 4933,
      "悦": 4934,
      "您": 4935,
      "悪": 4936,
      "悬": 4937,
      "悲": 4938,
      "悺": 4939,
      "悼": 4940,
      "情": 4941,
      "惇": 4942,
      "惊": 4943,
      "惑": 4944,
      "惔": 4945,
      "惕": 4946,
      "惚": 4947,
      "惜": 4948,
      "惟": 4949,
      "惠": 4950,
      "惡": 4951,
      "惣": 4952,
      "惧": 4953,
      "惨": 4954,
      "惩": 4955,
      "惫": 4956,
      "惭": 4957,
      "惯": 4958,
      "惰": 4959,
      "惱": 4960,
      "惲": 4961,
      "想": 4962,
      "惹": 4963,
      "愀": 4964,
      "愁": 4965,
      "愆": 4966,
      "愈": 4967,
      "愉": 4968,
      "愍": 4969,
      "意": 4970,
      "愕": 4971,
      "愚": 4972,
      "愛": 4973,
      "感": 4974,
      "愤": 4975,
      "愧": 4976,
      "愷": 4977,
      "愿": 4978,
      "慈": 4979,
      "態": 4980,
      "慌": 4981,
      "慎": 4982,
      "慕": 4983,
      "慘": 4984,
      "慚": 4985,
      "慢": 4986,
      "慣": 4987,
      "慧": 4988,
      "慨": 4989,
      "慮": 4990,
      "慰": 4991,
      "慳": 4992,
      "慶": 4993,
      "慷": 4994,
      "慾": 4995,
      "憂": 4996,
      "憍": 4997,
      "憑": 4998,
      "憤": 4999,
      "憩": 5000,
      "憲": 5001,
      "憶": 5002,
      "憺": 5003,
      "憾": 5004,
      "懂": 5005,
      "懈": 5006,
      "應": 5007,
      "懊": 5008,
      "懋": 5009,
      "懐": 5010,
      "懒": 5011,
      "懶": 5012,
      "懷": 5013,
      "懸": 5014,
      "懺": 5015,
      "懼": 5016,
      "懿": 5017,
      "戀": 5018,
      "戆": 5019,
      "戈": 5020,
      "戊": 5021,
      "戌": 5022,
      "戍": 5023,
      "戎": 5024,
      "戏": 5025,
      "成": 5026,
      "我": 5027,
      "戒": 5028,
      "或": 5029,
      "战": 5030,
      "戚": 5031,
      "戟": 5032,
      "戦": 5033,
      "截": 5034,
      "戮": 5035,
      "戯": 5036,
      "戰": 5037,
      "戲": 5038,
      "戳": 5039,
      "戴": 5040,
      "戶": 5041,
      "户": 5042,
      "戸": 5043,
      "戻": 5044,
      "戾": 5045,
      "房": 5046,
      "所": 5047,
      "扁": 5048,
      "扇": 5049,
      "扈": 5050,
      "手": 5051,
      "扌": 5052,
      "才": 5053,
      "扎": 5054,
      "扑": 5055,
      "扒": 5056,
      "打": 5057,
      "扔": 5058,
      "払": 5059,
      "托": 5060,
      "扛": 5061,
      "扣": 5062,
      "执": 5063,
      "扩": 5064,
      "扫": 5065,
      "扬": 5066,
      "扭": 5067,
      "扮": 5068,
      "扯": 5069,
      "扰": 5070,
      "扱": 5071,
      "扶": 5072,
      "批": 5073,
      "找": 5074,
      "承": 5075,
      "技": 5076,
      "抄": 5077,
      "把": 5078,
      "抑": 5079,
      "抓": 5080,
      "投": 5081,
      "抖": 5082,
      "抗": 5083,
      "折": 5084,
      "抚": 5085,
      "抛": 5086,
      "抜": 5087,
      "択": 5088,
      "抢": 5089,
      "护": 5090,
      "报": 5091,
      "抦": 5092,
      "披": 5093,
      "抬": 5094,
      "抯": 5095,
      "抰": 5096,
      "抱": 5097,
      "抵": 5098,
      "抹": 5099,
      "押": 5100,
      "抽": 5101,
      "担": 5102,
      "拆": 5103,
      "拇": 5104,
      "拉": 5105,
      "拋": 5106,
      "拍": 5107,
      "拎": 5108,
      "拏": 5109,
      "拐": 5110,
      "拒": 5111,
      "拓": 5112,
      "拔": 5113,
      "拖": 5114,
      "拗": 5115,
      "拘": 5116,
      "拙": 5117,
      "招": 5118,
      "拜": 5119,
      "拝": 5120,
      "拟": 5121,
      "拠": 5122,
      "拡": 5123,
      "拣": 5124,
      "拥": 5125,
      "拧": 5126,
      "拨": 5127,
      "择": 5128,
      "括": 5129,
      "拭": 5130,
      "拱": 5131,
      "拳": 5132,
      "拶": 5133,
      "拷": 5134,
      "拼": 5135,
      "拽": 5136,
      "拾": 5137,
      "拿": 5138,
      "持": 5139,
      "挂": 5140,
      "指": 5141,
      "挈": 5142,
      "按": 5143,
      "挑": 5144,
      "挒": 5145,
      "挖": 5146,
      "挙": 5147,
      "挝": 5148,
      "挠": 5149,
      "挡": 5150,
      "挣": 5151,
      "挤": 5152,
      "挥": 5153,
      "挨": 5154,
      "挩": 5155,
      "挪": 5156,
      "挫": 5157,
      "振": 5158,
      "挹": 5159,
      "挺": 5160,
      "捆": 5161,
      "捉": 5162,
      "捋": 5163,
      "捏": 5164,
      "捐": 5165,
      "捕": 5166,
      "捗": 5167,
      "捜": 5168,
      "捞": 5169,
      "损": 5170,
      "捡": 5171,
      "换": 5172,
      "捣": 5173,
      "捥": 5174,
      "捨": 5175,
      "捩": 5176,
      "据": 5177,
      "捯": 5178,
      "捲": 5179,
      "捴": 5180,
      "捵": 5181,
      "捷": 5182,
      "捺": 5183,
      "捻": 5184,
      "掀": 5185,
      "掃": 5186,
      "掇": 5187,
      "授": 5188,
      "掉": 5189,
      "掌": 5190,
      "排": 5191,
      "掔": 5192,
      "掖": 5193,
      "掘": 5194,
      "掙": 5195,
      "掛": 5196,
      "採": 5197,
      "探": 5198,
      "接": 5199,
      "控": 5200,
      "推": 5201,
      "掩": 5202,
      "措": 5203,
      "掬": 5204,
      "掲": 5205,
      "掾": 5206,
      "揃": 5207,
      "揆": 5208,
      "揉": 5209,
      "描": 5210,
      "提": 5211,
      "揑": 5212,
      "插": 5213,
      "揙": 5214,
      "揚": 5215,
      "換": 5216,
      "揟": 5217,
      "握": 5218,
      "揥": 5219,
      "揭": 5220,
      "揮": 5221,
      "揳": 5222,
      "援": 5223,
      "揺": 5224,
      "揽": 5225,
      "搁": 5226,
      "搇": 5227,
      "損": 5228,
      "搒": 5229,
      "搓": 5230,
      "搕": 5231,
      "搘": 5232,
      "搜": 5233,
      "搬": 5234,
      "搭": 5235,
      "携": 5236,
      "摃": 5237,
      "摄": 5238,
      "摆": 5239,
      "摇": 5240,
      "摊": 5241,
      "摔": 5242,
      "摘": 5243,
      "摠": 5244,
      "摩": 5245,
      "摯": 5246,
      "摸": 5247,
      "摺": 5248,
      "摼": 5249,
      "撃": 5250,
      "撇": 5251,
      "撈": 5252,
      "撑": 5253,
      "撒": 5254,
      "撓": 5255,
      "撕": 5256,
      "撚": 5257,
      "撞": 5258,
      "撤": 5259,
      "撥": 5260,
      "撫": 5261,
      "撬": 5262,
      "播": 5263,
      "撮": 5264,
      "撰": 5265,
      "撲": 5266,
      "擁": 5267,
      "擂": 5268,
      "擅": 5269,
      "擇": 5270,
      "擊": 5271,
      "操": 5272,
      "擎": 5273,
      "擒": 5274,
      "擔": 5275,
      "據": 5276,
      "擠": 5277,
      "擢": 5278,
      "擣": 5279,
      "擦": 5280,
      "擧": 5281,
      "擬": 5282,
      "擴": 5283,
      "擷": 5284,
      "擺": 5285,
      "擽": 5286,
      "攀": 5287,
      "攃": 5288,
      "攏": 5289,
      "攑": 5290,
      "攒": 5291,
      "攔": 5292,
      "攘": 5293,
      "攝": 5294,
      "攟": 5295,
      "支": 5296,
      "收": 5297,
      "攸": 5298,
      "改": 5299,
      "攻": 5300,
      "攽": 5301,
      "放": 5302,
      "政": 5303,
      "故": 5304,
      "效": 5305,
      "敌": 5306,
      "敍": 5307,
      "敎": 5308,
      "敏": 5309,
      "救": 5310,
      "敕": 5311,
      "敖": 5312,
      "敗": 5313,
      "敘": 5314,
      "教": 5315,
      "敢": 5316,
      "散": 5317,
      "敦": 5318,
      "敫": 5319,
      "敬": 5320,
      "数": 5321,
      "敲": 5322,
      "整": 5323,
      "敵": 5324,
      "敷": 5325,
      "數": 5326,
      "斂": 5327,
      "文": 5328,
      "斈": 5329,
      "斉": 5330,
      "斋": 5331,
      "斌": 5332,
      "斎": 5333,
      "斐": 5334,
      "斑": 5335,
      "斗": 5336,
      "料": 5337,
      "斛": 5338,
      "斜": 5339,
      "斡": 5340,
      "斤": 5341,
      "斥": 5342,
      "斧": 5343,
      "斫": 5344,
      "斬": 5345,
      "断": 5346,
      "斯": 5347,
      "新": 5348,
      "斷": 5349,
      "方": 5350,
      "於": 5351,
      "施": 5352,
      "旁": 5353,
      "旂": 5354,
      "旃": 5355,
      "旅": 5356,
      "旋": 5357,
      "族": 5358,
      "旗": 5359,
      "无": 5360,
      "既": 5361,
      "旣": 5362,
      "日": 5363,
      "旦": 5364,
      "旧": 5365,
      "旨": 5366,
      "早": 5367,
      "旬": 5368,
      "旭": 5369,
      "旱": 5370,
      "时": 5371,
      "旺": 5372,
      "旻": 5373,
      "旽": 5374,
      "昀": 5375,
      "昂": 5376,
      "昆": 5377,
      "昇": 5378,
      "昊": 5379,
      "昌": 5380,
      "明": 5381,
      "昏": 5382,
      "易": 5383,
      "昔": 5384,
      "昙": 5385,
      "星": 5386,
      "映": 5387,
      "春": 5388,
      "昧": 5389,
      "昨": 5390,
      "昭": 5391,
      "是": 5392,
      "昴": 5393,
      "昶": 5394,
      "昼": 5395,
      "显": 5396,
      "晁": 5397,
      "時": 5398,
      "晃": 5399,
      "晉": 5400,
      "晋": 5401,
      "晏": 5402,
      "晒": 5403,
      "晓": 5404,
      "晕": 5405,
      "晖": 5406,
      "晚": 5407,
      "晝": 5408,
      "晟": 5409,
      "晢": 5410,
      "晤": 5411,
      "晨": 5412,
      "晩": 5413,
      "普": 5414,
      "景": 5415,
      "晰": 5416,
      "晴": 5417,
      "晶": 5418,
      "智": 5419,
      "暁": 5420,
      "暂": 5421,
      "暇": 5422,
      "暉": 5423,
      "暑": 5424,
      "暕": 5425,
      "暖": 5426,
      "暗": 5427,
      "暢": 5428,
      "暦": 5429,
      "暨": 5430,
      "暫": 5431,
      "暮": 5432,
      "暴": 5433,
      "暹": 5434,
      "暾": 5435,
      "曆": 5436,
      "曇": 5437,
      "曉": 5438,
      "曖": 5439,
      "曜": 5440,
      "曠": 5441,
      "曦": 5442,
      "曩": 5443,
      "曰": 5444,
      "曲": 5445,
      "曳": 5446,
      "更": 5447,
      "書": 5448,
      "曹": 5449,
      "曺": 5450,
      "曼": 5451,
      "曽": 5452,
      "曾": 5453,
      "替": 5454,
      "最": 5455,
      "會": 5456,
      "朅": 5457,
      "月": 5458,
      "有": 5459,
      "朋": 5460,
      "朌": 5461,
      "服": 5462,
      "朔": 5463,
      "朕": 5464,
      "朗": 5465,
      "望": 5466,
      "朝": 5467,
      "期": 5468,
      "木": 5469,
      "朩": 5470,
      "未": 5471,
      "末": 5472,
      "本": 5473,
      "札": 5474,
      "朮": 5475,
      "术": 5476,
      "朱": 5477,
      "朴": 5478,
      "朵": 5479,
      "机": 5480,
      "朽": 5481,
      "杀": 5482,
      "杂": 5483,
      "权": 5484,
      "杆": 5485,
      "杉": 5486,
      "李": 5487,
      "杏": 5488,
      "材": 5489,
      "村": 5490,
      "杓": 5491,
      "杖": 5492,
      "杜": 5493,
      "杞": 5494,
      "束": 5495,
      "杠": 5496,
      "条": 5497,
      "来": 5498,
      "杨": 5499,
      "杭": 5500,
      "杯": 5501,
      "杰": 5502,
      "東": 5503,
      "杲": 5504,
      "杵": 5505,
      "杷": 5506,
      "杼": 5507,
      "杽": 5508,
      "松": 5509,
      "板": 5510,
      "极": 5511,
      "构": 5512,
      "枉": 5513,
      "析": 5514,
      "枕": 5515,
      "林": 5516,
      "枚": 5517,
      "果": 5518,
      "枝": 5519,
      "枢": 5520,
      "枣": 5521,
      "枨": 5522,
      "枪": 5523,
      "枯": 5524,
      "架": 5525,
      "枸": 5526,
      "枹": 5527,
      "柄": 5528,
      "柏": 5529,
      "某": 5530,
      "柑": 5531,
      "染": 5532,
      "柔": 5533,
      "柚": 5534,
      "柜": 5535,
      "柞": 5536,
      "查": 5537,
      "柬": 5538,
      "柯": 5539,
      "柱": 5540,
      "柳": 5541,
      "柴": 5542,
      "査": 5543,
      "柿": 5544,
      "栀": 5545,
      "栂": 5546,
      "栄": 5547,
      "栅": 5548,
      "标": 5549,
      "栋": 5550,
      "栏": 5551,
      "树": 5552,
      "栒": 5553,
      "栓": 5554,
      "栖": 5555,
      "栗": 5556,
      "栜": 5557,
      "校": 5558,
      "株": 5559,
      "栲": 5560,
      "栳": 5561,
      "样": 5562,
      "核": 5563,
      "根": 5564,
      "格": 5565,
      "栽": 5566,
      "桀": 5567,
      "桁": 5568,
      "桂": 5569,
      "桃": 5570,
      "框": 5571,
      "案": 5572,
      "桉": 5573,
      "桌": 5574,
      "桐": 5575,
      "桑": 5576,
      "桓": 5577,
      "桔": 5578,
      "桜": 5579,
      "桟": 5580,
      "桡": 5581,
      "档": 5582,
      "桥": 5583,
      "桦": 5584,
      "桧": 5585,
      "桩": 5586,
      "桶": 5587,
      "桿": 5588,
      "梁": 5589,
      "梅": 5590,
      "梓": 5591,
      "梗": 5592,
      "條": 5593,
      "梟": 5594,
      "梠": 5595,
      "梢": 5596,
      "梦": 5597,
      "梨": 5598,
      "梭": 5599,
      "梯": 5600,
      "械": 5601,
      "梳": 5602,
      "梵": 5603,
      "梶": 5604,
      "检": 5605,
      "棄": 5606,
      "棊": 5607,
      "棋": 5608,
      "棍": 5609,
      "棒": 5610,
      "棕": 5611,
      "棘": 5612,
      "棚": 5613,
      "棠": 5614,
      "棣": 5615,
      "棧": 5616,
      "棩": 5617,
      "森": 5618,
      "棯": 5619,
      "棱": 5620,
      "棲": 5621,
      "棵": 5622,
      "棹": 5623,
      "棻": 5624,
      "椀": 5625,
      "椅": 5626,
      "植": 5627,
      "椎": 5628,
      "椒": 5629,
      "検": 5630,
      "椰": 5631,
      "椽": 5632,
      "椿": 5633,
      "楀": 5634,
      "楂": 5635,
      "楊": 5636,
      "楓": 5637,
      "楗": 5638,
      "楚": 5639,
      "楝": 5640,
      "楞": 5641,
      "楠": 5642,
      "楣": 5643,
      "楩": 5644,
      "楫": 5645,
      "業": 5646,
      "楯": 5647,
      "極": 5648,
      "楷": 5649,
      "楼": 5650,
      "楽": 5651,
      "概": 5652,
      "榈": 5653,
      "榎": 5654,
      "榕": 5655,
      "榛": 5656,
      "榜": 5657,
      "榫": 5658,
      "榮": 5659,
      "榴": 5660,
      "槃": 5661,
      "構": 5662,
      "槌": 5663,
      "槍": 5664,
      "槐": 5665,
      "様": 5666,
      "槛": 5667,
      "槟": 5668,
      "槤": 5669,
      "槪": 5670,
      "槻": 5671,
      "槽": 5672,
      "樂": 5673,
      "樊": 5674,
      "樓": 5675,
      "標": 5676,
      "樞": 5677,
      "樟": 5678,
      "模": 5679,
      "樣": 5680,
      "樨": 5681,
      "権": 5682,
      "横": 5683,
      "樫": 5684,
      "樯": 5685,
      "樱": 5686,
      "樸": 5687,
      "樹": 5688,
      "樺": 5689,
      "橄": 5690,
      "橋": 5691,
      "橘": 5692,
      "橙": 5693,
      "機": 5694,
      "橫": 5695,
      "橹": 5696,
      "檀": 5697,
      "檔": 5698,
      "檗": 5699,
      "檚": 5700,
      "檜": 5701,
      "檟": 5702,
      "檢": 5703,
      "檻": 5704,
      "櫃": 5705,
      "櫓": 5706,
      "櫟": 5707,
      "櫻": 5708,
      "欄": 5709,
      "權": 5710,
      "欒": 5711,
      "欖": 5712,
      "欠": 5713,
      "次": 5714,
      "欢": 5715,
      "欣": 5716,
      "欧": 5717,
      "欲": 5718,
      "欺": 5719,
      "欽": 5720,
      "款": 5721,
      "歆": 5722,
      "歇": 5723,
      "歉": 5724,
      "歌": 5725,
      "歐": 5726,
      "歓": 5727,
      "歙": 5728,
      "歟": 5729,
      "歡": 5730,
      "止": 5731,
      "正": 5732,
      "此": 5733,
      "步": 5734,
      "武": 5735,
      "歧": 5736,
      "歩": 5737,
      "歪": 5738,
      "歯": 5739,
      "歲": 5740,
      "歳": 5741,
      "歴": 5742,
      "歷": 5743,
      "歸": 5744,
      "歹": 5745,
      "歺": 5746,
      "死": 5747,
      "歼": 5748,
      "殁": 5749,
      "殃": 5750,
      "殆": 5751,
      "殉": 5752,
      "殊": 5753,
      "残": 5754,
      "殖": 5755,
      "殘": 5756,
      "殡": 5757,
      "殤": 5758,
      "殳": 5759,
      "段": 5760,
      "殷": 5761,
      "殺": 5762,
      "殻": 5763,
      "殿": 5764,
      "毀": 5765,
      "毁": 5766,
      "毅": 5767,
      "毋": 5768,
      "毌": 5769,
      "母": 5770,
      "毎": 5771,
      "每": 5772,
      "毐": 5773,
      "毒": 5774,
      "毓": 5775,
      "比": 5776,
      "毕": 5777,
      "毗": 5778,
      "毘": 5779,
      "毛": 5780,
      "毫": 5781,
      "毬": 5782,
      "毱": 5783,
      "氀": 5784,
      "氈": 5785,
      "氏": 5786,
      "氐": 5787,
      "民": 5788,
      "氓": 5789,
      "气": 5790,
      "気": 5791,
      "氛": 5792,
      "氡": 5793,
      "氢": 5794,
      "氣": 5795,
      "氧": 5796,
      "氮": 5797,
      "水": 5798,
      "氵": 5799,
      "氷": 5800,
      "永": 5801,
      "氾": 5802,
      "汁": 5803,
      "求": 5804,
      "汆": 5805,
      "汇": 5806,
      "汉": 5807,
      "汊": 5808,
      "汐": 5809,
      "汕": 5810,
      "汗": 5811,
      "汚": 5812,
      "汝": 5813,
      "汞": 5814,
      "江": 5815,
      "池": 5816,
      "污": 5817,
      "汤": 5818,
      "汪": 5819,
      "汰": 5820,
      "汲": 5821,
      "汴": 5822,
      "汶": 5823,
      "決": 5824,
      "汽": 5825,
      "沁": 5826,
      "沂": 5827,
      "沃": 5828,
      "沅": 5829,
      "沈": 5830,
      "沉": 5831,
      "沌": 5832,
      "沒": 5833,
      "沖": 5834,
      "沙": 5835,
      "沛": 5836,
      "沟": 5837,
      "没": 5838,
      "沢": 5839,
      "沧": 5840,
      "沪": 5841,
      "沫": 5842,
      "沮": 5843,
      "河": 5844,
      "油": 5845,
      "治": 5846,
      "沼": 5847,
      "沿": 5848,
      "況": 5849,
      "泄": 5850,
      "泉": 5851,
      "泊": 5852,
      "法": 5853,
      "泗": 5854,
      "泛": 5855,
      "泝": 5856,
      "泡": 5857,
      "波": 5858,
      "泣": 5859,
      "泥": 5860,
      "注": 5861,
      "泪": 5862,
      "泮": 5863,
      "泰": 5864,
      "泳": 5865,
      "泵": 5866,
      "泼": 5867,
      "泽": 5868,
      "洁": 5869,
      "洋": 5870,
      "洎": 5871,
      "洑": 5872,
      "洒": 5873,
      "洗": 5874,
      "洛": 5875,
      "洞": 5876,
      "津": 5877,
      "洩": 5878,
      "洪": 5879,
      "洮": 5880,
      "洱": 5881,
      "洲": 5882,
      "洵": 5883,
      "洹": 5884,
      "活": 5885,
      "洼": 5886,
      "洽": 5887,
      "派": 5888,
      "流": 5889,
      "浄": 5890,
      "浅": 5891,
      "浇": 5892,
      "浊": 5893,
      "测": 5894,
      "济": 5895,
      "浏": 5896,
      "浑": 5897,
      "浓": 5898,
      "浙": 5899,
      "浚": 5900,
      "浜": 5901,
      "浦": 5902,
      "浩": 5903,
      "浪": 5904,
      "浬": 5905,
      "浮": 5906,
      "浳": 5907,
      "浴": 5908,
      "海": 5909,
      "浸": 5910,
      "涅": 5911,
      "涇": 5912,
      "消": 5913,
      "涉": 5914,
      "涌": 5915,
      "涑": 5916,
      "涓": 5917,
      "涕": 5918,
      "涛": 5919,
      "涡": 5920,
      "润": 5921,
      "涧": 5922,
      "涨": 5923,
      "涯": 5924,
      "液": 5925,
      "涵": 5926,
      "涸": 5927,
      "涼": 5928,
      "涿": 5929,
      "淀": 5930,
      "淄": 5931,
      "淆": 5932,
      "淇": 5933,
      "淋": 5934,
      "淑": 5935,
      "淒": 5936,
      "淖": 5937,
      "淘": 5938,
      "淙": 5939,
      "淚": 5940,
      "淝": 5941,
      "淡": 5942,
      "淦": 5943,
      "淨": 5944,
      "淫": 5945,
      "淮": 5946,
      "淯": 5947,
      "深": 5948,
      "淳": 5949,
      "淵": 5950,
      "混": 5951,
      "淸": 5952,
      "淺": 5953,
      "添": 5954,
      "渀": 5955,
      "渁": 5956,
      "清": 5957,
      "渇": 5958,
      "済": 5959,
      "渉": 5960,
      "渊": 5961,
      "渋": 5962,
      "渐": 5963,
      "渓": 5964,
      "渔": 5965,
      "渕": 5966,
      "渗": 5967,
      "渚": 5968,
      "減": 5969,
      "渝": 5970,
      "渠": 5971,
      "渡": 5972,
      "渢": 5973,
      "渤": 5974,
      "温": 5975,
      "測": 5976,
      "渭": 5977,
      "港": 5978,
      "渴": 5979,
      "游": 5980,
      "渺": 5981,
      "渾": 5982,
      "湊": 5983,
      "湖": 5984,
      "湘": 5985,
      "湣": 5986,
      "湦": 5987,
      "湯": 5988,
      "湽": 5989,
      "湾": 5990,
      "湿": 5991,
      "満": 5992,
      "溉": 5993,
      "源": 5994,
      "準": 5995,
      "溜": 5996,
      "溝": 5997,
      "溢": 5998,
      "溥": 5999,
      "溪": 6000,
      "溫": 6001,
      "溯": 6002,
      "溶": 6003,
      "溺": 6004,
      "滄": 6005,
      "滅": 6006,
      "滇": 6007,
      "滋": 6008,
      "滎": 6009,
      "滑": 6010,
      "滕": 6011,
      "滝": 6012,
      "滞": 6013,
      "满": 6014,
      "滤": 6015,
      "滥": 6016,
      "滨": 6017,
      "滩": 6018,
      "滬": 6019,
      "滯": 6020,
      "滲": 6021,
      "滴": 6022,
      "滸": 6023,
      "滿": 6024,
      "漁": 6025,
      "漂": 6026,
      "漆": 6027,
      "漏": 6028,
      "漓": 6029,
      "演": 6030,
      "漕": 6031,
      "漠": 6032,
      "漢": 6033,
      "漩": 6034,
      "漫": 6035,
      "漬": 6036,
      "漱": 6037,
      "漲": 6038,
      "漳": 6039,
      "漸": 6040,
      "漿": 6041,
      "潁": 6042,
      "潇": 6043,
      "潍": 6044,
      "潑": 6045,
      "潔": 6046,
      "潘": 6047,
      "潛": 6048,
      "潜": 6049,
      "潟": 6050,
      "潤": 6051,
      "潦": 6052,
      "潭": 6053,
      "潮": 6054,
      "潰": 6055,
      "潲": 6056,
      "潵": 6057,
      "潺": 6058,
      "潼": 6059,
      "澀": 6060,
      "澄": 6061,
      "澎": 6062,
      "澜": 6063,
      "澡": 6064,
      "澤": 6065,
      "澧": 6066,
      "澳": 6067,
      "澶": 6068,
      "激": 6069,
      "濁": 6070,
      "濃": 6071,
      "濕": 6072,
      "濛": 6073,
      "濟": 6074,
      "濡": 6075,
      "濤": 6076,
      "濫": 6077,
      "濮": 6078,
      "濯": 6079,
      "濱": 6080,
      "瀆": 6081,
      "瀉": 6082,
      "瀏": 6083,
      "瀑": 6084,
      "瀛": 6085,
      "瀧": 6086,
      "瀬": 6087,
      "灃": 6088,
      "灌": 6089,
      "灑": 6090,
      "灝": 6091,
      "灣": 6092,
      "火": 6093,
      "灬": 6094,
      "灭": 6095,
      "灯": 6096,
      "灰": 6097,
      "灵": 6098,
      "灶": 6099,
      "灸": 6100,
      "灻": 6101,
      "災": 6102,
      "灾": 6103,
      "灿": 6104,
      "炀": 6105,
      "炉": 6106,
      "炊": 6107,
      "炎": 6108,
      "炒": 6109,
      "炙": 6110,
      "炬": 6111,
      "炭": 6112,
      "炮": 6113,
      "炳": 6114,
      "炸": 6115,
      "点": 6116,
      "為": 6117,
      "炼": 6118,
      "烂": 6119,
      "烈": 6120,
      "烏": 6121,
      "烘": 6122,
      "烙": 6123,
      "烛": 6124,
      "烟": 6125,
      "烤": 6126,
      "烦": 6127,
      "烧": 6128,
      "烫": 6129,
      "烬": 6130,
      "热": 6131,
      "烹": 6132,
      "烽": 6133,
      "焉": 6134,
      "焊": 6135,
      "焕": 6136,
      "焘": 6137,
      "焙": 6138,
      "焚": 6139,
      "無": 6140,
      "焦": 6141,
      "焯": 6142,
      "焰": 6143,
      "然": 6144,
      "焼": 6145,
      "煉": 6146,
      "煌": 6147,
      "煎": 6148,
      "煙": 6149,
      "煜": 6150,
      "煞": 6151,
      "煤": 6152,
      "煥": 6153,
      "煦": 6154,
      "照": 6155,
      "煩": 6156,
      "煬": 6157,
      "煮": 6158,
      "煽": 6159,
      "熊": 6160,
      "熏": 6161,
      "熔": 6162,
      "熙": 6163,
      "熟": 6164,
      "熱": 6165,
      "熹": 6166,
      "熾": 6167,
      "燁": 6168,
      "燃": 6169,
      "燈": 6170,
      "燊": 6171,
      "燎": 6172,
      "燐": 6173,
      "燒": 6174,
      "燔": 6175,
      "燕": 6176,
      "燗": 6177,
      "營": 6178,
      "燥": 6179,
      "燦": 6180,
      "燭": 6181,
      "燮": 6182,
      "燯": 6183,
      "爀": 6184,
      "爆": 6185,
      "爐": 6186,
      "爛": 6187,
      "爪": 6188,
      "爬": 6189,
      "爭": 6190,
      "爱": 6191,
      "爲": 6192,
      "爵": 6193,
      "父": 6194,
      "爷": 6195,
      "爸": 6196,
      "爹": 6197,
      "爺": 6198,
      "爽": 6199,
      "爾": 6200,
      "牀": 6201,
      "牆": 6202,
      "片": 6203,
      "版": 6204,
      "牌": 6205,
      "牍": 6206,
      "牒": 6207,
      "牘": 6208,
      "牙": 6209,
      "牛": 6210,
      "牜": 6211,
      "牟": 6212,
      "牠": 6213,
      "牡": 6214,
      "牢": 6215,
      "牦": 6216,
      "牧": 6217,
      "物": 6218,
      "牲": 6219,
      "牵": 6220,
      "特": 6221,
      "牺": 6222,
      "牽": 6223,
      "犀": 6224,
      "犁": 6225,
      "犅": 6226,
      "犍": 6227,
      "犠": 6228,
      "犢": 6229,
      "犨": 6230,
      "犬": 6231,
      "犭": 6232,
      "犯": 6233,
      "状": 6234,
      "犸": 6235,
      "犹": 6236,
      "狀": 6237,
      "狂": 6238,
      "狄": 6239,
      "狐": 6240,
      "狗": 6241,
      "狛": 6242,
      "狠": 6243,
      "狡": 6244,
      "狩": 6245,
      "独": 6246,
      "狭": 6247,
      "狮": 6248,
      "狱": 6249,
      "狸": 6250,
      "狻": 6251,
      "狼": 6252,
      "猎": 6253,
      "猗": 6254,
      "猛": 6255,
      "猜": 6256,
      "猟": 6257,
      "猠": 6258,
      "猩": 6259,
      "猪": 6260,
      "猫": 6261,
      "猬": 6262,
      "献": 6263,
      "猴": 6264,
      "猶": 6265,
      "猺": 6266,
      "猾": 6267,
      "猿": 6268,
      "獄": 6269,
      "獅": 6270,
      "獎": 6271,
      "獠": 6272,
      "獣": 6273,
      "獥": 6274,
      "獨": 6275,
      "獩": 6276,
      "獬": 6277,
      "獭": 6278,
      "獲": 6279,
      "獳": 6280,
      "獵": 6281,
      "獸": 6282,
      "獻": 6283,
      "獽": 6284,
      "玄": 6285,
      "玆": 6286,
      "率": 6287,
      "玉": 6288,
      "王": 6289,
      "玑": 6290,
      "玖": 6291,
      "玛": 6292,
      "玥": 6293,
      "玩": 6294,
      "玫": 6295,
      "环": 6296,
      "现": 6297,
      "玲": 6298,
      "玻": 6299,
      "珂": 6300,
      "珊": 6301,
      "珍": 6302,
      "珙": 6303,
      "珞": 6304,
      "珠": 6305,
      "珩": 6306,
      "珪": 6307,
      "班": 6308,
      "珮": 6309,
      "現": 6310,
      "球": 6311,
      "琅": 6312,
      "理": 6313,
      "琉": 6314,
      "琊": 6315,
      "琐": 6316,
      "琠": 6317,
      "琦": 6318,
      "琪": 6319,
      "琮": 6320,
      "琰": 6321,
      "琳": 6322,
      "琴": 6323,
      "琵": 6324,
      "琶": 6325,
      "琼": 6326,
      "瑀": 6327,
      "瑄": 6328,
      "瑋": 6329,
      "瑕": 6330,
      "瑗": 6331,
      "瑚": 6332,
      "瑜": 6333,
      "瑞": 6334,
      "瑟": 6335,
      "瑠": 6336,
      "瑣": 6337,
      "瑤": 6338,
      "瑩": 6339,
      "瑪": 6340,
      "瑰": 6341,
      "瑴": 6342,
      "瑶": 6343,
      "瑾": 6344,
      "璃": 6345,
      "璇": 6346,
      "璉": 6347,
      "璋": 6348,
      "璕": 6349,
      "璜": 6350,
      "璞": 6351,
      "璟": 6352,
      "璣": 6353,
      "璦": 6354,
      "璧": 6355,
      "璨": 6356,
      "環": 6357,
      "璽": 6358,
      "璿": 6359,
      "瓊": 6360,
      "瓏": 6361,
      "瓚": 6362,
      "瓜": 6363,
      "瓠": 6364,
      "瓢": 6365,
      "瓣": 6366,
      "瓦": 6367,
      "瓩": 6368,
      "瓲": 6369,
      "瓶": 6370,
      "瓷": 6371,
      "甁": 6372,
      "甄": 6373,
      "甌": 6374,
      "甑": 6375,
      "甕": 6376,
      "甘": 6377,
      "甚": 6378,
      "甜": 6379,
      "生": 6380,
      "產": 6381,
      "産": 6382,
      "用": 6383,
      "甫": 6384,
      "田": 6385,
      "由": 6386,
      "甲": 6387,
      "申": 6388,
      "电": 6389,
      "男": 6390,
      "甸": 6391,
      "町": 6392,
      "画": 6393,
      "畅": 6394,
      "界": 6395,
      "畏": 6396,
      "畑": 6397,
      "畔": 6398,
      "留": 6399,
      "畜": 6400,
      "畝": 6401,
      "畠": 6402,
      "畢": 6403,
      "略": 6404,
      "畧": 6405,
      "番": 6406,
      "畫": 6407,
      "畬": 6408,
      "畯": 6409,
      "異": 6410,
      "畲": 6411,
      "畳": 6412,
      "畴": 6413,
      "當": 6414,
      "畸": 6415,
      "畿": 6416,
      "疆": 6417,
      "疊": 6418,
      "疏": 6419,
      "疑": 6420,
      "疗": 6421,
      "疚": 6422,
      "疟": 6423,
      "疫": 6424,
      "疯": 6425,
      "疲": 6426,
      "疼": 6427,
      "疾": 6428,
      "病": 6429,
      "症": 6430,
      "痊": 6431,
      "痒": 6432,
      "痔": 6433,
      "痘": 6434,
      "痛": 6435,
      "痣": 6436,
      "痧": 6437,
      "痩": 6438,
      "痲": 6439,
      "痴": 6440,
      "痵": 6441,
      "痹": 6442,
      "痺": 6443,
      "瘋": 6444,
      "瘍": 6445,
      "瘘": 6446,
      "瘙": 6447,
      "瘟": 6448,
      "瘢": 6449,
      "瘤": 6450,
      "瘦": 6451,
      "瘾": 6452,
      "療": 6453,
      "癌": 6454,
      "癒": 6455,
      "癜": 6456,
      "癡": 6457,
      "癥": 6458,
      "癩": 6459,
      "癮": 6460,
      "癯": 6461,
      "癶": 6462,
      "癸": 6463,
      "発": 6464,
      "登": 6465,
      "發": 6466,
      "白": 6467,
      "百": 6468,
      "的": 6469,
      "皆": 6470,
      "皇": 6471,
      "皈": 6472,
      "皋": 6473,
      "皎": 6474,
      "皑": 6475,
      "皓": 6476,
      "皙": 6477,
      "皚": 6478,
      "皛": 6479,
      "皮": 6480,
      "皱": 6481,
      "皴": 6482,
      "皷": 6483,
      "盃": 6484,
      "盆": 6485,
      "盈": 6486,
      "益": 6487,
      "盎": 6488,
      "盐": 6489,
      "监": 6490,
      "盒": 6491,
      "盖": 6492,
      "盗": 6493,
      "盘": 6494,
      "盛": 6495,
      "盜": 6496,
      "盞": 6497,
      "盟": 6498,
      "盡": 6499,
      "監": 6500,
      "盤": 6501,
      "盥": 6502,
      "盧": 6503,
      "盪": 6504,
      "目": 6505,
      "盯": 6506,
      "盲": 6507,
      "直": 6508,
      "相": 6509,
      "盼": 6510,
      "盾": 6511,
      "省": 6512,
      "眇": 6513,
      "眉": 6514,
      "看": 6515,
      "県": 6516,
      "眞": 6517,
      "真": 6518,
      "眠": 6519,
      "眨": 6520,
      "眯": 6521,
      "眶": 6522,
      "眷": 6523,
      "眸": 6524,
      "眼": 6525,
      "眾": 6526,
      "着": 6527,
      "睁": 6528,
      "睑": 6529,
      "睛": 6530,
      "睡": 6531,
      "睢": 6532,
      "督": 6533,
      "睹": 6534,
      "睿": 6535,
      "瞇": 6536,
      "瞋": 6537,
      "瞞": 6538,
      "瞥": 6539,
      "瞬": 6540,
      "瞭": 6541,
      "瞳": 6542,
      "瞻": 6543,
      "瞽": 6544,
      "瞿": 6545,
      "矛": 6546,
      "矜": 6547,
      "矢": 6548,
      "矣": 6549,
      "知": 6550,
      "矩": 6551,
      "矫": 6552,
      "短": 6553,
      "矮": 6554,
      "矯": 6555,
      "石": 6556,
      "矽": 6557,
      "矿": 6558,
      "砀": 6559,
      "码": 6560,
      "砂": 6561,
      "砍": 6562,
      "研": 6563,
      "砕": 6564,
      "砖": 6565,
      "砝": 6566,
      "砥": 6567,
      "砭": 6568,
      "砲": 6569,
      "破": 6570,
      "砷": 6571,
      "砸": 6572,
      "础": 6573,
      "硏": 6574,
      "硕": 6575,
      "硥": 6576,
      "硫": 6577,
      "硬": 6578,
      "确": 6579,
      "硯": 6580,
      "碁": 6581,
      "碌": 6582,
      "碍": 6583,
      "碎": 6584,
      "碑": 6585,
      "碗": 6586,
      "碙": 6587,
      "碟": 6588,
      "碧": 6589,
      "碩": 6590,
      "碰": 6591,
      "碳": 6592,
      "確": 6593,
      "碼": 6594,
      "碾": 6595,
      "磁": 6596,
      "磅": 6597,
      "磊": 6598,
      "磐": 6599,
      "磨": 6600,
      "磬": 6601,
      "礁": 6602,
      "礎": 6603,
      "礒": 6604,
      "礙": 6605,
      "礦": 6606,
      "礫": 6607,
      "礮": 6608,
      "示": 6609,
      "礼": 6610,
      "社": 6611,
      "祀": 6612,
      "祁": 6613,
      "祇": 6614,
      "祈": 6615,
      "祉": 6616,
      "祎": 6617,
      "祐": 6618,
      "祓": 6619,
      "祕": 6620,
      "祖": 6621,
      "祗": 6622,
      "祜": 6623,
      "祝": 6624,
      "神": 6625,
      "祟": 6626,
      "祠": 6627,
      "祣": 6628,
      "祥": 6629,
      "票": 6630,
      "祫": 6631,
      "祭": 6632,
      "祯": 6633,
      "祳": 6634,
      "祴": 6635,
      "祸": 6636,
      "祺": 6637,
      "祿": 6638,
      "禁": 6639,
      "禄": 6640,
      "禅": 6641,
      "禍": 6642,
      "禎": 6643,
      "福": 6644,
      "禖": 6645,
      "禘": 6646,
      "禧": 6647,
      "禪": 6648,
      "禮": 6649,
      "禰": 6650,
      "禱": 6651,
      "禹": 6652,
      "禺": 6653,
      "离": 6654,
      "禾": 6655,
      "秀": 6656,
      "私": 6657,
      "秂": 6658,
      "秉": 6659,
      "秋": 6660,
      "种": 6661,
      "科": 6662,
      "秒": 6663,
      "秘": 6664,
      "租": 6665,
      "秤": 6666,
      "秦": 6667,
      "秩": 6668,
      "积": 6669,
      "称": 6670,
      "移": 6671,
      "秽": 6672,
      "稀": 6673,
      "稃": 6674,
      "稅": 6675,
      "程": 6676,
      "稍": 6677,
      "税": 6678,
      "稔": 6679,
      "稚": 6680,
      "稜": 6681,
      "稠": 6682,
      "種": 6683,
      "稱": 6684,
      "稲": 6685,
      "稳": 6686,
      "稷": 6687,
      "稹": 6688,
      "稻": 6689,
      "稽": 6690,
      "稿": 6691,
      "穀": 6692,
      "穂": 6693,
      "穆": 6694,
      "積": 6695,
      "穎": 6696,
      "穏": 6697,
      "穗": 6698,
      "穩": 6699,
      "穫": 6700,
      "穴": 6701,
      "究": 6702,
      "穷": 6703,
      "穹": 6704,
      "空": 6705,
      "穿": 6706,
      "突": 6707,
      "窃": 6708,
      "窄": 6709,
      "窍": 6710,
      "窑": 6711,
      "窓": 6712,
      "窗": 6713,
      "窘": 6714,
      "窝": 6715,
      "窟": 6716,
      "窣": 6717,
      "窦": 6718,
      "窩": 6719,
      "窪": 6720,
      "窮": 6721,
      "窰": 6722,
      "窶": 6723,
      "窺": 6724,
      "竇": 6725,
      "竈": 6726,
      "立": 6727,
      "竖": 6728,
      "站": 6729,
      "竜": 6730,
      "竞": 6731,
      "竟": 6732,
      "章": 6733,
      "竣": 6734,
      "童": 6735,
      "竭": 6736,
      "端": 6737,
      "競": 6738,
      "竹": 6739,
      "竺": 6740,
      "笃": 6741,
      "笈": 6742,
      "笋": 6743,
      "笑": 6744,
      "笔": 6745,
      "笙": 6746,
      "笛": 6747,
      "笠": 6748,
      "符": 6749,
      "笨": 6750,
      "第": 6751,
      "笹": 6752,
      "笼": 6753,
      "筅": 6754,
      "筆": 6755,
      "等": 6756,
      "筊": 6757,
      "筋": 6758,
      "筌": 6759,
      "筍": 6760,
      "筐": 6761,
      "筑": 6762,
      "筒": 6763,
      "筓": 6764,
      "答": 6765,
      "策": 6766,
      "筝": 6767,
      "筠": 6768,
      "筵": 6769,
      "筶": 6770,
      "筷": 6771,
      "筹": 6772,
      "签": 6773,
      "简": 6774,
      "箇": 6775,
      "箍": 6776,
      "箐": 6777,
      "箔": 6778,
      "箕": 6779,
      "算": 6780,
      "管": 6781,
      "箫": 6782,
      "箭": 6783,
      "箱": 6784,
      "箴": 6785,
      "箸": 6786,
      "節": 6787,
      "範": 6788,
      "篆": 6789,
      "篇": 6790,
      "築": 6791,
      "篋": 6792,
      "篠": 6793,
      "篤": 6794,
      "篥": 6795,
      "篩": 6796,
      "篮": 6797,
      "篳": 6798,
      "篷": 6799,
      "簋": 6800,
      "簡": 6801,
      "簧": 6802,
      "簷": 6803,
      "簸": 6804,
      "簽": 6805,
      "簾": 6806,
      "籌": 6807,
      "籍": 6808,
      "籐": 6809,
      "籞": 6810,
      "籠": 6811,
      "籤": 6812,
      "籩": 6813,
      "籲": 6814,
      "米": 6815,
      "籵": 6816,
      "类": 6817,
      "籽": 6818,
      "籾": 6819,
      "粁": 6820,
      "粉": 6821,
      "粍": 6822,
      "粑": 6823,
      "粒": 6824,
      "粕": 6825,
      "粗": 6826,
      "粘": 6827,
      "粟": 6828,
      "粤": 6829,
      "粥": 6830,
      "粧": 6831,
      "粨": 6832,
      "粪": 6833,
      "粮": 6834,
      "粱": 6835,
      "粲": 6836,
      "粵": 6837,
      "粹": 6838,
      "粼": 6839,
      "粽": 6840,
      "精": 6841,
      "粿": 6842,
      "糊": 6843,
      "糎": 6844,
      "糕": 6845,
      "糖": 6846,
      "糙": 6847,
      "糜": 6848,
      "糝": 6849,
      "糞": 6850,
      "糟": 6851,
      "糠": 6852,
      "糯": 6853,
      "糰": 6854,
      "糵": 6855,
      "糸": 6856,
      "系": 6857,
      "糾": 6858,
      "紀": 6859,
      "紂": 6860,
      "約": 6861,
      "紅": 6862,
      "紇": 6863,
      "紊": 6864,
      "紋": 6865,
      "納": 6866,
      "紐": 6867,
      "純": 6868,
      "紗": 6869,
      "紘": 6870,
      "紙": 6871,
      "級": 6872,
      "紛": 6873,
      "素": 6874,
      "紡": 6875,
      "索": 6876,
      "紧": 6877,
      "紫": 6878,
      "累": 6879,
      "細": 6880,
      "紹": 6881,
      "紺": 6882,
      "終": 6883,
      "組": 6884,
      "絆": 6885,
      "経": 6886,
      "結": 6887,
      "絕": 6888,
      "絞": 6889,
      "絡": 6890,
      "絣": 6891,
      "給": 6892,
      "絨": 6893,
      "絮": 6894,
      "統": 6895,
      "絲": 6896,
      "絳": 6897,
      "絵": 6898,
      "絶": 6899,
      "絹": 6900,
      "絺": 6901,
      "綏": 6902,
      "經": 6903,
      "継": 6904,
      "続": 6905,
      "綜": 6906,
      "綠": 6907,
      "綢": 6908,
      "綫": 6909,
      "綬": 6910,
      "維": 6911,
      "綰": 6912,
      "綱": 6913,
      "網": 6914,
      "綴": 6915,
      "綸": 6916,
      "綺": 6917,
      "綾": 6918,
      "綿": 6919,
      "緊": 6920,
      "総": 6921,
      "緑": 6922,
      "緒": 6923,
      "線": 6924,
      "締": 6925,
      "緡": 6926,
      "緣": 6927,
      "編": 6928,
      "緩": 6929,
      "緯": 6930,
      "練": 6931,
      "縁": 6932,
      "縄": 6933,
      "縒": 6934,
      "縛": 6935,
      "縝": 6936,
      "縣": 6937,
      "縦": 6938,
      "縫": 6939,
      "縮": 6940,
      "縱": 6941,
      "縻": 6942,
      "總": 6943,
      "績": 6944,
      "繁": 6945,
      "繄": 6946,
      "繆": 6947,
      "繇": 6948,
      "織": 6949,
      "繚": 6950,
      "繞": 6951,
      "繡": 6952,
      "繪": 6953,
      "繫": 6954,
      "繰": 6955,
      "繼": 6956,
      "纂": 6957,
      "續": 6958,
      "纖": 6959,
      "纜": 6960,
      "纠": 6961,
      "红": 6962,
      "纣": 6963,
      "纤": 6964,
      "约": 6965,
      "级": 6966,
      "纪": 6967,
      "纬": 6968,
      "纯": 6969,
      "纱": 6970,
      "纲": 6971,
      "纳": 6972,
      "纵": 6973,
      "纸": 6974,
      "纹": 6975,
      "纽": 6976,
      "线": 6977,
      "练": 6978,
      "组": 6979,
      "细": 6980,
      "织": 6981,
      "终": 6982,
      "绍": 6983,
      "经": 6984,
      "绐": 6985,
      "结": 6986,
      "绕": 6987,
      "绘": 6988,
      "给": 6989,
      "络": 6990,
      "绝": 6991,
      "绞": 6992,
      "统": 6993,
      "绣": 6994,
      "绥": 6995,
      "继": 6996,
      "绩": 6997,
      "绪": 6998,
      "续": 6999,
      "绳": 7000,
      "维": 7001,
      "绵": 7002,
      "综": 7003,
      "绿": 7004,
      "缀": 7005,
      "缅": 7006,
      "缆": 7007,
      "缓": 7008,
      "缔": 7009,
      "编": 7010,
      "缘": 7011,
      "缙": 7012,
      "缝": 7013,
      "缠": 7014,
      "缨": 7015,
      "缩": 7016,
      "缶": 7017,
      "缺": 7018,
      "罍": 7019,
      "罐": 7020,
      "网": 7021,
      "罕": 7022,
      "罗": 7023,
      "罚": 7024,
      "罡": 7025,
      "罢": 7026,
      "罩": 7027,
      "罪": 7028,
      "置": 7029,
      "罰": 7030,
      "署": 7031,
      "罵": 7032,
      "罷": 7033,
      "罽": 7034,
      "羅": 7035,
      "羈": 7036,
      "羊": 7037,
      "羌": 7038,
      "美": 7039,
      "羑": 7040,
      "羚": 7041,
      "羞": 7042,
      "羣": 7043,
      "群": 7044,
      "義": 7045,
      "羯": 7046,
      "羲": 7047,
      "羽": 7048,
      "羿": 7049,
      "翁": 7050,
      "翅": 7051,
      "習": 7052,
      "翔": 7053,
      "翘": 7054,
      "翟": 7055,
      "翠": 7056,
      "翡": 7057,
      "翦": 7058,
      "翩": 7059,
      "翬": 7060,
      "翰": 7061,
      "翻": 7062,
      "翼": 7063,
      "耀": 7064,
      "老": 7065,
      "考": 7066,
      "者": 7067,
      "耆": 7068,
      "而": 7069,
      "耍": 7070,
      "耐": 7071,
      "耕": 7072,
      "耗": 7073,
      "耙": 7074,
      "耦": 7075,
      "耳": 7076,
      "耶": 7077,
      "耷": 7078,
      "耻": 7079,
      "耿": 7080,
      "聀": 7081,
      "聂": 7082,
      "聃": 7083,
      "聆": 7084,
      "聊": 7085,
      "职": 7086,
      "联": 7087,
      "聖": 7088,
      "聘": 7089,
      "聚": 7090,
      "聞": 7091,
      "聡": 7092,
      "聪": 7093,
      "聮": 7094,
      "聯": 7095,
      "聰": 7096,
      "聲": 7097,
      "聳": 7098,
      "聴": 7099,
      "聶": 7100,
      "職": 7101,
      "聽": 7102,
      "聾": 7103,
      "聿": 7104,
      "肃": 7105,
      "肅": 7106,
      "肆": 7107,
      "肇": 7108,
      "肉": 7109,
      "肋": 7110,
      "肌": 7111,
      "肏": 7112,
      "肖": 7113,
      "肘": 7114,
      "肛": 7115,
      "肝": 7116,
      "肠": 7117,
      "股": 7118,
      "肢": 7119,
      "肤": 7120,
      "肥": 7121,
      "肩": 7122,
      "肯": 7123,
      "育": 7124,
      "肴": 7125,
      "肺": 7126,
      "肾": 7127,
      "肿": 7128,
      "胀": 7129,
      "胁": 7130,
      "胃": 7131,
      "胆": 7132,
      "背": 7133,
      "胎": 7134,
      "胖": 7135,
      "胚": 7136,
      "胜": 7137,
      "胞": 7138,
      "胡": 7139,
      "胤": 7140,
      "胱": 7141,
      "胳": 7142,
      "胴": 7143,
      "胶": 7144,
      "胸": 7145,
      "胺": 7146,
      "能": 7147,
      "脂": 7148,
      "脅": 7149,
      "脇": 7150,
      "脈": 7151,
      "脉": 7152,
      "脊": 7153,
      "脏": 7154,
      "脐": 7155,
      "脑": 7156,
      "脚": 7157,
      "脩": 7158,
      "脫": 7159,
      "脯": 7160,
      "脱": 7161,
      "脳": 7162,
      "脸": 7163,
      "脹": 7164,
      "脾": 7165,
      "腊": 7166,
      "腎": 7167,
      "腐": 7168,
      "腑": 7169,
      "腔": 7170,
      "腕": 7171,
      "腦": 7172,
      "腧": 7173,
      "腭": 7174,
      "腰": 7175,
      "腱": 7176,
      "腳": 7177,
      "腸": 7178,
      "腹": 7179,
      "腺": 7180,
      "腾": 7181,
      "腿": 7182,
      "膀": 7183,
      "膊": 7184,
      "膏": 7185,
      "膚": 7186,
      "膛": 7187,
      "膜": 7188,
      "膝": 7189,
      "膠": 7190,
      "膨": 7191,
      "膩": 7192,
      "膳": 7193,
      "膺": 7194,
      "臀": 7195,
      "臂": 7196,
      "臈": 7197,
      "臉": 7198,
      "臏": 7199,
      "臓": 7200,
      "臘": 7201,
      "臟": 7202,
      "臣": 7203,
      "臥": 7204,
      "臧": 7205,
      "臨": 7206,
      "自": 7207,
      "臭": 7208,
      "至": 7209,
      "致": 7210,
      "臵": 7211,
      "臺": 7212,
      "臻": 7213,
      "臼": 7214,
      "舁": 7215,
      "舅": 7216,
      "與": 7217,
      "興": 7218,
      "舉": 7219,
      "舊": 7220,
      "舌": 7221,
      "舍": 7222,
      "舎": 7223,
      "舒": 7224,
      "舖": 7225,
      "舘": 7226,
      "舛": 7227,
      "舜": 7228,
      "舞": 7229,
      "舟": 7230,
      "航": 7231,
      "般": 7232,
      "舰": 7233,
      "舱": 7234,
      "舳": 7235,
      "舵": 7236,
      "舶": 7237,
      "船": 7238,
      "艇": 7239,
      "艘": 7240,
      "艙": 7241,
      "艦": 7242,
      "艫": 7243,
      "良": 7244,
      "色": 7245,
      "艳": 7246,
      "艸": 7247,
      "艹": 7248,
      "艺": 7249,
      "艾": 7250,
      "艿": 7251,
      "节": 7252,
      "芋": 7253,
      "芍": 7254,
      "芒": 7255,
      "芙": 7256,
      "芝": 7257,
      "芡": 7258,
      "芥": 7259,
      "芦": 7260,
      "芩": 7261,
      "芪": 7262,
      "芬": 7263,
      "芭": 7264,
      "芯": 7265,
      "芰": 7266,
      "花": 7267,
      "芳": 7268,
      "芷": 7269,
      "芸": 7270,
      "芽": 7271,
      "芾": 7272,
      "苁": 7273,
      "苍": 7274,
      "苏": 7275,
      "苑": 7276,
      "苔": 7277,
      "苗": 7278,
      "苛": 7279,
      "苣": 7280,
      "若": 7281,
      "苦": 7282,
      "苧": 7283,
      "苫": 7284,
      "英": 7285,
      "苴": 7286,
      "苹": 7287,
      "苺": 7288,
      "苻": 7289,
      "苾": 7290,
      "茂": 7291,
      "范": 7292,
      "茄": 7293,
      "茅": 7294,
      "茉": 7295,
      "茗": 7296,
      "茜": 7297,
      "茧": 7298,
      "茨": 7299,
      "茫": 7300,
      "茱": 7301,
      "茲": 7302,
      "茴": 7303,
      "茶": 7304,
      "茸": 7305,
      "茹": 7306,
      "荀": 7307,
      "荃": 7308,
      "荆": 7309,
      "草": 7310,
      "荊": 7311,
      "荐": 7312,
      "荒": 7313,
      "荔": 7314,
      "荘": 7315,
      "荡": 7316,
      "荣": 7317,
      "荫": 7318,
      "药": 7319,
      "荷": 7320,
      "荻": 7321,
      "荼": 7322,
      "莉": 7323,
      "莊": 7324,
      "莎": 7325,
      "莒": 7326,
      "莓": 7327,
      "莞": 7328,
      "莫": 7329,
      "莱": 7330,
      "莲": 7331,
      "获": 7332,
      "莹": 7333,
      "莺": 7334,
      "莽": 7335,
      "菅": 7336,
      "菇": 7337,
      "菊": 7338,
      "菌": 7339,
      "菓": 7340,
      "菖": 7341,
      "菜": 7342,
      "菟": 7343,
      "菠": 7344,
      "菩": 7345,
      "華": 7346,
      "菰": 7347,
      "菱": 7348,
      "菲": 7349,
      "菴": 7350,
      "菻": 7351,
      "萁": 7352,
      "萃": 7353,
      "萄": 7354,
      "萆": 7355,
      "萊": 7356,
      "萌": 7357,
      "萍": 7358,
      "萎": 7359,
      "萜": 7360,
      "萝": 7361,
      "营": 7362,
      "萧": 7363,
      "萨": 7364,
      "萩": 7365,
      "萬": 7366,
      "萱": 7367,
      "落": 7368,
      "葉": 7369,
      "著": 7370,
      "葛": 7371,
      "葡": 7372,
      "董": 7373,
      "葦": 7374,
      "葫": 7375,
      "葬": 7376,
      "葭": 7377,
      "葱": 7378,
      "葵": 7379,
      "蒂": 7380,
      "蒋": 7381,
      "蒙": 7382,
      "蒜": 7383,
      "蒲": 7384,
      "蒸": 7385,
      "蒼": 7386,
      "蒿": 7387,
      "蓀": 7388,
      "蓄": 7389,
      "蓆": 7390,
      "蓉": 7391,
      "蓋": 7392,
      "蓐": 7393,
      "蓝": 7394,
      "蓟": 7395,
      "蓬": 7396,
      "蓮": 7397,
      "蓼": 7398,
      "蔎": 7399,
      "蔑": 7400,
      "蔓": 7401,
      "蔚": 7402,
      "蔡": 7403,
      "蔣": 7404,
      "蔬": 7405,
      "蔭": 7406,
      "蔵": 7407,
      "蔺": 7408,
      "蔼": 7409,
      "蔽": 7410,
      "蕃": 7411,
      "蕉": 7412,
      "蕊": 7413,
      "蕎": 7414,
      "蕗": 7415,
      "蕨": 7416,
      "蕩": 7417,
      "蕪": 7418,
      "蕭": 7419,
      "蕲": 7420,
      "蕴": 7421,
      "蕹": 7422,
      "薄": 7423,
      "薅": 7424,
      "薇": 7425,
      "薛": 7426,
      "薢": 7427,
      "薦": 7428,
      "薩": 7429,
      "薪": 7430,
      "薫": 7431,
      "薬": 7432,
      "薮": 7433,
      "薯": 7434,
      "藁": 7435,
      "藉": 7436,
      "藍": 7437,
      "藏": 7438,
      "藐": 7439,
      "藕": 7440,
      "藝": 7441,
      "藤": 7442,
      "藥": 7443,
      "藩": 7444,
      "藻": 7445,
      "蘄": 7446,
      "蘆": 7447,
      "蘇": 7448,
      "蘊": 7449,
      "蘋": 7450,
      "蘗": 7451,
      "蘭": 7452,
      "蘸": 7453,
      "虎": 7454,
      "虐": 7455,
      "虑": 7456,
      "虔": 7457,
      "處": 7458,
      "虚": 7459,
      "虛": 7460,
      "虜": 7461,
      "虞": 7462,
      "號": 7463,
      "虫": 7464,
      "虱": 7465,
      "虹": 7466,
      "虺": 7467,
      "虽": 7468,
      "虾": 7469,
      "蚀": 7470,
      "蚁": 7471,
      "蚂": 7472,
      "蚊": 7473,
      "蚋": 7474,
      "蚓": 7475,
      "蚕": 7476,
      "蚖": 7477,
      "蚣": 7478,
      "蚩": 7479,
      "蚪": 7480,
      "蚯": 7481,
      "蚵": 7482,
      "蛇": 7483,
      "蛉": 7484,
      "蛋": 7485,
      "蛙": 7486,
      "蛛": 7487,
      "蛝": 7488,
      "蛭": 7489,
      "蛮": 7490,
      "蜀": 7491,
      "蜂": 7492,
      "蜆": 7493,
      "蜈": 7494,
      "蜍": 7495,
      "蜑": 7496,
      "蜒": 7497,
      "蜗": 7498,
      "蜘": 7499,
      "蜜": 7500,
      "蜡": 7501,
      "蜻": 7502,
      "蜿": 7503,
      "蝌": 7504,
      "蝎": 7505,
      "蝗": 7506,
      "蝠": 7507,
      "蝦": 7508,
      "蝮": 7509,
      "蝶": 7510,
      "螂": 7511,
      "融": 7512,
      "螟": 7513,
      "螣": 7514,
      "螺": 7515,
      "蟀": 7516,
      "蟄": 7517,
      "蟋": 7518,
      "蟑": 7519,
      "蟠": 7520,
      "蟲": 7521,
      "蟹": 7522,
      "蟾": 7523,
      "蠅": 7524,
      "蠓": 7525,
      "蠟": 7526,
      "蠡": 7527,
      "蠢": 7528,
      "蠶": 7529,
      "蠻": 7530,
      "血": 7531,
      "衆": 7532,
      "行": 7533,
      "衍": 7534,
      "術": 7535,
      "衔": 7536,
      "街": 7537,
      "衛": 7538,
      "衝": 7539,
      "衞": 7540,
      "衡": 7541,
      "衢": 7542,
      "衣": 7543,
      "补": 7544,
      "表": 7545,
      "衫": 7546,
      "衬": 7547,
      "衰": 7548,
      "衲": 7549,
      "衷": 7550,
      "袁": 7551,
      "袈": 7552,
      "袋": 7553,
      "袍": 7554,
      "袖": 7555,
      "袤": 7556,
      "被": 7557,
      "袭": 7558,
      "袴": 7559,
      "裁": 7560,
      "裂": 7561,
      "装": 7562,
      "裏": 7563,
      "裔": 7564,
      "裕": 7565,
      "裙": 7566,
      "補": 7567,
      "裝": 7568,
      "裟": 7569,
      "裡": 7570,
      "裤": 7571,
      "裨": 7572,
      "裳": 7573,
      "裴": 7574,
      "裵": 7575,
      "裸": 7576,
      "裹": 7577,
      "製": 7578,
      "複": 7579,
      "褐": 7580,
      "褒": 7581,
      "褙": 7582,
      "褛": 7583,
      "褲": 7584,
      "褴": 7585,
      "襄": 7586,
      "襲": 7587,
      "襾": 7588,
      "西": 7589,
      "要": 7590,
      "覃": 7591,
      "覆": 7592,
      "覇": 7593,
      "見": 7594,
      "規": 7595,
      "覓": 7596,
      "視": 7597,
      "覚": 7598,
      "覡": 7599,
      "覧": 7600,
      "親": 7601,
      "覲": 7602,
      "観": 7603,
      "覺": 7604,
      "覽": 7605,
      "觀": 7606,
      "见": 7607,
      "观": 7608,
      "规": 7609,
      "视": 7610,
      "览": 7611,
      "觉": 7612,
      "角": 7613,
      "觚": 7614,
      "解": 7615,
      "触": 7616,
      "觮": 7617,
      "觸": 7618,
      "言": 7619,
      "訁": 7620,
      "訂": 7621,
      "計": 7622,
      "訊": 7623,
      "討": 7624,
      "訓": 7625,
      "訖": 7626,
      "託": 7627,
      "記": 7628,
      "訟": 7629,
      "訢": 7630,
      "訣": 7631,
      "訥": 7632,
      "訪": 7633,
      "設": 7634,
      "許": 7635,
      "訳": 7636,
      "訴": 7637,
      "訶": 7638,
      "診": 7639,
      "註": 7640,
      "証": 7641,
      "訾": 7642,
      "詐": 7643,
      "詔": 7644,
      "評": 7645,
      "詞": 7646,
      "詠": 7647,
      "詢": 7648,
      "詣": 7649,
      "試": 7650,
      "詩": 7651,
      "詭": 7652,
      "詰": 7653,
      "話": 7654,
      "該": 7655,
      "詳": 7656,
      "詹": 7657,
      "誇": 7658,
      "誉": 7659,
      "誌": 7660,
      "認": 7661,
      "誐": 7662,
      "誑": 7663,
      "誓": 7664,
      "誕": 7665,
      "誘": 7666,
      "語": 7667,
      "誠": 7668,
      "誡": 7669,
      "誤": 7670,
      "誦": 7671,
      "說": 7672,
      "説": 7673,
      "読": 7674,
      "誰": 7675,
      "課": 7676,
      "誼": 7677,
      "調": 7678,
      "談": 7679,
      "請": 7680,
      "諏": 7681,
      "諒": 7682,
      "論": 7683,
      "諜": 7684,
      "諦": 7685,
      "諧": 7686,
      "諭": 7687,
      "諮": 7688,
      "諷": 7689,
      "諸": 7690,
      "諺": 7691,
      "諾": 7692,
      "謂": 7693,
      "謌": 7694,
      "謎": 7695,
      "謐": 7696,
      "謗": 7697,
      "謙": 7698,
      "謚": 7699,
      "講": 7700,
      "謝": 7701,
      "謟": 7702,
      "謠": 7703,
      "謡": 7704,
      "謨": 7705,
      "謫": 7706,
      "謹": 7707,
      "證": 7708,
      "識": 7709,
      "譚": 7710,
      "譜": 7711,
      "警": 7712,
      "譬": 7713,
      "譯": 7714,
      "議": 7715,
      "譲": 7716,
      "護": 7717,
      "譽": 7718,
      "讀": 7719,
      "變": 7720,
      "讓": 7721,
      "讖": 7722,
      "讚": 7723,
      "讞": 7724,
      "计": 7725,
      "订": 7726,
      "认": 7727,
      "讨": 7728,
      "让": 7729,
      "训": 7730,
      "议": 7731,
      "讯": 7732,
      "记": 7733,
      "讲": 7734,
      "讶": 7735,
      "许": 7736,
      "论": 7737,
      "讼": 7738,
      "讽": 7739,
      "设": 7740,
      "访": 7741,
      "诀": 7742,
      "证": 7743,
      "评": 7744,
      "识": 7745,
      "诈": 7746,
      "诉": 7747,
      "诊": 7748,
      "词": 7749,
      "译": 7750,
      "试": 7751,
      "诗": 7752,
      "诚": 7753,
      "话": 7754,
      "诞": 7755,
      "诠": 7756,
      "诡": 7757,
      "询": 7758,
      "该": 7759,
      "详": 7760,
      "语": 7761,
      "误": 7762,
      "诱": 7763,
      "说": 7764,
      "诵": 7765,
      "请": 7766,
      "诸": 7767,
      "诺": 7768,
      "读": 7769,
      "诽": 7770,
      "课": 7771,
      "谁": 7772,
      "调": 7773,
      "谅": 7774,
      "谈": 7775,
      "谊": 7776,
      "谋": 7777,
      "谎": 7778,
      "谐": 7779,
      "谓": 7780,
      "谚": 7781,
      "谜": 7782,
      "谢": 7783,
      "谣": 7784,
      "谤": 7785,
      "谦": 7786,
      "谨": 7787,
      "谭": 7788,
      "谱": 7789,
      "谴": 7790,
      "谷": 7791,
      "谿": 7792,
      "豆": 7793,
      "豈": 7794,
      "豉": 7795,
      "豊": 7796,
      "豎": 7797,
      "豐": 7798,
      "豔": 7799,
      "豕": 7800,
      "豚": 7801,
      "象": 7802,
      "豢": 7803,
      "豪": 7804,
      "豫": 7805,
      "豬": 7806,
      "豸": 7807,
      "豹": 7808,
      "貅": 7809,
      "貌": 7810,
      "貓": 7811,
      "貔": 7812,
      "貝": 7813,
      "貞": 7814,
      "負": 7815,
      "財": 7816,
      "貢": 7817,
      "貧": 7818,
      "貨": 7819,
      "販": 7820,
      "貪": 7821,
      "貫": 7822,
      "責": 7823,
      "貯": 7824,
      "貲": 7825,
      "貳": 7826,
      "貴": 7827,
      "貶": 7828,
      "買": 7829,
      "貸": 7830,
      "費": 7831,
      "貼": 7832,
      "貿": 7833,
      "賀": 7834,
      "賁": 7835,
      "賂": 7836,
      "資": 7837,
      "賈": 7838,
      "賊": 7839,
      "賑": 7840,
      "賒": 7841,
      "賓": 7842,
      "賖": 7843,
      "賛": 7844,
      "賜": 7845,
      "賞": 7846,
      "賠": 7847,
      "賡": 7848,
      "賢": 7849,
      "賣": 7850,
      "賤": 7851,
      "賦": 7852,
      "賨": 7853,
      "質": 7854,
      "賴": 7855,
      "賺": 7856,
      "購": 7857,
      "賽": 7858,
      "贄": 7859,
      "贇": 7860,
      "贈": 7861,
      "贊": 7862,
      "贖": 7863,
      "贛": 7864,
      "贝": 7865,
      "贞": 7866,
      "负": 7867,
      "贡": 7868,
      "财": 7869,
      "责": 7870,
      "贤": 7871,
      "败": 7872,
      "账": 7873,
      "货": 7874,
      "质": 7875,
      "贫": 7876,
      "贬": 7877,
      "购": 7878,
      "贯": 7879,
      "贰": 7880,
      "贱": 7881,
      "贴": 7882,
      "贵": 7883,
      "贷": 7884,
      "贸": 7885,
      "费": 7886,
      "贺": 7887,
      "贼": 7888,
      "贾": 7889,
      "赁": 7890,
      "资": 7891,
      "赋": 7892,
      "赌": 7893,
      "赍": 7894,
      "赏": 7895,
      "赐": 7896,
      "赖": 7897,
      "赚": 7898,
      "赛": 7899,
      "赞": 7900,
      "赠": 7901,
      "赢": 7902,
      "赣": 7903,
      "赤": 7904,
      "赦": 7905,
      "赧": 7906,
      "赫": 7907,
      "走": 7908,
      "赴": 7909,
      "赵": 7910,
      "赶": 7911,
      "起": 7912,
      "超": 7913,
      "越": 7914,
      "趋": 7915,
      "趙": 7916,
      "趣": 7917,
      "趨": 7918,
      "足": 7919,
      "趴": 7920,
      "趾": 7921,
      "跃": 7922,
      "跆": 7923,
      "跋": 7924,
      "跌": 7925,
      "跏": 7926,
      "跑": 7927,
      "距": 7928,
      "跟": 7929,
      "跡": 7930,
      "跨": 7931,
      "路": 7932,
      "跳": 7933,
      "践": 7934,
      "跷": 7935,
      "跺": 7936,
      "跻": 7937,
      "踊": 7938,
      "踌": 7939,
      "踏": 7940,
      "踐": 7941,
      "踞": 7942,
      "踢": 7943,
      "踩": 7944,
      "踪": 7945,
      "踰": 7946,
      "踵": 7947,
      "踹": 7948,
      "蹄": 7949,
      "蹈": 7950,
      "蹉": 7951,
      "蹟": 7952,
      "蹤": 7953,
      "蹦": 7954,
      "蹬": 7955,
      "蹲": 7956,
      "蹴": 7957,
      "蹶": 7958,
      "蹼": 7959,
      "躁": 7960,
      "躇": 7961,
      "躍": 7962,
      "躔": 7963,
      "身": 7964,
      "躬": 7965,
      "躲": 7966,
      "躺": 7967,
      "車": 7968,
      "軌": 7969,
      "軍": 7970,
      "軒": 7971,
      "軟": 7972,
      "転": 7973,
      "軫": 7974,
      "軸": 7975,
      "軻": 7976,
      "軽": 7977,
      "軾": 7978,
      "較": 7979,
      "輅": 7980,
      "載": 7981,
      "輌": 7982,
      "輒": 7983,
      "輔": 7984,
      "輕": 7985,
      "輝": 7986,
      "輥": 7987,
      "輩": 7988,
      "輪": 7989,
      "輯": 7990,
      "輸": 7991,
      "輻": 7992,
      "輿": 7993,
      "轄": 7994,
      "轅": 7995,
      "轉": 7996,
      "轍": 7997,
      "轎": 7998,
      "轢": 7999,
      "车": 8000,
      "轧": 8001,
      "轨": 8002,
      "轩": 8003,
      "转": 8004,
      "轮": 8005,
      "软": 8006,
      "轰": 8007,
      "轴": 8008,
      "轶": 8009,
      "轻": 8010,
      "轼": 8011,
      "载": 8012,
      "轿": 8013,
      "较": 8014,
      "辄": 8015,
      "辅": 8016,
      "辆": 8017,
      "辉": 8018,
      "辐": 8019,
      "辑": 8020,
      "输": 8021,
      "辕": 8022,
      "辖": 8023,
      "辛": 8024,
      "辜": 8025,
      "辞": 8026,
      "辟": 8027,
      "辣": 8028,
      "辦": 8029,
      "辨": 8030,
      "辩": 8031,
      "辭": 8032,
      "辯": 8033,
      "辰": 8034,
      "辱": 8035,
      "農": 8036,
      "辶": 8037,
      "边": 8038,
      "辺": 8039,
      "辻": 8040,
      "込": 8041,
      "辽": 8042,
      "达": 8043,
      "辿": 8044,
      "迁": 8045,
      "迂": 8046,
      "迄": 8047,
      "迅": 8048,
      "过": 8049,
      "迈": 8050,
      "迎": 8051,
      "运": 8052,
      "近": 8053,
      "返": 8054,
      "还": 8055,
      "这": 8056,
      "进": 8057,
      "远": 8058,
      "违": 8059,
      "连": 8060,
      "迟": 8061,
      "迤": 8062,
      "迦": 8063,
      "迨": 8064,
      "迩": 8065,
      "迪": 8066,
      "迫": 8067,
      "迭": 8068,
      "述": 8069,
      "迴": 8070,
      "迷": 8071,
      "迹": 8072,
      "追": 8073,
      "退": 8074,
      "送": 8075,
      "适": 8076,
      "逃": 8077,
      "逄": 8078,
      "逆": 8079,
      "选": 8080,
      "逊": 8081,
      "透": 8082,
      "逐": 8083,
      "递": 8084,
      "途": 8085,
      "逕": 8086,
      "逗": 8087,
      "這": 8088,
      "通": 8089,
      "逛": 8090,
      "逝": 8091,
      "速": 8092,
      "造": 8093,
      "逢": 8094,
      "連": 8095,
      "逮": 8096,
      "週": 8097,
      "進": 8098,
      "逵": 8099,
      "逶": 8100,
      "逸": 8101,
      "逻": 8102,
      "逼": 8103,
      "逾": 8104,
      "遁": 8105,
      "遂": 8106,
      "遅": 8107,
      "遇": 8108,
      "遊": 8109,
      "運": 8110,
      "遍": 8111,
      "過": 8112,
      "遐": 8113,
      "道": 8114,
      "達": 8115,
      "違": 8116,
      "遗": 8117,
      "遙": 8118,
      "遜": 8119,
      "遠": 8120,
      "遡": 8121,
      "遢": 8122,
      "遣": 8123,
      "遥": 8124,
      "適": 8125,
      "遭": 8126,
      "遮": 8127,
      "遲": 8128,
      "遵": 8129,
      "遷": 8130,
      "選": 8131,
      "遹": 8132,
      "遺": 8133,
      "遼": 8134,
      "遽": 8135,
      "避": 8136,
      "邀": 8137,
      "邃": 8138,
      "還": 8139,
      "邈": 8140,
      "邊": 8141,
      "邋": 8142,
      "邏": 8143,
      "邑": 8144,
      "邓": 8145,
      "邕": 8146,
      "邗": 8147,
      "那": 8148,
      "邦": 8149,
      "邪": 8150,
      "邬": 8151,
      "邮": 8152,
      "邯": 8153,
      "邱": 8154,
      "邳": 8155,
      "邵": 8156,
      "邸": 8157,
      "邹": 8158,
      "邻": 8159,
      "邽": 8160,
      "邾": 8161,
      "郁": 8162,
      "郃": 8163,
      "郉": 8164,
      "郊": 8165,
      "郎": 8166,
      "郑": 8167,
      "郗": 8168,
      "郛": 8169,
      "郝": 8170,
      "郞": 8171,
      "郡": 8172,
      "郤": 8173,
      "部": 8174,
      "郫": 8175,
      "郭": 8176,
      "郯": 8177,
      "郵": 8178,
      "郷": 8179,
      "郸": 8180,
      "都": 8181,
      "鄂": 8182,
      "鄆": 8183,
      "鄉": 8184,
      "鄒": 8185,
      "鄙": 8186,
      "鄣": 8187,
      "鄧": 8188,
      "鄭": 8189,
      "鄰": 8190,
      "鄱": 8191,
      "鄲": 8192,
      "鄴": 8193,
      "鄺": 8194,
      "酈": 8195,
      "酉": 8196,
      "酌": 8197,
      "配": 8198,
      "酒": 8199,
      "酗": 8200,
      "酢": 8201,
      "酥": 8202,
      "酪": 8203,
      "酬": 8204,
      "酰": 8205,
      "酱": 8206,
      "酵": 8207,
      "酶": 8208,
      "酷": 8209,
      "酸": 8210,
      "酺": 8211,
      "醇": 8212,
      "醉": 8213,
      "醋": 8214,
      "醍": 8215,
      "醐": 8216,
      "醒": 8217,
      "醛": 8218,
      "醜": 8219,
      "醞": 8220,
      "醣": 8221,
      "醤": 8222,
      "醫": 8223,
      "醬": 8224,
      "醮": 8225,
      "醯": 8226,
      "釀": 8227,
      "釁": 8228,
      "采": 8229,
      "釈": 8230,
      "释": 8231,
      "釋": 8232,
      "里": 8233,
      "重": 8234,
      "野": 8235,
      "量": 8236,
      "釐": 8237,
      "金": 8238,
      "釗": 8239,
      "釘": 8240,
      "釜": 8241,
      "針": 8242,
      "釣": 8243,
      "釧": 8244,
      "釷": 8245,
      "鈔": 8246,
      "鈞": 8247,
      "鈥": 8248,
      "鈦": 8249,
      "鈧": 8250,
      "鈴": 8251,
      "鈷": 8252,
      "鈺": 8253,
      "鉄": 8254,
      "鉅": 8255,
      "鉗": 8256,
      "鉞": 8257,
      "鉢": 8258,
      "鉤": 8259,
      "鉴": 8260,
      "鉸": 8261,
      "鉾": 8262,
      "銀": 8263,
      "銃": 8264,
      "銅": 8265,
      "銆": 8266,
      "銑": 8267,
      "銒": 8268,
      "銖": 8269,
      "銘": 8270,
      "銚": 8271,
      "銭": 8272,
      "銮": 8273,
      "銳": 8274,
      "銷": 8275,
      "銹": 8276,
      "鋁": 8277,
      "鋒": 8278,
      "鋳": 8279,
      "鋸": 8280,
      "鋼": 8281,
      "錄": 8282,
      "錆": 8283,
      "錐": 8284,
      "錚": 8285,
      "錠": 8286,
      "錡": 8287,
      "錢": 8288,
      "錦": 8289,
      "錨": 8290,
      "錫": 8291,
      "錬": 8292,
      "錮": 8293,
      "錯": 8294,
      "録": 8295,
      "鍊": 8296,
      "鍋": 8297,
      "鍛": 8298,
      "鍵": 8299,
      "鍼": 8300,
      "鍾": 8301,
      "鎊": 8302,
      "鎌": 8303,
      "鎖": 8304,
      "鎢": 8305,
      "鎧": 8306,
      "鎭": 8307,
      "鎮": 8308,
      "鏁": 8309,
      "鏄": 8310,
      "鏍": 8311,
      "鏑": 8312,
      "鏡": 8313,
      "鏹": 8314,
      "鐒": 8315,
      "鐔": 8316,
      "鐘": 8317,
      "鐫": 8318,
      "鐮": 8319,
      "鐲": 8320,
      "鐵": 8321,
      "鐶": 8322,
      "鐸": 8323,
      "鑁": 8324,
      "鑄": 8325,
      "鑌": 8326,
      "鑑": 8327,
      "鑒": 8328,
      "鑛": 8329,
      "鑠": 8330,
      "鑲": 8331,
      "鑼": 8332,
      "鑽": 8333,
      "针": 8334,
      "钏": 8335,
      "钓": 8336,
      "钟": 8337,
      "钢": 8338,
      "钣": 8339,
      "钥": 8340,
      "钦": 8341,
      "钧": 8342,
      "钩": 8343,
      "钮": 8344,
      "钰": 8345,
      "钱": 8346,
      "钺": 8347,
      "钻": 8348,
      "钾": 8349,
      "铀": 8350,
      "铁": 8351,
      "铃": 8352,
      "铄": 8353,
      "铅": 8354,
      "铆": 8355,
      "铜": 8356,
      "铭": 8357,
      "银": 8358,
      "铸": 8359,
      "铹": 8360,
      "铺": 8361,
      "链": 8362,
      "销": 8363,
      "锁": 8364,
      "锅": 8365,
      "锈": 8366,
      "锋": 8367,
      "锐": 8368,
      "锕": 8369,
      "错": 8370,
      "锡": 8371,
      "锣": 8372,
      "锦": 8373,
      "键": 8374,
      "锻": 8375,
      "镇": 8376,
      "镈": 8377,
      "镎": 8378,
      "镑": 8379,
      "镜": 8380,
      "镥": 8381,
      "镧": 8382,
      "镰": 8383,
      "長": 8384,
      "长": 8385,
      "門": 8386,
      "閃": 8387,
      "閇": 8388,
      "閉": 8389,
      "開": 8390,
      "閎": 8391,
      "閑": 8392,
      "閒": 8393,
      "間": 8394,
      "閔": 8395,
      "閘": 8396,
      "関": 8397,
      "閣": 8398,
      "閥": 8399,
      "閩": 8400,
      "閬": 8401,
      "閱": 8402,
      "閲": 8403,
      "閻": 8404,
      "閼": 8405,
      "闇": 8406,
      "闊": 8407,
      "闌": 8408,
      "闍": 8409,
      "闐": 8410,
      "闕": 8411,
      "闘": 8412,
      "關": 8413,
      "闞": 8414,
      "闡": 8415,
      "门": 8416,
      "闪": 8417,
      "闭": 8418,
      "问": 8419,
      "闯": 8420,
      "闰": 8421,
      "闲": 8422,
      "间": 8423,
      "闷": 8424,
      "闸": 8425,
      "闹": 8426,
      "闺": 8427,
      "闻": 8428,
      "闽": 8429,
      "闿": 8430,
      "阀": 8431,
      "阁": 8432,
      "阅": 8433,
      "阊": 8434,
      "阐": 8435,
      "阑": 8436,
      "阔": 8437,
      "阜": 8438,
      "阝": 8439,
      "队": 8440,
      "阡": 8441,
      "阪": 8442,
      "阮": 8443,
      "阱": 8444,
      "防": 8445,
      "阳": 8446,
      "阴": 8447,
      "阵": 8448,
      "阶": 8449,
      "阻": 8450,
      "阿": 8451,
      "陀": 8452,
      "附": 8453,
      "际": 8454,
      "陆": 8455,
      "陇": 8456,
      "陈": 8457,
      "陉": 8458,
      "陌": 8459,
      "降": 8460,
      "限": 8461,
      "陕": 8462,
      "陛": 8463,
      "陜": 8464,
      "陝": 8465,
      "陟": 8466,
      "院": 8467,
      "陣": 8468,
      "除": 8469,
      "陥": 8470,
      "险": 8471,
      "陪": 8472,
      "陰": 8473,
      "陳": 8474,
      "陵": 8475,
      "陶": 8476,
      "陷": 8477,
      "陸": 8478,
      "険": 8479,
      "陽": 8480,
      "隅": 8481,
      "隆": 8482,
      "隊": 8483,
      "隋": 8484,
      "隍": 8485,
      "階": 8486,
      "随": 8487,
      "隐": 8488,
      "隔": 8489,
      "隕": 8490,
      "隗": 8491,
      "隙": 8492,
      "際": 8493,
      "障": 8494,
      "隠": 8495,
      "隣": 8496,
      "隨": 8497,
      "險": 8498,
      "隰": 8499,
      "隱": 8500,
      "隴": 8501,
      "隷": 8502,
      "隸": 8503,
      "隺": 8504,
      "隻": 8505,
      "隼": 8506,
      "难": 8507,
      "雀": 8508,
      "雁": 8509,
      "雄": 8510,
      "雅": 8511,
      "集": 8512,
      "雇": 8513,
      "雌": 8514,
      "雍": 8515,
      "雎": 8516,
      "雑": 8517,
      "雕": 8518,
      "雖": 8519,
      "雙": 8520,
      "雜": 8521,
      "雞": 8522,
      "離": 8523,
      "難": 8524,
      "雨": 8525,
      "雪": 8526,
      "雯": 8527,
      "雰": 8528,
      "雲": 8529,
      "零": 8530,
      "雷": 8531,
      "雹": 8532,
      "電": 8533,
      "雾": 8534,
      "需": 8535,
      "霆": 8536,
      "震": 8537,
      "霊": 8538,
      "霍": 8539,
      "霎": 8540,
      "霖": 8541,
      "霙": 8542,
      "霜": 8543,
      "霞": 8544,
      "霧": 8545,
      "霰": 8546,
      "露": 8547,
      "霸": 8548,
      "霹": 8549,
      "霾": 8550,
      "靂": 8551,
      "靈": 8552,
      "靐": 8553,
      "靑": 8554,
      "青": 8555,
      "靖": 8556,
      "静": 8557,
      "靚": 8558,
      "靛": 8559,
      "靜": 8560,
      "非": 8561,
      "靠": 8562,
      "靡": 8563,
      "面": 8564,
      "革": 8565,
      "靴": 8566,
      "靼": 8567,
      "鞅": 8568,
      "鞋": 8569,
      "鞍": 8570,
      "鞏": 8571,
      "鞞": 8572,
      "鞠": 8573,
      "鞨": 8574,
      "鞭": 8575,
      "韃": 8576,
      "韋": 8577,
      "韓": 8578,
      "韜": 8579,
      "韦": 8580,
      "韧": 8581,
      "韩": 8582,
      "音": 8583,
      "韵": 8584,
      "韶": 8585,
      "韻": 8586,
      "響": 8587,
      "頁": 8588,
      "頂": 8589,
      "頃": 8590,
      "項": 8591,
      "順": 8592,
      "須": 8593,
      "頊": 8594,
      "頌": 8595,
      "頍": 8596,
      "預": 8597,
      "頑": 8598,
      "頒": 8599,
      "頓": 8600,
      "頗": 8601,
      "領": 8602,
      "頠": 8603,
      "頡": 8604,
      "頤": 8605,
      "頫": 8606,
      "頭": 8607,
      "頸": 8608,
      "頹": 8609,
      "頻": 8610,
      "頼": 8611,
      "題": 8612,
      "額": 8613,
      "顎": 8614,
      "顏": 8615,
      "顒": 8616,
      "顓": 8617,
      "顔": 8618,
      "顕": 8619,
      "顗": 8620,
      "願": 8621,
      "顚": 8622,
      "顛": 8623,
      "類": 8624,
      "顧": 8625,
      "顯": 8626,
      "页": 8627,
      "顶": 8628,
      "顷": 8629,
      "项": 8630,
      "顺": 8631,
      "须": 8632,
      "顽": 8633,
      "顾": 8634,
      "顿": 8635,
      "颁": 8636,
      "颂": 8637,
      "预": 8638,
      "领": 8639,
      "颇": 8640,
      "颈": 8641,
      "颉": 8642,
      "颍": 8643,
      "颐": 8644,
      "频": 8645,
      "颖": 8646,
      "颗": 8647,
      "题": 8648,
      "颙": 8649,
      "颜": 8650,
      "额": 8651,
      "颞": 8652,
      "颠": 8653,
      "颤": 8654,
      "風": 8655,
      "颰": 8656,
      "颱": 8657,
      "飄": 8658,
      "风": 8659,
      "飘": 8660,
      "飛": 8661,
      "飞": 8662,
      "食": 8663,
      "飢": 8664,
      "飮": 8665,
      "飯": 8666,
      "飲": 8667,
      "飴": 8668,
      "飼": 8669,
      "飽": 8670,
      "飾": 8671,
      "餃": 8672,
      "餅": 8673,
      "餉": 8674,
      "養": 8675,
      "餐": 8676,
      "餑": 8677,
      "餓": 8678,
      "餗": 8679,
      "餘": 8680,
      "餜": 8681,
      "餡": 8682,
      "館": 8683,
      "餮": 8684,
      "饃": 8685,
      "饅": 8686,
      "饉": 8687,
      "饋": 8688,
      "饑": 8689,
      "饕": 8690,
      "饣": 8691,
      "饥": 8692,
      "饪": 8693,
      "饭": 8694,
      "饮": 8695,
      "饰": 8696,
      "饱": 8697,
      "饺": 8698,
      "饼": 8699,
      "饿": 8700,
      "馅": 8701,
      "馆": 8702,
      "馈": 8703,
      "馍": 8704,
      "馒": 8705,
      "首": 8706,
      "馗": 8707,
      "香": 8708,
      "馥": 8709,
      "馨": 8710,
      "馬": 8711,
      "馮": 8712,
      "馱": 8713,
      "馳": 8714,
      "駄": 8715,
      "駅": 8716,
      "駈": 8717,
      "駐": 8718,
      "駒": 8719,
      "駕": 8720,
      "駙": 8721,
      "駛": 8722,
      "駢": 8723,
      "駭": 8724,
      "駱": 8725,
      "駿": 8726,
      "騅": 8727,
      "騎": 8728,
      "騒": 8729,
      "験": 8730,
      "騨": 8731,
      "騰": 8732,
      "騶": 8733,
      "騷": 8734,
      "驁": 8735,
      "驃": 8736,
      "驅": 8737,
      "驍": 8738,
      "驒": 8739,
      "驕": 8740,
      "驗": 8741,
      "驚": 8742,
      "驛": 8743,
      "驟": 8744,
      "驢": 8745,
      "驤": 8746,
      "驥": 8747,
      "驩": 8748,
      "马": 8749,
      "驮": 8750,
      "驯": 8751,
      "驰": 8752,
      "驱": 8753,
      "驳": 8754,
      "驶": 8755,
      "驸": 8756,
      "驻": 8757,
      "驼": 8758,
      "驾": 8759,
      "骂": 8760,
      "骅": 8761,
      "骉": 8762,
      "骊": 8763,
      "验": 8764,
      "骏": 8765,
      "骑": 8766,
      "骗": 8767,
      "骤": 8768,
      "骥": 8769,
      "骧": 8770,
      "骨": 8771,
      "骸": 8772,
      "骼": 8773,
      "體": 8774,
      "高": 8775,
      "髙": 8776,
      "髞": 8777,
      "髡": 8778,
      "髦": 8779,
      "髪": 8780,
      "髭": 8781,
      "髮": 8782,
      "髻": 8783,
      "鬆": 8784,
      "鬐": 8785,
      "鬚": 8786,
      "鬧": 8787,
      "鬯": 8788,
      "鬰": 8789,
      "鬱": 8790,
      "鬲": 8791,
      "鬻": 8792,
      "鬼": 8793,
      "魁": 8794,
      "魂": 8795,
      "魃": 8796,
      "魄": 8797,
      "魅": 8798,
      "魈": 8799,
      "魏": 8800,
      "魔": 8801,
      "魚": 8802,
      "魯": 8803,
      "魴": 8804,
      "鮑": 8805,
      "鮓": 8806,
      "鮨": 8807,
      "鮭": 8808,
      "鮮": 8809,
      "鯉": 8810,
      "鯊": 8811,
      "鯓": 8812,
      "鯛": 8813,
      "鯣": 8814,
      "鯤": 8815,
      "鯨": 8816,
      "鯱": 8817,
      "鰐": 8818,
      "鰥": 8819,
      "鰹": 8820,
      "鰻": 8821,
      "鱀": 8822,
      "鱈": 8823,
      "鱉": 8824,
      "鱗": 8825,
      "鱧": 8826,
      "鱷": 8827,
      "鱻": 8828,
      "鱼": 8829,
      "鲁": 8830,
      "鲍": 8831,
      "鲜": 8832,
      "鲤": 8833,
      "鲸": 8834,
      "鲹": 8835,
      "鳃": 8836,
      "鳄": 8837,
      "鳥": 8838,
      "鳧": 8839,
      "鳩": 8840,
      "鳳": 8841,
      "鳴": 8842,
      "鴎": 8843,
      "鴛": 8844,
      "鴦": 8845,
      "鴨": 8846,
      "鴩": 8847,
      "鴻": 8848,
      "鵂": 8849,
      "鵊": 8850,
      "鵜": 8851,
      "鵝": 8852,
      "鵬": 8853,
      "鵰": 8854,
      "鵲": 8855,
      "鶏": 8856,
      "鶩": 8857,
      "鶯": 8858,
      "鶴": 8859,
      "鶹": 8860,
      "鶻": 8861,
      "鶼": 8862,
      "鷄": 8863,
      "鷫": 8864,
      "鷲": 8865,
      "鷹": 8866,
      "鸞": 8867,
      "鸟": 8868,
      "鸡": 8869,
      "鸣": 8870,
      "鸥": 8871,
      "鸦": 8872,
      "鸭": 8873,
      "鸽": 8874,
      "鸾": 8875,
      "鸿": 8876,
      "鹃": 8877,
      "鹅": 8878,
      "鹊": 8879,
      "鹏": 8880,
      "鹤": 8881,
      "鹰": 8882,
      "鹵": 8883,
      "鹸": 8884,
      "鹽": 8885,
      "鹿": 8886,
      "麒": 8887,
      "麓": 8888,
      "麗": 8889,
      "麟": 8890,
      "麤": 8891,
      "麥": 8892,
      "麦": 8893,
      "麨": 8894,
      "麩": 8895,
      "麪": 8896,
      "麵": 8897,
      "麺": 8898,
      "麻": 8899,
      "麼": 8900,
      "麽": 8901,
      "麿": 8902,
      "黃": 8903,
      "黄": 8904,
      "黌": 8905,
      "黍": 8906,
      "黎": 8907,
      "黏": 8908,
      "黐": 8909,
      "黑": 8910,
      "黒": 8911,
      "黔": 8912,
      "默": 8913,
      "黙": 8914,
      "黛": 8915,
      "黜": 8916,
      "點": 8917,
      "黧": 8918,
      "黨": 8919,
      "黴": 8920,
      "黹": 8921,
      "黻": 8922,
      "黼": 8923,
      "鼎": 8924,
      "鼓": 8925,
      "鼠": 8926,
      "鼯": 8927,
      "鼻": 8928,
      "齊": 8929,
      "齋": 8930,
      "齐": 8931,
      "齒": 8932,
      "齡": 8933,
      "齢": 8934,
      "齣": 8935,
      "齧": 8936,
      "齲": 8937,
      "齿": 8938,
      "龁": 8939,
      "龄": 8940,
      "龍": 8941,
      "龐": 8942,
      "龔": 8943,
      "龙": 8944,
      "龜": 8945,
      "龟": 8946,
      "龠": 8947,
      "ꀕ": 8948,
      "ꓐ": 8949,
      "ꓑ": 8950,
      "ꓒ": 8951,
      "ꓓ": 8952,
      "ꓔ": 8953,
      "ꓕ": 8954,
      "ꓖ": 8955,
      "ꓗ": 8956,
      "ꓘ": 8957,
      "ꓙ": 8958,
      "ꓚ": 8959,
      "ꓛ": 8960,
      "ꓜ": 8961,
      "ꓝ": 8962,
      "ꓞ": 8963,
      "ꓟ": 8964,
      "ꓠ": 8965,
      "ꓡ": 8966,
      "ꓢ": 8967,
      "ꓣ": 8968,
      "ꓤ": 8969,
      "ꓥ": 8970,
      "ꓦ": 8971,
      "ꓧ": 8972,
      "ꓨ": 8973,
      "ꓩ": 8974,
      "ꓪ": 8975,
      "ꓫ": 8976,
      "ꓬ": 8977,
      "ꓭ": 8978,
      "ꓮ": 8979,
      "ꓯ": 8980,
      "ꓰ": 8981,
      "ꓱ": 8982,
      "ꓲ": 8983,
      "ꓳ": 8984,
      "ꓴ": 8985,
      "ꓵ": 8986,
      "ꓶ": 8987,
      "ꓷ": 8988,
      "ꓸ": 8989,
      "ꓹ": 8990,
      "ꓺ": 8991,
      "ꓻ": 8992,
      "ꓼ": 8993,
      "ꓽ": 8994,
      "꓾": 8995,
      "꓿": 8996,
      "ꙁ": 8997,
      "Ꙍ": 8998,
      "ꙑ": 8999,
      "Ꙗ": 9000,
      "ꙗ": 9001,
      "ꚙ": 9002,
      "ꜜ": 9003,
      "ꜣ": 9004,
      "Ꜥ": 9005,
      "ꜥ": 9006,
      "ꜩ": 9007,
      "ꜰ": 9008,
      "ꜱ": 9009,
      "Ꝑ": 9010,
      "ꝑ": 9011,
      "Ꝓ": 9012,
      "ꝓ": 9013,
      "Ꝕ": 9014,
      "ꝕ": 9015,
      "ꝗ": 9016,
      "ꝛ": 9017,
      "Ꝡ": 9018,
      "ꝡ": 9019,
      "Ꝣ": 9020,
      "ꝣ": 9021,
      "ꝩ": 9022,
      "ꝺ": 9023,
      "ꝼ": 9024,
      "ꞇ": 9025,
      "꞉": 9026,
      "ꞌ": 9027,
      "Ɡ": 9028,
      "Ɪ": 9029,
      "Ᶎ": 9030,
      "ꟷ": 9031,
      "ꟼ": 9032,
      "ꤊ": 9033,
      "ꤋ": 9034,
      "ꤌ": 9035,
      "ꤍ": 9036,
      "ꤏ": 9037,
      "ꤐ": 9038,
      "ꤑ": 9039,
      "ꤒ": 9040,
      "ꤓ": 9041,
      "ꤔ": 9042,
      "ꤕ": 9043,
      "ꤖ": 9044,
      "ꤗ": 9045,
      "ꤘ": 9046,
      "ꤙ": 9047,
      "ꤚ": 9048,
      "ꤛ": 9049,
      "ꤜ": 9050,
      "ꤝ": 9051,
      "ꤞ": 9052,
      "ꤟ": 9053,
      "ꤠ": 9054,
      "ꤡ": 9055,
      "ꤢ": 9056,
      "ꤣ": 9057,
      "ꤤ": 9058,
      "ꤥ": 9059,
      "꤮": 9060,
      "꤯": 9061,
      "ꦊ": 9062,
      "ꦏ": 9063,
      "ꦒ": 9064,
      "ꦕ": 9065,
      "ꦗ": 9066,
      "ꦠ": 9067,
      "ꦤ": 9068,
      "ꦥ": 9069,
      "ꦩ": 9070,
      "ꦪ": 9071,
      "ꦫ": 9072,
      "ꦭ": 9073,
      "ꦮ": 9074,
      "ꦱ": 9075,
      "ꦲ": 9076,
      "ꯠ": 9077,
      "": 9078,
      "": 9079,
      "": 9080,
      "": 9081,
      "": 9082,
      "": 9083,
      "": 9084,
      "": 9085,
      "": 9086,
      "": 9087,
      "": 9088,
      "": 9089,
      "": 9090,
      "": 9091,
      "": 9092,
      "ﬀ": 9093,
      "ﬁ": 9094,
      "ﬂ": 9095,
      "ﬃ": 9096,
      "ﬄ": 9097,
      "ﬅ": 9098,
      "ﮕ": 9099,
      "ﮩ": 9100,
      "ﯽ": 9101,
      "ﯾ": 9102,
      "ﯿ": 9103,
      "ﳎ": 9104,
      "﴾": 9105,
      "﴿": 9106,
      "ﷲ": 9107,
      "ﷺ": 9108,
      "ﷻ": 9109,
      "﷼": 9110,
      "﷽": 9111,
      "︘": 9112,
      "︰": 9113,
      "︱": 9114,
      "﹐": 9115,
      "﹑": 9116,
      "﹔": 9117,
      "﹕": 9118,
      "﹘": 9119,
      "﹜": 9120,
      "﹣": 9121,
      "ﺃ": 9122,
      "ﺇ": 9123,
      "ﺍ": 9124,
      "ﺎ": 9125,
      "ﺑ": 9126,
      "ﺔ": 9127,
      "ﺗ": 9128,
      "ﺘ": 9129,
      "ﺜ": 9130,
      "ﺟ": 9131,
      "ﺣ": 9132,
      "ﺧ": 9133,
      "ﺩ": 9134,
      "ﺪ": 9135,
      "ﺮ": 9136,
      "ﺰ": 9137,
      "ﺱ": 9138,
      "ﺳ": 9139,
      "ﺴ": 9140,
      "ﺷ": 9141,
      "ﺸ": 9142,
      "ﺹ": 9143,
      "ﻃ": 9144,
      "ﻅ": 9145,
      "ﻉ": 9146,
      "ﻊ": 9147,
      "ﻋ": 9148,
      "ﻓ": 9149,
      "ﻔ": 9150,
      "ﻗ": 9151,
      "ﻘ": 9152,
      "ﻛ": 9153,
      "ﻜ": 9154,
      "ﻞ": 9155,
      "ﻟ": 9156,
      "ﻠ": 9157,
      "ﻢ": 9158,
      "ﻣ": 9159,
      "ﻦ": 9160,
      "ﻧ": 9161,
      "ﻨ": 9162,
      "ﻪ": 9163,
      "ﻫ": 9164,
      "ﻬ": 9165,
      "ﻮ": 9166,
      "ﻯ": 9167,
      "ﻰ": 9168,
      "ﻲ": 9169,
      "ﻴ": 9170,
      "ﻻ": 9171,
      "！": 9172,
      "＂": 9173,
      "＃": 9174,
      "＄": 9175,
      "％": 9176,
      "＆": 9177,
      "＇": 9178,
      "（": 9179,
      "）": 9180,
      "＊": 9181,
      "＋": 9182,
      "，": 9183,
      "－": 9184,
      "．": 9185,
      "／": 9186,
      "０": 9187,
      "１": 9188,
      "２": 9189,
      "３": 9190,
      "４": 9191,
      "５": 9192,
      "６": 9193,
      "７": 9194,
      "８": 9195,
      "９": 9196,
      "：": 9197,
      "；": 9198,
      "＜": 9199,
      "＝": 9200,
      "＞": 9201,
      "？": 9202,
      "＠": 9203,
      "Ａ": 9204,
      "Ｂ": 9205,
      "Ｃ": 9206,
      "Ｄ": 9207,
      "Ｅ": 9208,
      "Ｆ": 9209,
      "Ｈ": 9210,
      "Ｉ": 9211,
      "Ｊ": 9212,
      "Ｌ": 9213,
      "Ｍ": 9214,
      "Ｎ": 9215,
      "Ｏ": 9216,
      "Ｐ": 9217,
      "Ｑ": 9218,
      "Ｒ": 9219,
      "Ｓ": 9220,
      "Ｔ": 9221,
      "Ｖ": 9222,
      "Ｗ": 9223,
      "［": 9224,
      "］": 9225,
      "＿": 9226,
      "ａ": 9227,
      "ｂ": 9228,
      "ｄ": 9229,
      "ｅ": 9230,
      "ｆ": 9231,
      "ｇ": 9232,
      "ｈ": 9233,
      "ｉ": 9234,
      "ｋ": 9235,
      "ｌ": 9236,
      "ｎ": 9237,
      "ｐ": 9238,
      "ｑ": 9239,
      "ｒ": 9240,
      "ｓ": 9241,
      "ｔ": 9242,
      "ｕ": 9243,
      "ｙ": 9244,
      "｛": 9245,
      "｜": 9246,
      "｝": 9247,
      "～": 9248,
      "｢": 9249,
      "｣": 9250,
      "･": 9251,
      "ｦ": 9252,
      "ｪ": 9253,
      "ｭ": 9254,
      "ｮ": 9255,
      "ｰ": 9256,
      "ｱ": 9257,
      "ｲ": 9258,
      "ｳ": 9259,
      "ｴ": 9260,
      "ﾁ": 9261,
      "ﾂ": 9262,
      "ﾄ": 9263,
      "ﾉ": 9264,
      "ﾊ": 9265,
      "ﾋ": 9266,
      "ﾌ": 9267,
      "ﾒ": 9268,
      "ﾓ": 9269,
      "ﾔ": 9270,
      "ﾕ": 9271,
      "ﾖ": 9272,
      "ﾗ": 9273,
      "ﾝ": 9274,
      "ﾞ": 9275,
      "ﾟ": 9276,
      "ﾠ": 9277,
      "ﾧ": 9278,
      "ﾶ": 9279,
      "ﾼ": 9280,
      "ￃ": 9281,
      "￡": 9282,
      "￥": 9283,
      "￦": 9284,
      "￫": 9285,
      "￼": 9286,
      "�": 9287,
      "𐀟": 9288,
      "𐀫": 9289,
      "𐀶": 9290,
      "𐁊": 9291,
      "𐌐": 9292,
      "𐌰": 9293,
      "𐌱": 9294,
      "𐌲": 9295,
      "𐌳": 9296,
      "𐌴": 9297,
      "𐌵": 9298,
      "𐌶": 9299,
      "𐌷": 9300,
      "𐌸": 9301,
      "𐌹": 9302,
      "𐌺": 9303,
      "𐌻": 9304,
      "𐌼": 9305,
      "𐌽": 9306,
      "𐌾": 9307,
      "𐌿": 9308,
      "𐍀": 9309,
      "𐍁": 9310,
      "𐍂": 9311,
      "𐍃": 9312,
      "𐍄": 9313,
      "𐍅": 9314,
      "𐍆": 9315,
      "𐍇": 9316,
      "𐍈": 9317,
      "𐍉": 9318,
      "𐍊": 9319,
      "𐎠": 9320,
      "𐎱": 9321,
      "𐎼": 9322,
      "𐎿": 9323,
      "𐐀": 9324,
      "𐐈": 9325,
      "𐐊": 9326,
      "𐐍": 9327,
      "𐐐": 9328,
      "𐐒": 9329,
      "𐐓": 9330,
      "𐐗": 9331,
      "𐐝": 9332,
      "𐐢": 9333,
      "𐐣": 9334,
      "𐐭": 9335,
      "𐐲": 9336,
      "𐐵": 9337,
      "𐐹": 9338,
      "𐐺": 9339,
      "𐐼": 9340,
      "𐐿": 9341,
      "𐑅": 9342,
      "𐑋": 9343,
      "𐑌": 9344,
      "𐤄": 9345,
      "𐤅": 9346,
      "𐤆": 9347,
      "𐤊": 9348,
      "𐤍": 9349,
      "𐤐": 9350,
      "𐤑": 9351,
      "𐤓": 9352,
      "𐨀": 9353,
      "𐨐": 9354,
      "𐨑": 9355,
      "𐨒": 9356,
      "𐨓": 9357,
      "𐨕": 9358,
      "𐨖": 9359,
      "𐨗": 9360,
      "𐨙": 9361,
      "𐨚": 9362,
      "𐨛": 9363,
      "𐨜": 9364,
      "𐨝": 9365,
      "𐨞": 9366,
      "𐨟": 9367,
      "𐨠": 9368,
      "𐨡": 9369,
      "𐨢": 9370,
      "𐨣": 9371,
      "𐨤": 9372,
      "𐨥": 9373,
      "𐨦": 9374,
      "𐨧": 9375,
      "𐨨": 9376,
      "𐨩": 9377,
      "𐨪": 9378,
      "𐨫": 9379,
      "𐨬": 9380,
      "𐨭": 9381,
      "𐨮": 9382,
      "𐨯": 9383,
      "𐨱": 9384,
      "𐨲": 9385,
      "𐨳": 9386,
      "𐩀": 9387,
      "𐩁": 9388,
      "𐩂": 9389,
      "𐩃": 9390,
      "𐩄": 9391,
      "𐩅": 9392,
      "𐩆": 9393,
      "𐩇": 9394,
      "𐩣": 9395,
      "𐩩": 9396,
      "𐩬": 9397,
      "𐩲": 9398,
      "𐬀": 9399,
      "𐬌": 9400,
      "𐬍": 9401,
      "𐬎": 9402,
      "𐬛": 9403,
      "𐬠": 9404,
      "𐬥": 9405,
      "𐬱": 9406,
      "𐬵": 9407,
      "𐰀": 9408,
      "𐰁": 9409,
      "𐰂": 9410,
      "𐰃": 9411,
      "𐰄": 9412,
      "𐰅": 9413,
      "𐰬": 9414,
      "𐰭": 9415,
      "𐰮": 9416,
      "𑄉": 9417,
      "𑄋": 9418,
      "𑄌": 9419,
      "𑄘": 9420,
      "𑄣": 9421,
      "𑄦": 9422,
      "𒀀": 9423,
      "𒀭": 9424,
      "𒀯": 9425,
      "𒁕": 9426,
      "𒁳": 9427,
      "𒂆": 9428,
      "𒂍": 9429,
      "𒂵": 9430,
      "𒃶": 9431,
      "𒄑": 9432,
      "𒅌": 9433,
      "𒆍": 9434,
      "𒆗": 9435,
      "𒆘": 9436,
      "𒆠": 9437,
      "𒆳": 9438,
      "𒇉": 9439,
      "𒇽": 9440,
      "𒈦": 9441,
      "𒈨": 9442,
      "𒈩": 9443,
      "𒈪": 9444,
      "𒈬": 9445,
      "𒉋": 9446,
      "𒉌": 9447,
      "𒉡": 9448,
      "𒉺": 9449,
      "𒊏": 9450,
      "𒊒": 9451,
      "𒊩": 9452,
      "𒋗": 9453,
      "𒋫": 9454,
      "𒋼": 9455,
      "𒌍": 9456,
      "𒌷": 9457,
      "𓂃": 9458,
      "𔃄": 9459,
      "𝄆": 9460,
      "𝄇": 9461,
      "𝅘": 9462,
      "𝇍": 9463,
      "𝐀": 9464,
      "𝐁": 9465,
      "𝐂": 9466,
      "𝐃": 9467,
      "𝐄": 9468,
      "𝐅": 9469,
      "𝐇": 9470,
      "𝐈": 9471,
      "𝐋": 9472,
      "𝐌": 9473,
      "𝐍": 9474,
      "𝐎": 9475,
      "𝐏": 9476,
      "𝐐": 9477,
      "𝐑": 9478,
      "𝐒": 9479,
      "𝐓": 9480,
      "𝐔": 9481,
      "𝐘": 9482,
      "𝐚": 9483,
      "𝐛": 9484,
      "𝐜": 9485,
      "𝐝": 9486,
      "𝐞": 9487,
      "𝐟": 9488,
      "𝐠": 9489,
      "𝐡": 9490,
      "𝐢": 9491,
      "𝐤": 9492,
      "𝐥": 9493,
      "𝐦": 9494,
      "𝐧": 9495,
      "𝐨": 9496,
      "𝐩": 9497,
      "𝐪": 9498,
      "𝐫": 9499,
      "𝐬": 9500,
      "𝐭": 9501,
      "𝐮": 9502,
      "𝐯": 9503,
      "𝐰": 9504,
      "𝐲": 9505,
      "𝐴": 9506,
      "𝐵": 9507,
      "𝐶": 9508,
      "𝐷": 9509,
      "𝐸": 9510,
      "𝐹": 9511,
      "𝐺": 9512,
      "𝐻": 9513,
      "𝐼": 9514,
      "𝐾": 9515,
      "𝐿": 9516,
      "𝑀": 9517,
      "𝑁": 9518,
      "𝑃": 9519,
      "𝑄": 9520,
      "𝑅": 9521,
      "𝑆": 9522,
      "𝑇": 9523,
      "𝑉": 9524,
      "𝑋": 9525,
      "𝑎": 9526,
      "𝑏": 9527,
      "𝑐": 9528,
      "𝑑": 9529,
      "𝑒": 9530,
      "𝑓": 9531,
      "𝑔": 9532,
      "𝑖": 9533,
      "𝑗": 9534,
      "𝑘": 9535,
      "𝑙": 9536,
      "𝑚": 9537,
      "𝑛": 9538,
      "𝑜": 9539,
      "𝑝": 9540,
      "𝑞": 9541,
      "𝑟": 9542,
      "𝑠": 9543,
      "𝑡": 9544,
      "𝑢": 9545,
      "𝑣": 9546,
      "𝑥": 9547,
      "𝑦": 9548,
      "𝑧": 9549,
      "𝑨": 9550,
      "𝑩": 9551,
      "𝑷": 9552,
      "𝒂": 9553,
      "𝒆": 9554,
      "𝒏": 9555,
      "𝒕": 9556,
      "𝒪": 9557,
      "𝒫": 9558,
      "𝒶": 9559,
      "𝓔": 9560,
      "𝓚": 9561,
      "𝓞": 9562,
      "𝓪": 9563,
      "𝓬": 9564,
      "𝓮": 9565,
      "𝓰": 9566,
      "𝓱": 9567,
      "𝓲": 9568,
      "𝓳": 9569,
      "𝓷": 9570,
      "𝓸": 9571,
      "𝓽": 9572,
      "𝔂": 9573,
      "𝔊": 9574,
      "𝔗": 9575,
      "𝔷": 9576,
      "𝖢": 9577,
      "𝗔": 9578,
      "𝗖": 9579,
      "𝗚": 9580,
      "𝗠": 9581,
      "𝗡": 9582,
      "𝗣": 9583,
      "𝗤": 9584,
      "𝗦": 9585,
      "𝗧": 9586,
      "𝗪": 9587,
      "𝗮": 9588,
      "𝗰": 9589,
      "𝗱": 9590,
      "𝗲": 9591,
      "𝗴": 9592,
      "𝗵": 9593,
      "𝗶": 9594,
      "𝗸": 9595,
      "𝗹": 9596,
      "𝗺": 9597,
      "𝗻": 9598,
      "𝗼": 9599,
      "𝗽": 9600,
      "𝗿": 9601,
      "𝘀": 9602,
      "𝘁": 9603,
      "𝘂": 9604,
      "𝘄": 9605,
      "𝘆": 9606,
      "𝘈": 9607,
      "𝘉": 9608,
      "𝘊": 9609,
      "𝘋": 9610,
      "𝘌": 9611,
      "𝘐": 9612,
      "𝘓": 9613,
      "𝘕": 9614,
      "𝘙": 9615,
      "𝘛": 9616,
      "𝘡": 9617,
      "𝘢": 9618,
      "𝘣": 9619,
      "𝘤": 9620,
      "𝘥": 9621,
      "𝘦": 9622,
      "𝘨": 9623,
      "𝘩": 9624,
      "𝘪": 9625,
      "𝘭": 9626,
      "𝘮": 9627,
      "𝘯": 9628,
      "𝘰": 9629,
      "𝘱": 9630,
      "𝘲": 9631,
      "𝘳": 9632,
      "𝘴": 9633,
      "𝘵": 9634,
      "𝘶": 9635,
      "𝘷": 9636,
      "𝘸": 9637,
      "𝘹": 9638,
      "𝘺": 9639,
      "𝘼": 9640,
      "𝘽": 9641,
      "𝘾": 9642,
      "𝘿": 9643,
      "𝙀": 9644,
      "𝙁": 9645,
      "𝙂": 9646,
      "𝙃": 9647,
      "𝙄": 9648,
      "𝙅": 9649,
      "𝙆": 9650,
      "𝙇": 9651,
      "𝙈": 9652,
      "𝙉": 9653,
      "𝙊": 9654,
      "𝙋": 9655,
      "𝙍": 9656,
      "𝙎": 9657,
      "𝙏": 9658,
      "𝙐": 9659,
      "𝙒": 9660,
      "𝙓": 9661,
      "𝙔": 9662,
      "𝙖": 9663,
      "𝙗": 9664,
      "𝙘": 9665,
      "𝙙": 9666,
      "𝙚": 9667,
      "𝙛": 9668,
      "𝙜": 9669,
      "𝙝": 9670,
      "𝙞": 9671,
      "𝙟": 9672,
      "𝙠": 9673,
      "𝙡": 9674,
      "𝙢": 9675,
      "𝙣": 9676,
      "𝙤": 9677,
      "𝙥": 9678,
      "𝙧": 9679,
      "𝙨": 9680,
      "𝙩": 9681,
      "𝙪": 9682,
      "𝙫": 9683,
      "𝙬": 9684,
      "𝙭": 9685,
      "𝙮": 9686,
      "𝙻": 9687,
      "𝚆": 9688,
      "𝚊": 9689,
      "𝚌": 9690,
      "𝚍": 9691,
      "𝚎": 9692,
      "𝚏": 9693,
      "𝚐": 9694,
      "𝚑": 9695,
      "𝚒": 9696,
      "𝚕": 9697,
      "𝚖": 9698,
      "𝚗": 9699,
      "𝚘": 9700,
      "𝚙": 9701,
      "𝚛": 9702,
      "𝚝": 9703,
      "𝚟": 9704,
      "𝚠": 9705,
      "𝚢": 9706,
      "𝚫": 9707,
      "𝛀": 9708,
      "𝛍": 9709,
      "𝛑": 9710,
      "𝛒": 9711,
      "𝛼": 9712,
      "𝛽": 9713,
      "𝛾": 9714,
      "𝛿": 9715,
      "𝜂": 9716,
      "𝜃": 9717,
      "𝜅": 9718,
      "𝜆": 9719,
      "𝜇": 9720,
      "𝜋": 9721,
      "𝜌": 9722,
      "𝜎": 9723,
      "𝜏": 9724,
      "𝜒": 9725,
      "𝜔": 9726,
      "𝜕": 9727,
      "𝝅": 9728,
      "𝝱": 9729,
      "𝟎": 9730,
      "𝟏": 9731,
      "𝟐": 9732,
      "𝟑": 9733,
      "𝟓": 9734,
      "𝟔": 9735,
      "𝟬": 9736,
      "𝟮": 9737,
      "𝟷": 9738,
      "𞤄": 9739,
      "𞤘": 9740,
      "𞤢": 9741,
      "𞤧": 9742,
      "𞤫": 9743,
      "𞤭": 9744,
      "𞤮": 9745,
      "𞤱": 9746,
      "𞤲": 9747,
      "🀄": 9748,
      "🅱": 9749,
      "🆕": 9750,
      "🆘": 9751,
      "🇦": 9752,
      "🇧": 9753,
      "🇨": 9754,
      "🇩": 9755,
      "🇪": 9756,
      "🇫": 9757,
      "🇬": 9758,
      "🇭": 9759,
      "🇮": 9760,
      "🇯": 9761,
      "🇰": 9762,
      "🇱": 9763,
      "🇲": 9764,
      "🇳": 9765,
      "🇴": 9766,
      "🇵": 9767,
      "🇷": 9768,
      "🇸": 9769,
      "🇹": 9770,
      "🇺": 9771,
      "🇻": 9772,
      "🇼": 9773,
      "🇽": 9774,
      "🇾": 9775,
      "🇿": 9776,
      "🈚": 9777,
      "🈷": 9778,
      "🌀": 9779,
      "🌄": 9780,
      "🌈": 9781,
      "🌉": 9782,
      "🌊": 9783,
      "🌋": 9784,
      "🌌": 9785,
      "🌍": 9786,
      "🌎": 9787,
      "🌏": 9788,
      "🌐": 9789,
      "🌑": 9790,
      "🌓": 9791,
      "🌕": 9792,
      "🌗": 9793,
      "🌘": 9794,
      "🌙": 9795,
      "🌚": 9796,
      "🌛": 9797,
      "🌜": 9798,
      "🌝": 9799,
      "🌞": 9800,
      "🌟": 9801,
      "🌠": 9802,
      "🌡": 9803,
      "🌤": 9804,
      "🌥": 9805,
      "🌦": 9806,
      "🌧": 9807,
      "🌪": 9808,
      "🌫": 9809,
      "🌬": 9810,
      "🌮": 9811,
      "🌰": 9812,
      "🌱": 9813,
      "🌲": 9814,
      "🌳": 9815,
      "🌴": 9816,
      "🌵": 9817,
      "🌶": 9818,
      "🌷": 9819,
      "🌸": 9820,
      "🌹": 9821,
      "🌺": 9822,
      "🌻": 9823,
      "🌼": 9824,
      "🌽": 9825,
      "🌾": 9826,
      "🌿": 9827,
      "🍀": 9828,
      "🍁": 9829,
      "🍂": 9830,
      "🍃": 9831,
      "🍄": 9832,
      "🍅": 9833,
      "🍆": 9834,
      "🍇": 9835,
      "🍉": 9836,
      "🍊": 9837,
      "🍋": 9838,
      "🍌": 9839,
      "🍍": 9840,
      "🍎": 9841,
      "🍏": 9842,
      "🍑": 9843,
      "🍓": 9844,
      "🍕": 9845,
      "🍗": 9846,
      "🍙": 9847,
      "🍚": 9848,
      "🍛": 9849,
      "🍜": 9850,
      "🍝": 9851,
      "🍡": 9852,
      "🍣": 9853,
      "🍦": 9854,
      "🍪": 9855,
      "🍫": 9856,
      "🍯": 9857,
      "🍰": 9858,
      "🍱": 9859,
      "🍲": 9860,
      "🍳": 9861,
      "🍴": 9862,
      "🍵": 9863,
      "🍶": 9864,
      "🍷": 9865,
      "🍺": 9866,
      "🍻": 9867,
      "🍾": 9868,
      "🍿": 9869,
      "🎁": 9870,
      "🎂": 9871,
      "🎃": 9872,
      "🎄": 9873,
      "🎆": 9874,
      "🎈": 9875,
      "🎉": 9876,
      "🎊": 9877,
      "🎋": 9878,
      "🎍": 9879,
      "🎎": 9880,
      "🎑": 9881,
      "🎒": 9882,
      "🎓": 9883,
      "🎖": 9884,
      "🎗": 9885,
      "🎙": 9886,
      "🎢": 9887,
      "🎤": 9888,
      "🎥": 9889,
      "🎧": 9890,
      "🎨": 9891,
      "🎩": 9892,
      "🎪": 9893,
      "🎬": 9894,
      "🎭": 9895,
      "🎮": 9896,
      "🎯": 9897,
      "🎲": 9898,
      "🎳": 9899,
      "🎵": 9900,
      "🎶": 9901,
      "🎸": 9902,
      "🎹": 9903,
      "🎺": 9904,
      "🎻": 9905,
      "🎼": 9906,
      "🎾": 9907,
      "🎿": 9908,
      "🏃": 9909,
      "🏅": 9910,
      "🏆": 9911,
      "🏈": 9912,
      "🏎": 9913,
      "🏏": 9914,
      "🏔": 9915,
      "🏖": 9916,
      "🏝": 9917,
      "🏞": 9918,
      "🏠": 9919,
      "🏡": 9920,
      "🏢": 9921,
      "🏤": 9922,
      "🏥": 9923,
      "🏨": 9924,
      "🏫": 9925,
      "🏭": 9926,
      "🏰": 9927,
      "🏳": 9928,
      "🏴": 9929,
      "🏷": 9930,
      "🏻": 9931,
      "🏼": 9932,
      "🏽": 9933,
      "🏾": 9934,
      "🏿": 9935,
      "🐃": 9936,
      "🐄": 9937,
      "🐅": 9938,
      "🐆": 9939,
      "🐇": 9940,
      "🐈": 9941,
      "🐋": 9942,
      "🐌": 9943,
      "🐑": 9944,
      "🐒": 9945,
      "🐔": 9946,
      "🐕": 9947,
      "🐖": 9948,
      "🐘": 9949,
      "🐙": 9950,
      "🐚": 9951,
      "🐛": 9952,
      "🐜": 9953,
      "🐝": 9954,
      "🐞": 9955,
      "🐟": 9956,
      "🐠": 9957,
      "🐡": 9958,
      "🐢": 9959,
      "🐣": 9960,
      "🐤": 9961,
      "🐦": 9962,
      "🐧": 9963,
      "🐬": 9964,
      "🐭": 9965,
      "🐮": 9966,
      "🐯": 9967,
      "🐰": 9968,
      "🐱": 9969,
      "🐲": 9970,
      "🐳": 9971,
      "🐵": 9972,
      "🐶": 9973,
      "🐷": 9974,
      "🐸": 9975,
      "🐺": 9976,
      "🐻": 9977,
      "🐼": 9978,
      "🐾": 9979,
      "🐿": 9980,
      "👀": 9981,
      "👁": 9982,
      "👂": 9983,
      "👃": 9984,
      "👅": 9985,
      "👆": 9986,
      "👇": 9987,
      "👈": 9988,
      "👉": 9989,
      "👊": 9990,
      "👋": 9991,
      "👌": 9992,
      "👍": 9993,
      "👎": 9994,
      "👏": 9995,
      "👑": 9996,
      "👒": 9997,
      "👚": 9998,
      "👛": 9999,
      "👤": 10000,
      "👥": 10001,
      "👦": 10002,
      "👧": 10003,
      "👨": 10004,
      "👩": 10005,
      "👮": 10006,
      "👱": 10007,
      "👳": 10008,
      "👶": 10009,
      "👷": 10010,
      "👸": 10011,
      "👹": 10012,
      "👺": 10013,
      "👻": 10014,
      "👽": 10015,
      "👾": 10016,
      "💀": 10017,
      "💁": 10018,
      "💃": 10019,
      "💅": 10020,
      "💆": 10021,
      "💈": 10022,
      "💉": 10023,
      "💊": 10024,
      "💋": 10025,
      "💌": 10026,
      "💎": 10027,
      "💐": 10028,
      "💓": 10029,
      "💔": 10030,
      "💕": 10031,
      "💖": 10032,
      "💗": 10033,
      "💙": 10034,
      "💚": 10035,
      "💛": 10036,
      "💜": 10037,
      "💠": 10038,
      "💡": 10039,
      "💥": 10040,
      "💦": 10041,
      "💧": 10042,
      "💨": 10043,
      "💩": 10044,
      "💪": 10045,
      "💫": 10046,
      "💬": 10047,
      "💭": 10048,
      "💮": 10049,
      "💯": 10050,
      "💰": 10051,
      "💲": 10052,
      "💵": 10053,
      "💸": 10054,
      "💺": 10055,
      "💻": 10056,
      "💼": 10057,
      "💿": 10058,
      "📁": 10059,
      "📄": 10060,
      "📅": 10061,
      "📈": 10062,
      "📉": 10063,
      "📊": 10064,
      "📋": 10065,
      "📌": 10066,
      "📍": 10067,
      "📎": 10068,
      "📏": 10069,
      "📐": 10070,
      "📑": 10071,
      "📒": 10072,
      "📓": 10073,
      "📕": 10074,
      "📖": 10075,
      "📗": 10076,
      "📘": 10077,
      "📙": 10078,
      "📚": 10079,
      "📛": 10080,
      "📜": 10081,
      "📝": 10082,
      "📞": 10083,
      "📡": 10084,
      "📢": 10085,
      "📣": 10086,
      "📥": 10087,
      "📦": 10088,
      "📧": 10089,
      "📨": 10090,
      "📩": 10091,
      "📪": 10092,
      "📬": 10093,
      "📰": 10094,
      "📱": 10095,
      "📲": 10096,
      "📷": 10097,
      "📸": 10098,
      "📺": 10099,
      "📻": 10100,
      "🔁": 10101,
      "🔄": 10102,
      "🔅": 10103,
      "🔆": 10104,
      "🔈": 10105,
      "🔉": 10106,
      "🔊": 10107,
      "🔋": 10108,
      "🔌": 10109,
      "🔍": 10110,
      "🔎": 10111,
      "🔐": 10112,
      "🔑": 10113,
      "🔒": 10114,
      "🔓": 10115,
      "🔔": 10116,
      "🔗": 10117,
      "🔙": 10118,
      "🔜": 10119,
      "🔝": 10120,
      "🔢": 10121,
      "🔥": 10122,
      "🔧": 10123,
      "🔨": 10124,
      "🔬": 10125,
      "🔭": 10126,
      "🔮": 10127,
      "🔲": 10128,
      "🔴": 10129,
      "🔵": 10130,
      "🔷": 10131,
      "🔹": 10132,
      "🔺": 10133,
      "🔻": 10134,
      "🔼": 10135,
      "🔽": 10136,
      "🕎": 10137,
      "🕑": 10138,
      "🕒": 10139,
      "🕓": 10140,
      "🕛": 10141,
      "🕰": 10142,
      "🕳": 10143,
      "🕵": 10144,
      "🕶": 10145,
      "🕷": 10146,
      "🕹": 10147,
      "🕺": 10148,
      "🖃": 10149,
      "🖇": 10150,
      "🖊": 10151,
      "🖌": 10152,
      "🖍": 10153,
      "🖐": 10154,
      "🖕": 10155,
      "🖤": 10156,
      "🖥": 10157,
      "🖨": 10158,
      "🖩": 10159,
      "🖱": 10160,
      "🖳": 10161,
      "🖼": 10162,
      "🗀": 10163,
      "🗃": 10164,
      "🗑": 10165,
      "🗓": 10166,
      "🗗": 10167,
      "🗞": 10168,
      "🗡": 10169,
      "🗣": 10170,
      "🗨": 10171,
      "🗯": 10172,
      "🗳": 10173,
      "🗺": 10174,
      "🗼": 10175,
      "🗽": 10176,
      "😀": 10177,
      "😁": 10178,
      "😂": 10179,
      "😃": 10180,
      "😄": 10181,
      "😅": 10182,
      "😆": 10183,
      "😇": 10184,
      "😉": 10185,
      "😊": 10186,
      "😋": 10187,
      "😌": 10188,
      "😍": 10189,
      "😎": 10190,
      "😏": 10191,
      "😐": 10192,
      "😑": 10193,
      "😒": 10194,
      "😓": 10195,
      "😔": 10196,
      "😕": 10197,
      "😗": 10198,
      "😘": 10199,
      "😚": 10200,
      "😛": 10201,
      "😜": 10202,
      "😝": 10203,
      "😞": 10204,
      "😟": 10205,
      "😠": 10206,
      "😡": 10207,
      "😢": 10208,
      "😣": 10209,
      "😤": 10210,
      "😥": 10211,
      "😦": 10212,
      "😧": 10213,
      "😩": 10214,
      "😪": 10215,
      "😫": 10216,
      "😬": 10217,
      "😭": 10218,
      "😮": 10219,
      "😯": 10220,
      "😰": 10221,
      "😱": 10222,
      "😲": 10223,
      "😳": 10224,
      "😴": 10225,
      "😵": 10226,
      "😶": 10227,
      "😷": 10228,
      "😹": 10229,
      "😺": 10230,
      "😻": 10231,
      "🙀": 10232,
      "🙁": 10233,
      "🙂": 10234,
      "🙃": 10235,
      "🙄": 10236,
      "🙅": 10237,
      "🙆": 10238,
      "🙇": 10239,
      "🙈": 10240,
      "🙋": 10241,
      "🙌": 10242,
      "🙏": 10243,
      "🚀": 10244,
      "🚅": 10245,
      "🚌": 10246,
      "🚕": 10247,
      "🚗": 10248,
      "🚘": 10249,
      "🚙": 10250,
      "🚚": 10251,
      "🚛": 10252,
      "🚥": 10253,
      "🚦": 10254,
      "🚨": 10255,
      "🚩": 10256,
      "🚪": 10257,
      "🚫": 10258,
      "🚬": 10259,
      "🚮": 10260,
      "🚲": 10261,
      "🚶": 10262,
      "🚹": 10263,
      "🚺": 10264,
      "🚻": 10265,
      "🚼": 10266,
      "🚽": 10267,
      "🛀": 10268,
      "🛌": 10269,
      "🛍": 10270,
      "🛎": 10271,
      "🛑": 10272,
      "🛒": 10273,
      "🛠": 10274,
      "🛡": 10275,
      "🛢": 10276,
      "🛫": 10277,
      "🛰": 10278,
      "🛳": 10279,
      "🛶": 10280,
      "🟡": 10281,
      "🟢": 10282,
      "🟤": 10283,
      "🟧": 10284,
      "🠈": 10285,
      "🠊": 10286,
      "🡢": 10287,
      "🡪": 10288,
      "🢖": 10289,
      "🤍": 10290,
      "🤐": 10291,
      "🤑": 10292,
      "🤒": 10293,
      "🤓": 10294,
      "🤔": 10295,
      "🤕": 10296,
      "🤖": 10297,
      "🤗": 10298,
      "🤘": 10299,
      "🤙": 10300,
      "🤝": 10301,
      "🤞": 10302,
      "🤟": 10303,
      "🤠": 10304,
      "🤡": 10305,
      "🤢": 10306,
      "🤣": 10307,
      "🤤": 10308,
      "🤦": 10309,
      "🤧": 10310,
      "🤨": 10311,
      "🤩": 10312,
      "🤪": 10313,
      "🤫": 10314,
      "🤬": 10315,
      "🤭": 10316,
      "🤮": 10317,
      "🤯": 10318,
      "🤰": 10319,
      "🤳": 10320,
      "🤴": 10321,
      "🤶": 10322,
      "🤷": 10323,
      "🤿": 10324,
      "🥁": 10325,
      "🥂": 10326,
      "🥃": 10327,
      "🥇": 10328,
      "🥊": 10329,
      "🥌": 10330,
      "🥑": 10331,
      "🥒": 10332,
      "🥕": 10333,
      "🥢": 10334,
      "🥣": 10335,
      "🥤": 10336,
      "🥩": 10337,
      "🥫": 10338,
      "🥰": 10339,
      "🥱": 10340,
      "🥲": 10341,
      "🥳": 10342,
      "🥶": 10343,
      "🥺": 10344,
      "🦀": 10345,
      "🦁": 10346,
      "🦂": 10347,
      "🦃": 10348,
      "🦄": 10349,
      "🦅": 10350,
      "🦆": 10351,
      "🦇": 10352,
      "🦈": 10353,
      "🦉": 10354,
      "🦋": 10355,
      "🦍": 10356,
      "🦎": 10357,
      "🦏": 10358,
      "🦒": 10359,
      "🦓": 10360,
      "🦔": 10361,
      "🦕": 10362,
      "🦖": 10363,
      "🦚": 10364,
      "🦜": 10365,
      "🦟": 10366,
      "🦠": 10367,
      "🦯": 10368,
      "🦷": 10369,
      "🦸": 10370,
      "🦺": 10371,
      "🦼": 10372,
      "🧀": 10373,
      "🧁": 10374,
      "🧃": 10375,
      "🧅": 10376,
      "🧍": 10377,
      "🧐": 10378,
      "🧑": 10379,
      "🧒": 10380,
      "🧔": 10381,
      "🧗": 10382,
      "🧘": 10383,
      "🧙": 10384,
      "🧜": 10385,
      "🧟": 10386,
      "🧠": 10387,
      "🧡": 10388,
      "🧣": 10389,
      "🧧": 10390,
      "🧩": 10391,
      "🧪": 10392,
      "🧫": 10393,
      "🧬": 10394,
      "🧭": 10395,
      "🧮": 10396,
      "🧱": 10397,
      "🧴": 10398,
      "🧵": 10399,
      "🧸": 10400,
      "🧼": 10401,
      "🩰": 10402,
      "🩸": 10403,
      "🩺": 10404,
      "🪄": 10405,
      "🪐": 10406,
      "🪤": 10407,
      "𠄌": 10408,
      "𠄏": 10409,
      "𠅊": 10410,
      "𠅋": 10411,
      "𠅌": 10412,
      "𠅎": 10413,
      "𠅏": 10414,
      "𠇊": 10415,
      "𠇌": 10416,
      "𠇎": 10417,
      "𠇾": 10418,
      "𡗶": 10419,
      "𤓽": 10420,
      "𤙭": 10421,
      "𧰨": 10422,
      "𩛄": 10423,
      "𫩏": 10424,
      "󈞄": 10425,
      "󈞓": 10426,
      "󈟀": 10427,
      "th": 10428,
      "in": 10429,
      "an": 10430,
      "er": 10431,
      "on": 10432,
      "the": 10433,
      "re": 10434,
      "at": 10435,
      "en": 10436,
      "or": 10437,
      "es": 10438,
      "al": 10439,
      "is": 10440,
      "ed": 10441,
      "ar": 10442,
      "of": 10443,
      "to": 10444,
      "and": 10445,
      "ou": 10446,
      "ing": 10447,
      "it": 10448,
      "as": 10449,
      "ic": 10450,
      "ion": 10451,
      "le": 10452,
      "st": 10453,
      "ro": 10454,
      "ent": 10455,
      "ch": 10456,
      "se": 10457,
      "il": 10458,
      "ct": 10459,
      "he": 10460,
      "ve": 10461,
      "om": 10462,
      "be": 10463,
      "de": 10464,
      "ly": 10465,
      "for": 10466,
      "ol": 10467,
      "ha": 10468,
      "ce": 10469,
      "ation": 10470,
      "im": 10471,
      "ow": 10472,
      "ra": 10473,
      "su": 10474,
      "are": 10475,
      "ig": 10476,
      "ver": 10477,
      "that": 10478,
      "wh": 10479,
      "am": 10480,
      "ab": 10481,
      "ur": 10482,
      "ter": 10483,
      "ir": 10484,
      "con": 10485,
      "ot": 10486,
      "un": 10487,
      "pro": 10488,
      "ay": 10489,
      "id": 10490,
      "ge": 10491,
      "ad": 10492,
      "us": 10493,
      "ith": 10494,
      "ut": 10495,
      "The": 10496,
      "ul": 10497,
      "pe": 10498,
      "ne": 10499,
      "lo": 10500,
      "mo": 10501,
      "with": 10502,
      "com": 10503,
      "our": 10504,
      "res": 10505,
      "if": 10506,
      "te": 10507,
      "ther": 10508,
      "ac": 10509,
      "ment": 10510,
      "per": 10511,
      "ts": 10512,
      "ke": 10513,
      "ex": 10514,
      "pl": 10515,
      "ate": 10516,
      "we": 10517,
      "ess": 10518,
      "all": 10519,
      "ies": 10520,
      "ill": 10521,
      "so": 10522,
      "od": 10523,
      "me": 10524,
      "ma": 10525,
      "ity": 10526,
      "est": 10527,
      "um": 10528,
      "oun": 10529,
      "ers": 10530,
      "ld": 10531,
      "ive": 10532,
      "ta": 10533,
      "by": 10534,
      "po": 10535,
      "tr": 10536,
      "igh": 10537,
      "ere": 10538,
      "iv": 10539,
      "qu": 10540,
      "rom": 10541,
      "can": 10542,
      "ap": 10543,
      "out": 10544,
      "fe": 10545,
      "was": 10546,
      "ag": 10547,
      "from": 10548,
      "ci": 10549,
      "Th": 10550,
      "ist": 10551,
      "ll": 10552,
      "In": 10553,
      "op": 10554,
      "art": 10555,
      "act": 10556,
      "hi": 10557,
      "ant": 10558,
      "not": 10559,
      "you": 10560,
      "ud": 10561,
      "wor": 10562,
      "one": 10563,
      "em": 10564,
      "cl": 10565,
      "ie": 10566,
      "ical": 10567,
      "have": 10568,
      "du": 10569,
      "ure": 10570,
      "ort": 10571,
      "this": 10572,
      "co": 10573,
      "sh": 10574,
      "ine": 10575,
      "gh": 10576,
      "do": 10577,
      "ions": 10578,
      "ich": 10579,
      "der": 10580,
      "ome": 10581,
      "li": 10582,
      "ph": 10583,
      "ould": 10584,
      "man": 10585,
      "20": 10586,
      "ye": 10587,
      "use": 10588,
      "ated": 10589,
      "ri": 10590,
      "end": 10591,
      "ans": 10592,
      "ach": 10593,
      "ard": 10594,
      "age": 10595,
      "their": 10596,
      "ight": 10597,
      "dis": 10598,
      "ind": 10599,
      "ough": 10600,
      "other": 10601,
      "which": 10602,
      "ence": 10603,
      "ide": 10604,
      "ally": 10605,
      "your": 10606,
      "fo": 10607,
      "but": 10608,
      "ous": 10609,
      "og": 10610,
      "port": 10611,
      "they": 10612,
      "ound": 10613,
      "cre": 10614,
      "et": 10615,
      "str": 10616,
      "iz": 10617,
      "form": 10618,
      "up": 10619,
      "tim": 10620,
      "able": 10621,
      "will": 10622,
      "more": 10623,
      "hai": 10624,
      "pre": 10625,
      "ass": 10626,
      "ong": 10627,
      "ia": 10628,
      "ast": 10629,
      "19": 10630,
      "ain": 10631,
      "fer": 10632,
      "ple": 10633,
      "has": 10634,
      "pr": 10635,
      "ish": 10636,
      "el": 10637,
      "ca": 10638,
      "ction": 10639,
      "ations": 10640,
      "king": 10641,
      "go": 10642,
      "its": 10643,
      "ary": 10644,
      "sa": 10645,
      "ater": 10646,
      "ty": 10647,
      "ks": 10648,
      "ial": 10649,
      "low": 10650,
      "tra": 10651,
      "sy": 10652,
      "ev": 10653,
      "ild": 10654,
      "now": 10655,
      "ust": 10656,
      "pres": 10657,
      "ire": 10658,
      "ib": 10659,
      "bo": 10660,
      "ren": 10661,
      "were": 10662,
      "ents": 10663,
      "also": 10664,
      "00": 10665,
      "spe": 10666,
      "ign": 10667,
      "ber": 10668,
      "some": 10669,
      "ance": 10670,
      "av": 10671,
      "ef": 10672,
      "part": 10673,
      "ition": 10674,
      "cess": 10675,
      "comm": 10676,
      "pos": 10677,
      "ase": 10678,
      "bl": 10679,
      "ice": 10680,
      "It": 10681,
      "no": 10682,
      "sp": 10683,
      "who": 10684,
      "This": 10685,
      "way": 10686,
      "ens": 10687,
      "ite": 10688,
      "ace": 10689,
      "ame": 10690,
      "gen": 10691,
      "very": 10692,
      "ang": 10693,
      "stud": 10694,
      "about": 10695,
      "cent": 10696,
      "pt": 10697,
      "inter": 10698,
      "ces": 10699,
      "ory": 10700,
      "ho": 10701,
      "his": 10702,
      "ser": 10703,
      "them": 10704,
      "gr": 10705,
      "af": 10706,
      "arch": 10707,
      ").": 10708,
      "ep": 10709,
      "col": 10710,
      "ack": 10711,
      "gra": 10712,
      "ors": 10713,
      "any": 10714,
      "ars": 10715,
      "over": 10716,
      "than": 10717,
      "ree": 10718,
      "par": 10719,
      "na": 10720,
      "fect": 10721,
      "time": 10722,
      "cor": 10723,
      "int": 10724,
      "An": 10725,
      "wo": 10726,
      "may": 10727,
      "Wh": 10728,
      "work": 10729,
      "ms": 10730,
      "ps": 10731,
      "most": 10732,
      "reat": 10733,
      "own": 10734,
      "ates": 10735,
      "ople": 10736,
      "br": 10737,
      "like": 10738,
      "ult": 10739,
      "bet": 10740,
      "Ch": 10741,
      "St": 10742,
      "when": 10743,
      "olog": 10744,
      "dif": 10745,
      "ka": 10746,
      "used": 10747,
      "alth": 10748,
      "there": 10749,
      "been": 10750,
      "di": 10751,
      "tain": 10752,
      "into": 10753,
      "ful": 10754,
      "how": 10755,
      "cur": 10756,
      "rel": 10757,
      "ings": 10758,
      "ya": 10759,
      "ob": 10760,
      "cont": 10761,
      "rit": 10762,
      "des": 10763,
      "day": 10764,
      "fl": 10765,
      "mer": 10766,
      "new": 10767,
      "know": 10768,
      "cho": 10769,
      "people": 10770,
      "had": 10771,
      "ck": 10772,
      "these": 10773,
      "hel": 10774,
      "ok": 10775,
      "prov": 10776,
      "ue": 10777,
      "je": 10778,
      "ual": 10779,
      "ile": 10780,
      "vers": 10781,
      "comp": 10782,
      "cy": 10783,
      "fir": 10784,
      "row": 10785,
      "ities": 10786,
      "ian": 10787,
      "ific": 10788,
      "med": 10789,
      "lect": 10790,
      "stem": 10791,
      "uch": 10792,
      "rough": 10793,
      "Un": 10794,
      "ys": 10795,
      "min": 10796,
      "ning": 10797,
      "cause": 10798,
      "under": 10799,
      "fore": 10800,
      "incl": 10801,
      "velo": 10802,
      "ments": 10803,
      "produ": 10804,
      "cial": 10805,
      "coun": 10806,
      "ki": 10807,
      "land": 10808,
      "high": 10809,
      "such": 10810,
      "ise": 10811,
      "get": 10812,
      "ating": 10813,
      "mon": 10814,
      "lear": 10815,
      "would": 10816,
      "only": 10817,
      "reg": 10818,
      "need": 10819,
      "hum": 10820,
      "ative": 10821,
      "ath": 10822,
      "cer": 10823,
      "child": 10824,
      "ject": 10825,
      "what": 10826,
      "many": 10827,
      "sur": 10828,
      "la": 10829,
      "velop": 10830,
      "son": 10831,
      "ational": 10832,
      "ting": 10833,
      "ious": 10834,
      "ose": 10835,
      "toh": 10836,
      "ced": 10837,
      "201": 10838,
      "sel": 10839,
      "kar": 10840,
      "ds": 10841,
      "ular": 10842,
      "pp": 10843,
      "He": 10844,
      "ics": 10845,
      "vel": 10846,
      "ily": 10847,
      "through": 10848,
      "system": 10849,
      "fic": 10850,
      "ble": 10851,
      "ins": 10852,
      "cal": 10853,
      "ear": 10854,
      "first": 10855,
      "her": 10856,
      "Re": 10857,
      "ese": 10858,
      "As": 10859,
      "differ": 10860,
      "well": 10861,
      "ten": 10862,
      "),": 10863,
      "red": 10864,
      "water": 10865,
      "mar": 10866,
      "ru": 10867,
      "les": 10868,
      "ress": 10869,
      "develop": 10870,
      "We": 10871,
      "ever": 10872,
      "lif": 10873,
      "two": 10874,
      "plan": 10875,
      "ata": 10876,
      "ility": 10877,
      "ons": 10878,
      "stru": 10879,
      "read": 10880,
      "stand": 10881,
      "old": 10882,
      "200": 10883,
      "ved": 10884,
      "help": 10885,
      "ss": 10886,
      "where": 10887,
      "health": 10888,
      "ange": 10889,
      "ict": 10890,
      "add": 10891,
      "bas": 10892,
      "ry": 10893,
      "less": 10894,
      "bu": 10895,
      "als": 10896,
      "18": 10897,
      "ak": 10898,
      "ubl": 10899,
      "uring": 10900,
      "inv": 10901,
      "ible": 10902,
      "peri": 10903,
      "should": 10904,
      "au": 10905,
      "search": 10906,
      "vir": 10907,
      "10": 10908,
      "trans": 10909,
      "sul": 10910,
      "ric": 10911,
      "oc": 10912,
      "sub": 10913,
      "cons": 10914,
      "cond": 10915,
      "come": 10916,
      "ween": 10917,
      "gan": 10918,
      "pol": 10919,
      "car": 10920,
      "long": 10921,
      "os": 10922,
      "ied": 10923,
      "main": 10924,
      "air": 10925,
      "try": 10926,
      "requ": 10927,
      "ek": 10928,
      "years": 10929,
      "fact": 10930,
      "eng": 10931,
      "For": 10932,
      "fin": 10933,
      "my": 10934,
      "tern": 10935,
      "ew": 10936,
      "ures": 10937,
      "between": 10938,
      "If": 10939,
      "ip": 10940,
      "ick": 10941,
      "then": 10942,
      "could": 10943,
      "import": 10944,
      "just": 10945,
      "lar": 10946,
      "att": 10947,
      "thing": 10948,
      "En": 10949,
      "fun": 10950,
      "chool": 10951,
      "gy": 10952,
      "make": 10953,
      "chn": 10954,
      "exam": 10955,
      "ural": 10956,
      "iss": 10957,
      "num": 10958,
      "life": 10959,
      "tem": 10960,
      "How": 10961,
      "spec": 10962,
      "De": 10963,
      "ris": 10964,
      "ident": 10965,
      "ness": 10966,
      "val": 10967,
      "formation": 10968,
      "effect": 10969,
      "after": 10970,
      "cus": 10971,
      "research": 10972,
      "ited": 10973,
      "ted": 10974,
      "each": 10975,
      "sim": 10976,
      "includ": 10977,
      "sol": 10978,
      "even": 10979,
      "vent": 10980,
      "gener": 10981,
      "incre": 10982,
      "Con": 10983,
      "set": 10984,
      "bhi": 10985,
      "ology": 10986,
      "world": 10987,
      "serv": 10988,
      "sure": 10989,
      "different": 10990,
      "pat": 10991,
      "ature": 10992,
      "call": 10993,
      "vis": 10994,
      "meric": 10995,
      "sup": 10996,
      "uc": 10997,
      "found": 10998,
      "because": 10999,
      "Al": 11000,
      "led": 11001,
      "Americ": 11002,
      "kya": 11003,
      "fol": 11004,
      "var": 11005,
      "see": 11006,
      "lin": 11007,
      "ists": 11008,
      "hain": 11009,
      "urn": 11010,
      "ail": 11011,
      "fam": 11012,
      "ution": 11013,
      "ives": 11014,
      "sign": 11015,
      "ga": 11016,
      "being": 11017,
      "ower": 11018,
      "person": 11019,
      "publ": 11020,
      "pa": 11021,
      "sm": 11022,
      "gu": 11023,
      "mem": 11024,
      "ism": 11025,
      "process": 11026,
      "bod": 11027,
      "ically": 11028,
      "vie": 11029,
      "ko": 11030,
      "self": 11031,
      "ves": 11032,
      "Com": 11033,
      "There": 11034,
      "those": 11035,
      "ters": 11036,
      "using": 11037,
      "important": 11038,
      "back": 11039,
      "xt": 11040,
      "off": 11041,
      "soci": 11042,
      "They": 11043,
      "every": 11044,
      "mat": 11045,
      "blo": 11046,
      "aur": 11047,
      "resul": 11048,
      "children": 11049,
      "techn": 11050,
      "line": 11051,
      "present": 11052,
      "ding": 11053,
      "said": 11054,
      "ener": 11055,
      "gg": 11056,
      "mal": 11057,
      "commun": 11058,
      "level": 11059,
      "ices": 11060,
      "year": 11061,
      "Pro": 11062,
      "food": 11063,
      "Ar": 11064,
      "partic": 11065,
      "say": 11066,
      ".”": 11067,
      "cept": 11068,
      "press": 11069,
      "sk": 11070,
      "cri": 11071,
      "ract": 11072,
      "resp": 11073,
      "ivers": 11074,
      "ward": 11075,
      "arm": 11076,
      "ases": 11077,
      "grow": 11078,
      "bre": 11079,
      "..": 11080,
      "though": 11081,
      "lead": 11082,
      "vi": 11083,
      "ider": 11084,
      "Mo": 11085,
      "made": 11086,
      "much": 11087,
      "she": 11088,
      "don": 11089,
      "take": 11090,
      "cap": 11091,
      "sha": 11092,
      "during": 11093,
      "ving": 11094,
      "follow": 11095,
      "school": 11096,
      "del": 11097,
      "So": 11098,
      "students": 11099,
      "nor": 11100,
      "tal": 11101,
      "ized": 11102,
      "ize": 11103,
      "cell": 11104,
      "ron": 11105,
      "cted": 11106,
      "clo": 11107,
      "study": 11108,
      "information": 11109,
      "But": 11110,
      "sci": 11111,
      "tri": 11112,
      "ah": 11113,
      "data": 11114,
      "hist": 11115,
      "care": 11116,
      "char": 11117,
      "Se": 11118,
      "rain": 11119,
      "put": 11120,
      "good": 11121,
      "proble": 11122,
      "does": 11123,
      "prote": 11124,
      "gl": 11125,
      "ages": 11126,
      "same": 11127,
      "power": 11128,
      "Be": 11129,
      "ways": 11130,
      "bi": 11131,
      "find": 11132,
      "dep": 11133,
      "mil": 11134,
      "play": 11135,
      "light": 11136,
      "ner": 11137,
      "hy": 11138,
      "grou": 11139,
      "poss": 11140,
      "dr": 11141,
      "inst": 11142,
      "view": 11143,
      "class": 11144,
      "organ": 11145,
      "What": 11146,
      "both": 11147,
      "treat": 11148,
      "You": 11149,
      "comple": 11150,
      "viron": 11151,
      "ban": 11152,
      "place": 11153,
      "ality": 11154,
      "body": 11155,
      "hip": 11156,
      "state": 11157,
      "show": 11158,
      "ude": 11159,
      "kh": 11160,
      "pop": 11161,
      "down": 11162,
      "ability": 11163,
      "Af": 11164,
      ".,": 11165,
      "New": 11166,
      "while": 11167,
      "sto": 11168,
      "lit": 11169,
      "kes": 11170,
      "hot": 11171,
      "small": 11172,
      "bel": 11173,
      "before": 11174,
      "aw": 11175,
      "thod": 11176,
      "exp": 11177,
      "ink": 11178,
      "often": 11179,
      "ext": 11180,
      "mein": 11181,
      "hand": 11182,
      "To": 11183,
      "ivid": 11184,
      "activ": 11185,
      "15": 11186,
      "right": 11187,
      "cts": 11188,
      "contro": 11189,
      "ince": 11190,
      "bal": 11191,
      "issu": 11192,
      "order": 11193,
      "let": 11194,
      "again": 11195,
      "plic": 11196,
      "ient": 11197,
      "||": 11198,
      "ants": 11199,
      "omen": 11200,
      "And": 11201,
      "12": 11202,
      "gre": 11203,
      "ven": 11204,
      "him": 11205,
      "ix": 11206,
      "net": 11207,
      "ger": 11208,
      "bit": 11209,
      "When": 11210,
      "number": 11211,
      "pare": 11212,
      "On": 11213,
      "ences": 11214,
      "design": 11215,
      "dise": 11216,
      "vironment": 11217,
      "jo": 11218,
      "known": 11219,
      "ished": 11220,
      "human": 11221,
      "times": 11222,
      "appro": 11223,
      "allow": 11224,
      "progra": 11225,
      "cle": 11226,
      "These": 11227,
      "sum": 11228,
      "test": 11229,
      "mot": 11230,
      "ides": 11231,
      "elect": 11232,
      "change": 11233,
      "experi": 11234,
      "leg": 11235,
      "000": 11236,
      "around": 11237,
      "iving": 11238,
      "lim": 11239,
      "gover": 11240,
      "cover": 11241,
      "example": 11242,
      "ional": 11243,
      "ord": 11244,
      "tle": 11245,
      "ital": 11246,
      "redu": 11247,
      "writ": 11248,
      "three": 11249,
      "sever": 11250,
      "gn": 11251,
      "dire": 11252,
      "ash": 11253,
      "cour": 11254,
      "turn": 11255,
      "199": 11256,
      "Is": 11257,
      "cr": 11258,
      "flu": 11259,
      "tum": 11260,
      "must": 11261,
      "por": 11262,
      "iversity": 11263,
      "eas": 11264,
      "teach": 11265,
      "based": 11266,
      "called": 11267,
      "ulation": 11268,
      "tribut": 11269,
      "17": 11270,
      "contin": 11271,
      "including": 11272,
      "che": 11273,
      "great": 11274,
      "educ": 11275,
      "support": 11276,
      "point": 11277,
      "mp": 11278,
      "large": 11279,
      "sing": 11280,
      "ury": 11281,
      "struct": 11282,
      "equ": 11283,
      "build": 11284,
      ",”": 11285,
      "did": 11286,
      "consider": 11287,
      "acter": 11288,
      "Ex": 11289,
      "ft": 11290,
      "govern": 11291,
      "pract": 11292,
      "ross": 11293,
      "pur": 11294,
      "ton": 11295,
      "dec": 11296,
      "sab": 11297,
      "public": 11298,
      "16": 11299,
      "ield": 11300,
      "ouse": 11301,
      "uro": 11302,
      "quest": 11303,
      "men": 11304,
      "understand": 11305,
      "start": 11306,
      "cu": 11307,
      "chang": 11308,
      "io": 11309,
      "itions": 11310,
      "war": 11311,
      "uj": 11312,
      "oper": 11313,
      "typ": 11314,
      "conom": 11315,
      "ased": 11316,
      "move": 11317,
      "energy": 11318,
      "vol": 11319,
      "face": 11320,
      "ential": 11321,
      "imp": 11322,
      "mus": 11323,
      "Ad": 11324,
      "too": 11325,
      "prof": 11326,
      "curren": 11327,
      "top": 11328,
      "ividual": 11329,
      "iven": 11330,
      "ids": 11331,
      "ually": 11332,
      "environment": 11333,
      "appe": 11334,
      "still": 11335,
      "pain": 11336,
      "dist": 11337,
      "aterial": 11338,
      "require": 11339,
      "iqu": 11340,
      "term": 11341,
      "phys": 11342,
      "adv": 11343,
      "30": 11344,
      "miss": 11345,
      "cha": 11346,
      "outh": 11347,
      "itive": 11348,
      "sit": 11349,
      "ben": 11350,
      "depend": 11351,
      "home": 11352,
      "pot": 11353,
      "might": 11354,
      "ately": 11355,
      "pass": 11356,
      "uses": 11357,
      "However": 11358,
      "head": 11359,
      "cult": 11360,
      "social": 11361,
      "ujhe": 11362,
      "ute": 11363,
      "came": 11364,
      "want": 11365,
      "ization": 11366,
      "family": 11367,
      "At": 11368,
      "anal": 11369,
      "American": 11370,
      "nat": 11371,
      "few": 11372,
      "ights": 11373,
      "individual": 11374,
      "development": 11375,
      "ref": 11376,
      "within": 11377,
      "bers": 11378,
      "gin": 11379,
      "ources": 11380,
      "nahi": 11381,
      "sam": 11382,
      "har": 11383,
      "common": 11384,
      "without": 11385,
      "learn": 11386,
      "enc": 11387,
      "best": 11388,
      "und": 11389,
      "angu": 11390,
      "Wor": 11391,
      "ason": 11392,
      "ctor": 11393,
      "cording": 11394,
      "feel": 11395,
      "mic": 11396,
      "material": 11397,
      "law": 11398,
      "50": 11399,
      "ived": 11400,
      "ran": 11401,
      "mill": 11402,
      "University": 11403,
      "Au": 11404,
      "ples": 11405,
      "project": 11406,
      "real": 11407,
      "dra": 11408,
      "risk": 11409,
      ".\"": 11410,
      "itional": 11411,
      "kin": 11412,
      "indu": 11413,
      "book": 11414,
      "til": 11415,
      "14": 11416,
      "plant": 11417,
      "ken": 11418,
      "disease": 11419,
      "area": 11420,
      "possible": 11421,
      "last": 11422,
      "econom": 11423,
      "meas": 11424,
      "thor": 11425,
      "report": 11426,
      "belie": 11427,
      "inal": 11428,
      "loc": 11429,
      "No": 11430,
      "look": 11431,
      "control": 11432,
      "iness": 11433,
      "ele": 11434,
      "Bo": 11435,
      "ond": 11436,
      "women": 11437,
      "another": 11438,
      "blood": 11439,
      "stit": 11440,
      "nam": 11441,
      "ense": 11442,
      "include": 11443,
      "non": 11444,
      "lag": 11445,
      "bed": 11446,
      "anim": 11447,
      "jor": 11448,
      "Co": 11449,
      "contain": 11450,
      "Le": 11451,
      "bus": 11452,
      "proper": 11453,
[...]
